{
  "version": "1.0",
  "truncation": null,
  "padding": null,
  "added_tokens": [
    {
      "id": 0,
      "content": "[PAD]",
      "single_word": false,
      "lstrip": false,
      "rstrip": false,
      "normalized": false,
      "special": true
    },
    {
      "id": 1,
      "content": "[UNK]",
      "single_word": false,
      "lstrip": false,
      "rstrip": false,
      "normalized": false,
      "special": true
    },
    {
      "id": 2,
      "content": "[CLS]",
      "single_word": false,
      "lstrip": false,
      "rstrip": false,
      "normalized": false,
      "special": true
    },
    {
      "id": 3,
      "content": "[SEP]",
      "single_word": false,
      "lstrip": false,
      "rstrip": false,
      "normalized": false,
      "special": true
    },
    {
      "id": 4,
      "content": "[MASK]",
      "single_word": false,
      "lstrip": false,
      "rstrip": false,
      "normalized": false,
      "special": true
    }
  ],
  "normalizer": {
    "type": "BertNormalizer",
    "clean_text": true,
    "handle_chinese_chars": true,
    "strip_accents": false,
    "lowercase": true
  },
  "pre_tokenizer": {
    "type": "BertPreTokenizer"
  },
  "post_processor": {
    "type": "TemplateProcessing",
    "single": [
      {
        "SpecialToken": {
          "id": "[CLS]",
          "type_id": 0
        }
      },
      {
        "Sequence": {
          "id": "A",
          "type_id": 0
        }
      },
      {
        "SpecialToken": {
          "id": "[SEP]",
          "type_id": 0
        }
      }
    ],
    "pair": [
      {
        "SpecialToken": {
          "id": "[CLS]",
          "type_id": 0
        }
      },
      {
        "Sequence": {
          "id": "A",
          "type_id": 0
        }
      },
      {
        "SpecialToken": {
          "id": "[SEP]",
          "type_id": 0
        }
      },
      {
        "Sequence": {
          "id": "B",
          "type_id": 1
        }
      },
      {
        "SpecialToken": {
          "id": "[SEP]",
          "type_id": 1
        }
      }
    ],
    "special_tokens": {
      "[CLS]": {
        "id": "[CLS]",
        "ids": [
          2
        ],
        "tokens": [
          "[CLS]"
        ]
      },
      "[SEP]": {
        "id": "[SEP]",
        "ids": [
          3
        ],
        "tokens": [
          "[SEP]"
        ]
      }
    }
  },
  "decoder": {
    "type": "WordPiece",
    "prefix": "##",
    "cleanup": true
  },
  "model": {
    "type": "WordPiece",
    "unk_token": "[UNK]",
    "continuing_subword_prefix": "##",
    "max_input_chars_per_word": 100,
    "vocab": {
      "[PAD]": 0,
      "[UNK]": 1,
      "[CLS]": 2,
      "[SEP]": 3,
      "[MASK]": 4,
      "!": 5,
      "\"": 6,
      "#": 7,
      "$": 8,
      "%": 9,
      "&": 10,
      "'": 11,
      "(": 12,
      ")": 13,
      "*": 14,
      "+": 15,
      ",": 16,
      "-": 17,
      ".": 18,
      "/": 19,
      "0": 20,
      "1": 21,
      "2": 22,
      "3": 23,
      "4": 24,
      "5": 25,
      "6": 26,
      "7": 27,
      "8": 28,
      "9": 29,
      ":": 30,
      ";": 31,
      "<": 32,
      "=": 33,
      ">": 34,
      "?": 35,
      "@": 36,
      "[": 37,
      "]": 38,
      "^": 39,
      "_": 40,
      "`": 41,
      "a": 42,
      "b": 43,
      "c": 44,
      "d": 45,
      "e": 46,
      "f": 47,
      "g": 48,
      "h": 49,
      "i": 50,
      "j": 51,
      "k": 52,
      "l": 53,
      "m": 54,
      "n": 55,
      "o": 56,
      "p": 57,
      "q": 58,
      "r": 59,
      "s": 60,
      "t": 61,
      "u": 62,
      "v": 63,
      "w": 64,
      "x": 65,
      "y": 66,
      "z": 67,
      "{": 68,
      "}": 69,
      "Á": 70,
      "Â": 71,
      "Ä": 72,
      "Æ": 73,
      "É": 74,
      "Ê": 75,
      "Ë": 76,
      "Í": 77,
      "Î": 78,
      "Ï": 79,
      "Ó": 80,
      "Ô": 81,
      "Ö": 82,
      "Ù": 83,
      "Ú": 84,
      "Û": 85,
      "Ü": 86,
      "Ý": 87,
      "á": 88,
      "â": 89,
      "ä": 90,
      "æ": 91,
      "é": 92,
      "ê": 93,
      "ë": 94,
      "í": 95,
      "î": 96,
      "ï": 97,
      "ó": 98,
      "ô": 99,
      "ö": 100,
      "ù": 101,
      "ú": 102,
      "û": 103,
      "ü": 104,
      "ý": 105,
      "ÿ": 106,
      "Č": 107,
      "č": 108,
      "Ď": 109,
      "ď": 110,
      "Ě": 111,
      "ě": 112,
      "Ĺ": 113,
      "ĺ": 114,
      "Ľ": 115,
      "ľ": 116,
      "Ň": 117,
      "ň": 118,
      "Œ": 119,
      "œ": 120,
      "Ŕ": 121,
      "ŕ": 122,
      "Ř": 123,
      "ř": 124,
      "Š": 125,
      "š": 126,
      "Ť": 127,
      "ť": 128,
      "Ů": 129,
      "ů": 130,
      "Ÿ": 131,
      "Ž": 132,
      "ž": 133,
      "##d": 134,
      "##r": 135,
      "##f": 136,
      "##k": 137,
      "##l": 138,
      "##y": 139,
      "##t": 140,
      "##i": 141,
      "##s": 142,
      "##e": 143,
      "##n": 144,
      "##a": 145,
      "##c": 146,
      "##b": 147,
      "##ř": 148,
      "##j": 149,
      "##p": 150,
      "##v": 151,
      "##o": 152,
      "##é": 153,
      "##h": 154,
      "##á": 155,
      "##í": 156,
      "##ž": 157,
      "##ý": 158,
      "##m": 159,
      "##w": 160,
      "##č": 161,
      "##š": 162,
      "##8": 163,
      "##7": 164,
      "##3": 165,
      "##1": 166,
      "##5": 167,
      "##z": 168,
      "##u": 169,
      "##g": 170,
      "##ě": 171,
      "##4": 172,
      "##0": 173,
      "##2": 174,
      "##6": 175,
      "##ů": 176,
      "##û": 177,
      "##ň": 178,
      "##Š": 179,
      "##9": 180,
      "##Ú": 181,
      "##ľ": 182,
      "##ú": 183,
      "##ó": 184,
      "##x": 185,
      "##Č": 186,
      "##ť": 187,
      "##Á": 188,
      "##ď": 189,
      "##Ý": 190,
      "##ü": 191,
      "##Í": 192,
      "##Ž": 193,
      "##Ň": 194,
      "##Ů": 195,
      "##ä": 196,
      "##â": 197,
      "##Ř": 198,
      "##É": 199,
      "##q": 200,
      "##ö": 201,
      "##Ť": 202,
      "##ÿ": 203,
      "##Ë": 204,
      "##Ï": 205,
      "##ù": 206,
      "##î": 207,
      "##ê": 208,
      "##ŕ": 209,
      "##Ó": 210,
      "##ï": 211,
      "##Û": 212,
      "##Ě": 213,
      "##ĺ": 214,
      "##Ĺ": 215,
      "##Ä": 216,
      "##ô": 217,
      "##Ê": 218,
      "##Ö": 219,
      "##ë": 220,
      "##Î": 221,
      "##Ù": 222,
      "##Æ": 223,
      "##æ": 224,
      "##Ľ": 225,
      "##Ô": 226,
      "##Â": 227,
      "##Œ": 228,
      "##Ď": 229,
      "##œ": 230,
      "##Ü": 231,
      "##Ÿ": 232,
      "##Ŕ": 233,
      "##ní": 234,
      "##st": 235,
      "##ov": 236,
      "##ch": 237,
      "##en": 238,
      "po": 239,
      "##ro": 240,
      "##ra": 241,
      "na": 242,
      "##le": 243,
      "##ou": 244,
      "##te": 245,
      "##la": 246,
      "ne": 247,
      "##ce": 248,
      "##li": 249,
      "do": 250,
      "př": 251,
      "je": 252,
      "se": 253,
      "pro": 254,
      "##ho": 255,
      "##em": 256,
      "##ak": 257,
      "##in": 258,
      "##at": 259,
      "##an": 260,
      "##ky": 261,
      "##or": 262,
      "##ně": 263,
      "##ka": 264,
      "##de": 265,
      "##it": 266,
      "##lo": 267,
      "##no": 268,
      "##ku": 269,
      "##rá": 270,
      "st": 271,
      "za": 272,
      "to": 273,
      "##ed": 274,
      "##ko": 275,
      "##od": 276,
      "ob": 277,
      "##ni": 278,
      "##al": 279,
      "##sk": 280,
      "vy": 281,
      "ko": 282,
      "##er": 283,
      "##va": 284,
      "##et": 285,
      "##ci": 286,
      "##né": 287,
      "##je": 288,
      "##to": 289,
      "##el": 290,
      "##na": 291,
      "##cí": 292,
      "##ar": 293,
      "##jí": 294,
      "##ře": 295,
      "by": 296,
      "##ých": 297,
      "##ná": 298,
      "##ti": 299,
      "##ší": 300,
      "##po": 301,
      "od": 302,
      "ro": 303,
      "##ad": 304,
      "##lu": 305,
      "##ová": 306,
      "##ek": 307,
      "##mi": 308,
      "js": 309,
      "ná": 310,
      "##av": 311,
      "##ck": 312,
      "zá": 313,
      "##ení": 314,
      "ve": 315,
      "tak": 316,
      "##sti": 317,
      "mo": 318,
      "vý": 319,
      "##lá": 320,
      "##ru": 321,
      "##ter": 322,
      "##ové": 323,
      "pod": 324,
      "##by": 325,
      "##es": 326,
      "##il": 327,
      "##vě": 328,
      "##ří": 329,
      "při": 330,
      "##dy": 331,
      "pr": 332,
      "##tě": 333,
      "jak": 334,
      "##mě": 335,
      "pří": 336,
      "##mu": 337,
      "##me": 338,
      "že": 339,
      "##vo": 340,
      "##bo": 341,
      "##ví": 342,
      "##tu": 343,
      "##ez": 344,
      "##ob": 345,
      "##is": 346,
      "ch": 347,
      "##vá": 348,
      "re": 349,
      "##du": 350,
      "##dě": 351,
      "mě": 352,
      "##am": 353,
      "si": 354,
      "##ne": 355,
      "##ny": 356,
      "##ál": 357,
      "##ji": 358,
      "##ta": 359,
      "##ný": 360,
      "pra": 361,
      "##že": 362,
      "##ze": 363,
      "##ské": 364,
      "##as": 365,
      "##pra": 366,
      "bu": 367,
      "##nu": 368,
      "ale": 369,
      "ně": 370,
      "##ty": 371,
      "##da": 372,
      "##še": 373,
      "in": 374,
      "##lí": 375,
      "jed": 376,
      "##ma": 377,
      "roz": 378,
      "##tel": 379,
      "před": 380,
      "##dá": 381,
      "kter": 382,
      "##ční": 383,
      "##ova": 384,
      "te": 385,
      "##mo": 386,
      "sp": 387,
      "ho": 388,
      "ma": 389,
      "##vní": 390,
      "nej": 391,
      "##ri": 392,
      "ka": 393,
      "##ží": 394,
      "##ká": 395,
      "##nost": 396,
      "##nou": 397,
      "##ly": 398,
      "##tí": 399,
      "mi": 400,
      "##up": 401,
      "##di": 402,
      "##uje": 403,
      "##ování": 404,
      "li": 405,
      "co": 406,
      "##ého": 407,
      "spo": 408,
      "jsem": 409,
      "##rov": 410,
      "##ři": 411,
      "##ým": 412,
      "sou": 413,
      "##vi": 414,
      "##cho": 415,
      "##ém": 416,
      "##ím": 417,
      "má": 418,
      "##led": 419,
      "##kla": 420,
      "kon": 421,
      "##bu": 422,
      "sv": 423,
      "nebo": 424,
      "kč": 425,
      "##ště": 426,
      "dě": 427,
      "pře": 428,
      "##do": 429,
      "##hod": 430,
      "mu": 431,
      "vě": 432,
      "##vy": 433,
      "ji": 434,
      "##čí": 435,
      "mí": 436,
      "##sta": 437,
      "20": 438,
      "##ba": 439,
      "##ovat": 440,
      "##ním": 441,
      "jako": 442,
      "ni": 443,
      "prá": 444,
      "##bí": 445,
      "##lou": 446,
      "##mí": 447,
      "vz": 448,
      "kdy": 449,
      "##má": 450,
      "##ent": 451,
      "jsou": 452,
      "##zi": 453,
      "##ry": 454,
      "##ový": 455,
      "hod": 456,
      "##si": 457,
      "##ha": 458,
      "##kou": 459,
      "##ních": 460,
      "##sto": 461,
      "##pad": 462,
      "už": 463,
      "vá": 464,
      "##stav": 465,
      "##re": 466,
      "##át": 467,
      "##ků": 468,
      "##jící": 469,
      "##nosti": 470,
      "##ie": 471,
      "##bě": 472,
      "ví": 473,
      "##sa": 474,
      "##jem": 475,
      "##pě": 476,
      "##ick": 477,
      "ze": 478,
      "##ena": 479,
      "pou": 480,
      "vše": 481,
      "##ené": 482,
      "##lov": 483,
      "os": 484,
      "bo": 485,
      "##dí": 486,
      "ku": 487,
      "##ád": 488,
      "##stup": 489,
      "##ve": 490,
      "vel": 491,
      "bez": 492,
      "##žit": 493,
      "##hu": 494,
      "pos": 495,
      "le": 496,
      "##za": 497,
      "##tá": 498,
      "##če": 499,
      "fo": 500,
      "##kov": 501,
      "tě": 502,
      "##my": 503,
      "jen": 504,
      "##pe": 505,
      "##oru": 506,
      "dal": 507,
      "##zí": 508,
      "##sí": 509,
      "pa": 510,
      "kte": 511,
      "##klad": 512,
      "které": 513,
      "##dech": 514,
      "tu": 515,
      "ak": 516,
      "vo": 517,
      "au": 518,
      "##ální": 519,
      "##ných": 520,
      "##či": 521,
      "##ste": 522,
      "##pu": 523,
      "##kt": 524,
      "let": 525,
      "další": 526,
      "##eno": 527,
      "##ovan": 528,
      "bude": 529,
      "##kon": 530,
      "##vod": 531,
      "mů": 532,
      "ty": 533,
      "##tní": 534,
      "##eny": 535,
      "##zení": 536,
      "poz": 537,
      "##lé": 538,
      "##jší": 539,
      "##stí": 540,
      "##on": 541,
      "##ran": 542,
      "##ina": 543,
      "dí": 544,
      "10": 545,
      "cel": 546,
      "##prav": 547,
      "pot": 548,
      "vi": 549,
      "##lem": 550,
      "##ská": 551,
      "##kem": 552,
      "##hy": 553,
      "##čky": 554,
      "##ství": 555,
      "dob": 556,
      "##se": 557,
      "##řed": 558,
      "##ši": 559,
      "hla": 560,
      "no": 561,
      "zd": 562,
      "##lat": 563,
      "ten": 564,
      "##ená": 565,
      "jin": 566,
      "dá": 567,
      "##chod": 568,
      "##leč": 569,
      "##dej": 570,
      "##chodech": 571,
      "obchodech": 572,
      "prost": 573,
      "##ist": 574,
      "min": 575,
      "nad": 576,
      "##raz": 577,
      "##ovo": 578,
      "##iny": 579,
      "##ice": 580,
      "všech": 581,
      "vla": 582,
      "##vět": 583,
      "jedno": 584,
      "nap": 585,
      "##gra": 586,
      "de": 587,
      "##ově": 588,
      "##chá": 589,
      "sk": 590,
      "##ži": 591,
      "který": 592,
      "když": 593,
      "jsme": 594,
      "##ního": 595,
      "mož": 596,
      "##cké": 597,
      "##rou": 598,
      "##nání": 599,
      "aby": 600,
      "##ský": 601,
      "##ec": 602,
      "##hra": 603,
      "##oup": 604,
      "##vr": 605,
      "##ali": 606,
      "stav": 607,
      "##for": 608,
      "##ného": 609,
      "di": 610,
      "ru": 611,
      "kom": 612,
      "##stat": 613,
      "##tek": 614,
      "ta": 615,
      "nabí": 616,
      "bý": 617,
      "prodej": 618,
      "poku": 619,
      "ži": 620,
      "##so": 621,
      "dů": 622,
      "ry": 623,
      "jeho": 624,
      "so": 625,
      "byl": 626,
      "##rát": 627,
      "slu": 628,
      "hra": 629,
      "##pl": 630,
      "může": 631,
      "ško": 632,
      "##zna": 633,
      "také": 634,
      "an": 635,
      "sy": 636,
      "nás": 637,
      "##liv": 638,
      "té": 639,
      "proto": 640,
      "Če": 641,
      "op": 642,
      "##čet": 643,
      "##čka": 644,
      "##men": 645,
      "ke": 646,
      "není": 647,
      "foto": 648,
      "##un": 649,
      "my": 650,
      "stra": 651,
      "dru": 652,
      "ba": 653,
      "##lož": 654,
      "nep": 655,
      "##00": 656,
      "##dou": 657,
      "##len": 658,
      "##tor": 659,
      "##rob": 660,
      "tr": 661,
      "pá": 662,
      "va": 663,
      "##dat": 664,
      "##bor": 665,
      "##zu": 666,
      "sam": 667,
      "ja": 668,
      "zp": 669,
      "##dr": 670,
      "##pis": 671,
      "##nit": 672,
      "##vu": 673,
      "ce": 674,
      "mez": 675,
      "kra": 676,
      "201": 677,
      "##bi": 678,
      "pů": 679,
      "vod": 680,
      "sm": 681,
      "sta": 682,
      "společ": 683,
      "podle": 684,
      "ří": 685,
      "dopra": 686,
      "bylo": 687,
      "než": 688,
      "##ut": 689,
      "až": 690,
      "pokud": 691,
      "byla": 692,
      "##cích": 693,
      "fi": 694,
      "sto": 695,
      "##ati": 696,
      "něk": 697,
      "##lní": 698,
      "ti": 699,
      "##nice": 700,
      "##pa": 701,
      "##fi": 702,
      "první": 703,
      "toho": 704,
      "či": 705,
      "být": 706,
      "jí": 707,
      "##chy": 708,
      "##sob": 709,
      "přes": 710,
      "##hle": 711,
      "##ený": 712,
      "##log": 713,
      "praha": 714,
      "ex": 715,
      "##stě": 716,
      "##ových": 717,
      "##co": 718,
      "kaž": 719,
      "##sp": 720,
      "##vně": 721,
      "##ud": 722,
      "##lení": 723,
      "##ké": 724,
      "infor": 725,
      "rá": 726,
      "lo": 727,
      "##nes": 728,
      "prac": 729,
      "##šení": 730,
      "krá": 731,
      "##zd": 732,
      "pla": 733,
      "##řej": 734,
      "par": 735,
      "obchod": 736,
      "která": 737,
      "něj": 738,
      "##čení": 739,
      "##sy": 740,
      "##kové": 741,
      "##ům": 742,
      "pak": 743,
      "moh": 744,
      "vlast": 745,
      "##ani": 746,
      "rad": 747,
      "##ření": 748,
      "##há": 749,
      "19": 750,
      "##dní": 751,
      "ani": 752,
      "vš": 753,
      "##vali": 754,
      "ještě": 755,
      "tom": 756,
      "##um": 757,
      "##oval": 758,
      "prů": 759,
      "čá": 760,
      "hodno": 761,
      "##mů": 762,
      "##rg": 763,
      "##ského": 764,
      "stá": 765,
      "##spě": 766,
      "rod": 767,
      "osob": 768,
      "##mé": 769,
      "více": 770,
      "##lep": 771,
      "práce": 772,
      "pe": 773,
      "##hled": 774,
      "##ct": 775,
      "lé": 776,
      "obrá": 777,
      "ste": 778,
      "##ček": 779,
      "##teč": 780,
      "bar": 781,
      "kde": 782,
      "##tem": 783,
      "##rovnání": 784,
      "jeji": 785,
      "##zy": 786,
      "pov": 787,
      "br": 788,
      "den": 789,
      "jejich": 790,
      "če": 791,
      "sku": 792,
      "##ovní": 793,
      "##lik": 794,
      "kr": 795,
      "mezi": 796,
      "auto": 797,
      "kar": 798,
      "tam": 799,
      "##ís": 800,
      "##jte": 801,
      "##por": 802,
      "ur": 803,
      "##nění": 804,
      "informa": 805,
      "##čit": 806,
      "##zek": 807,
      "##pi": 808,
      "čer": 809,
      "pl": 810,
      "##itu": 811,
      "##iná": 812,
      "##nat": 813,
      "##chu": 814,
      "##ným": 815,
      "##vat": 816,
      "##cen": 817,
      "já": 818,
      "nové": 819,
      "živo": 820,
      "rych": 821,
      "##pr": 822,
      "tý": 823,
      "##ved": 824,
      "sna": 825,
      "su": 826,
      "tím": 827,
      "případ": 828,
      "doprava": 829,
      "##slu": 830,
      "##cky": 831,
      "##cení": 832,
      "mno": 833,
      "mal": 834,
      "rů": 835,
      "##ovi": 836,
      "vět": 837,
      "##val": 838,
      "asi": 839,
      "##vou": 840,
      "mar": 841,
      "##ských": 842,
      "druh": 843,
      "##ovou": 844,
      "dis": 845,
      "##eme": 846,
      "##teri": 847,
      "##nout": 848,
      "##bra": 849,
      "12": 850,
      "velmi": 851,
      "##čas": 852,
      "každ": 853,
      "zem": 854,
      "přidat": 855,
      "zna": 856,
      "bě": 857,
      "##chni": 858,
      "##be": 859,
      "##su": 860,
      "##tele": 861,
      "##ato": 862,
      "##vání": 863,
      "samo": 864,
      "##let": 865,
      "své": 866,
      "##kr": 867,
      "hor": 868,
      "##bli": 869,
      "nez": 870,
      "##měr": 871,
      "##im": 872,
      "##ing": 873,
      "tře": 874,
      "15": 875,
      "všechny": 876,
      "ted": 877,
      "##byt": 878,
      "##ané": 879,
      "úč": 880,
      "prob": 881,
      "čas": 882,
      "potře": 883,
      "##den": 884,
      "již": 885,
      "##hla": 886,
      "##ast": 887,
      "stan": 888,
      "##ito": 889,
      "##jed": 890,
      "##nutí": 891,
      "kvali": 892,
      "##del": 893,
      "du": 894,
      "ele": 895,
      "nabíd": 896,
      "##inu": 897,
      "##eni": 898,
      "ceny": 899,
      "##nější": 900,
      "proje": 901,
      "syst": 902,
      "##vý": 903,
      "##ují": 904,
      "##stra": 905,
      "pomo": 906,
      "nějak": 907,
      "##pí": 908,
      "poli": 909,
      "##ině": 910,
      "##cha": 911,
      "##poru": 912,
      "200": 913,
      "##ické": 914,
      "##jeme": 915,
      "##nky": 916,
      "tra": 917,
      "cm": 918,
      "##rů": 919,
      "zač": 920,
      "kont": 921,
      "rozhod": 922,
      "kam": 923,
      "sa": 924,
      "##ver": 925,
      "pan": 926,
      "stej": 927,
      "##kaz": 928,
      "kni": 929,
      "budou": 930,
      "pě": 931,
      "##lém": 932,
      "##ším": 933,
      "pi": 934,
      "hotel": 935,
      "##ga": 936,
      "obrázek": 937,
      "##ber": 938,
      "kli": 939,
      "ře": 940,
      "al": 941,
      "ostat": 942,
      "uži": 943,
      "##ory": 944,
      "##ového": 945,
      "fun": 946,
      "ní": 947,
      "des": 948,
      "zdra": 949,
      "##ady": 950,
      "bych": 951,
      "##dání": 952,
      "##vé": 953,
      "##ner": 954,
      "proti": 955,
      "for": 956,
      "##stá": 957,
      "##eb": 958,
      "tento": 959,
      "##žení": 960,
      "vám": 961,
      "star": 962,
      "la": 963,
      "ov": 964,
      "veli": 965,
      "##race": 966,
      "dobr": 967,
      "nes": 968,
      "koup": 969,
      "lid": 970,
      "##lad": 971,
      "da": 972,
      "##cký": 973,
      "ap": 974,
      "##hem": 975,
      "musí": 976,
      "zak": 977,
      "moc": 978,
      "##ených": 979,
      "##ností": 980,
      "dlou": 981,
      "nic": 982,
      "##ková": 983,
      "##vis": 984,
      "##teg": 985,
      "produ": 986,
      "elekt": 987,
      "##ců": 988,
      "fil": 989,
      "##io": 990,
      "##roj": 991,
      "##nek": 992,
      "zbo": 993,
      "##kra": 994,
      "porovnání": 995,
      "svě": 996,
      "plá": 997,
      "##lav": 998,
      "man": 999,
      "##ata": 1000,
      "prostřed": 1001,
      "tomu": 1002,
      "##nika": 1003,
      "domá": 1004,
      "us": 1005,
      "vyu": 1006,
      "zahra": 1007,
      "její": 1008,
      "sí": 1009,
      "cí": 1010,
      "##py": 1011,
      "strá": 1012,
      "pouze": 1013,
      "##eně": 1014,
      "##řízení": 1015,
      "##ném": 1016,
      "org": 1017,
      "protože": 1018,
      "odp": 1019,
      "zde": 1020,
      "děti": 1021,
      "něko": 1022,
      "cena": 1023,
      "lu": 1024,
      "fir": 1025,
      "##řad": 1026,
      "##stu": 1027,
      "##vit": 1028,
      "##zem": 1029,
      "##ký": 1030,
      "změ": 1031,
      "##ůsob": 1032,
      "základ": 1033,
      "pat": 1034,
      "progra": 1035,
      "##ene": 1036,
      "mas": 1037,
      "služ": 1038,
      "##ktu": 1039,
      "on": 1040,
      "##rní": 1041,
      "zboží": 1042,
      "##kce": 1043,
      "zamě": 1044,
      "ar": 1045,
      "tedy": 1046,
      "sprá": 1047,
      "##tra": 1048,
      "##pět": 1049,
      "##lan": 1050,
      "30": 1051,
      "dle": 1052,
      "##šť": 1053,
      "##št": 1054,
      "##čně": 1055,
      "kou": 1056,
      "výs": 1057,
      "##nov": 1058,
      "##van": 1059,
      "##ovací": 1060,
      "uz": 1061,
      "spolu": 1062,
      "vů": 1063,
      "místo": 1064,
      "posled": 1065,
      "vás": 1066,
      "nik": 1067,
      "svět": 1068,
      "##ání": 1069,
      "mys": 1070,
      "met": 1071,
      "##án": 1072,
      "##čku": 1073,
      "tep": 1074,
      "##bav": 1075,
      "##man": 1076,
      "však": 1077,
      "měsí": 1078,
      "dne": 1079,
      "##stru": 1080,
      "##stli": 1081,
      "roku": 1082,
      "me": 1083,
      "tele": 1084,
      "vol": 1085,
      "chy": 1086,
      "vyso": 1087,
      "reg": 1088,
      "obsa": 1089,
      "per": 1090,
      "##sty": 1091,
      "##nám": 1092,
      "spor": 1093,
      "třeba": 1094,
      "pu": 1095,
      "mám": 1096,
      "dr": 1097,
      "růz": 1098,
      "pop": 1099,
      "##jde": 1100,
      "##šen": 1101,
      "problém": 1102,
      "roce": 1103,
      "nám": 1104,
      "##tr": 1105,
      "##dla": 1106,
      "žád": 1107,
      "##rod": 1108,
      "podob": 1109,
      "zat": 1110,
      "11": 1111,
      "##vky": 1112,
      "obje": 1113,
      "##ven": 1114,
      "kap": 1115,
      "##ace": 1116,
      "této": 1117,
      "mají": 1118,
      "lá": 1119,
      "výrob": 1120,
      "##znam": 1121,
      "##ovice": 1122,
      "něco": 1123,
      "střed": 1124,
      "##sko": 1125,
      "tro": 1126,
      "jednot": 1127,
      "##ca": 1128,
      "spe": 1129,
      "oprav": 1130,
      "##kti": 1131,
      "sil": 1132,
      "##děl": 1133,
      "50": 1134,
      "hlavní": 1135,
      "fotogra": 1136,
      "dost": 1137,
      "kraj": 1138,
      "##sky": 1139,
      "použí": 1140,
      "##zace": 1141,
      "##cká": 1142,
      "##met": 1143,
      "##peč": 1144,
      "neu": 1145,
      "způsob": 1146,
      "zku": 1147,
      "hu": 1148,
      "##dlo": 1149,
      "##ležit": 1150,
      "neby": 1151,
      "##mov": 1152,
      "uved": 1153,
      "příslu": 1154,
      "nemo": 1155,
      "doporu": 1156,
      "ci": 1157,
      "fin": 1158,
      "##ník": 1159,
      "##chází": 1160,
      "akti": 1161,
      "##nů": 1162,
      "##vatel": 1163,
      "##žel": 1164,
      "nech": 1165,
      "představ": 1166,
      "bra": 1167,
      "##ující": 1168,
      "##roz": 1169,
      "##ždy": 1170,
      "kteří": 1171,
      "##skou": 1172,
      "takže": 1173,
      "poby": 1174,
      "##ag": 1175,
      "kan": 1176,
      "dnes": 1177,
      "počet": 1178,
      "##ované": 1179,
      "České": 1180,
      "##ej": 1181,
      "žá": 1182,
      "##hlá": 1183,
      "##zo": 1184,
      "nedo": 1185,
      "ostatní": 1186,
      "dět": 1187,
      "##kách": 1188,
      "obla": 1189,
      "tří": 1190,
      "kro": 1191,
      "vr": 1192,
      "##prac": 1193,
      "ved": 1194,
      "čin": 1195,
      "##řád": 1196,
      "techni": 1197,
      "##ii": 1198,
      "pož": 1199,
      "vyt": 1200,
      "lí": 1201,
      "##ily": 1202,
      "ven": 1203,
      "zob": 1204,
      "zařízení": 1205,
      "díky": 1206,
      "##ými": 1207,
      "město": 1208,
      "ter": 1209,
      "sch": 1210,
      "##lit": 1211,
      "och": 1212,
      "dva": 1213,
      "##šet": 1214,
      "komu": 1215,
      "byly": 1216,
      "##bou": 1217,
      "hodnocení": 1218,
      "##ska": 1219,
      "18": 1220,
      "smlou": 1221,
      "prof": 1222,
      "##ovala": 1223,
      "provo": 1224,
      "##čá": 1225,
      "konce": 1226,
      "domácí": 1227,
      "speci": 1228,
      "informace": 1229,
      "##inou": 1230,
      "jste": 1231,
      "##tech": 1232,
      "míst": 1233,
      "oko": 1234,
      "plo": 1235,
      "vždy": 1236,
      "ev": 1237,
      "měl": 1238,
      "taky": 1239,
      "snad": 1240,
      "14": 1241,
      "##sá": 1242,
      "systém": 1243,
      "těch": 1244,
      "##rie": 1245,
      "skup": 1246,
      "##hrá": 1247,
      "můžete": 1248,
      "mít": 1249,
      "##rt": 1250,
      "##álně": 1251,
      "##tegor": 1252,
      "posky": 1253,
      "pracovní": 1254,
      "jo": 1255,
      "dopl": 1256,
      "##sku": 1257,
      "bí": 1258,
      "##dek": 1259,
      "případě": 1260,
      "##nec": 1261,
      "at": 1262,
      "##ctví": 1263,
      "slov": 1264,
      "##jení": 1265,
      "inter": 1266,
      "##aly": 1267,
      "##vají": 1268,
      "##dob": 1269,
      "tato": 1270,
      "##ám": 1271,
      "##edi": 1272,
      "ote": 1273,
      "##lika": 1274,
      "bud": 1275,
      "##voj": 1276,
      "ra": 1277,
      "kategor": 1278,
      "##té": 1279,
      "##losti": 1280,
      "##fo": 1281,
      "##ách": 1282,
      "materi": 1283,
      "##jít": 1284,
      "##zku": 1285,
      "##ckých": 1286,
      "chce": 1287,
      "##lez": 1288,
      "pri": 1289,
      "minu": 1290,
      "##net": 1291,
      "přek": 1292,
      "lze": 1293,
      "##nem": 1294,
      "am": 1295,
      "kdo": 1296,
      "zel": 1297,
      "##he": 1298,
      "cen": 1299,
      "##dělá": 1300,
      "komp": 1301,
      "##lý": 1302,
      "nemá": 1303,
      "fak": 1304,
      "hodin": 1305,
      "zaji": 1306,
      "##klá": 1307,
      "##mys": 1308,
      "pobyty": 1309,
      "13": 1310,
      "zv": 1311,
      "##us": 1312,
      "up": 1313,
      "města": 1314,
      "##ovnat": 1315,
      "stát": 1316,
      "##zor": 1317,
      "dra": 1318,
      "##publi": 1319,
      "##kro": 1320,
      "##lka": 1321,
      "##ští": 1322,
      "##porovnat": 1323,
      "porovnáníporovnat": 1324,
      "ubyt": 1325,
      "naše": 1326,
      "služby": 1327,
      "nepo": 1328,
      "##chop": 1329,
      "##řit": 1330,
      "##ovali": 1331,
      "vhod": 1332,
      "zají": 1333,
      "použit": 1334,
      "16": 1335,
      "veřej": 1336,
      "##tů": 1337,
      "evro": 1338,
      "kla": 1339,
      "##lost": 1340,
      "##sou": 1341,
      "##čních": 1342,
      "stro": 1343,
      "republi": 1344,
      "sklad": 1345,
      "##ol": 1346,
      "mod": 1347,
      "##ove": 1348,
      "nebu": 1349,
      "##lově": 1350,
      "##štění": 1351,
      "vlastní": 1352,
      "##min": 1353,
      "určit": 1354,
      "ga": 1355,
      "obchodu": 1356,
      "finan": 1357,
      "##hov": 1358,
      "náro": 1359,
      "zap": 1360,
      "25": 1361,
      "bod": 1362,
      "##lky": 1363,
      "##id": 1364,
      "dvě": 1365,
      "ks": 1366,
      "100": 1367,
      "jestli": 1368,
      "chtě": 1369,
      "##mou": 1370,
      "právě": 1371,
      "##fek": 1372,
      "##lů": 1373,
      "uni": 1374,
      "výro": 1375,
      "##mav": 1376,
      "klu": 1377,
      "##vů": 1378,
      "rok": 1379,
      "##dení": 1380,
      "ode": 1381,
      "##vka": 1382,
      "##jet": 1383,
      "sport": 1384,
      "##poč": 1385,
      "hotely": 1386,
      "##cit": 1387,
      "##bil": 1388,
      "část": 1389,
      "##ledu": 1390,
      "##bní": 1391,
      "mé": 1392,
      "##ložit": 1393,
      "##ada": 1394,
      "ok": 1395,
      "postup": 1396,
      "jeden": 1397,
      "mat": 1398,
      "krás": 1399,
      "veliko": 1400,
      "##rav": 1401,
      "mode": 1402,
      "##mat": 1403,
      "poko": 1404,
      "##eta": 1405,
      "##zky": 1406,
      "##fie": 1407,
      "hrá": 1408,
      "##lové": 1409,
      "##pat": 1410,
      "reali": 1411,
      "dovo": 1412,
      "##ned": 1413,
      "vyp": 1414,
      "led": 1415,
      "##ckého": 1416,
      "zaměst": 1417,
      "var": 1418,
      "otá": 1419,
      "cent": 1420,
      "pora": 1421,
      "ča": 1422,
      "dvou": 1423,
      "jinak": 1424,
      "##dit": 1425,
      "nevy": 1426,
      "výsled": 1427,
      "soci": 1428,
      "he": 1429,
      "##stoup": 1430,
      "nich": 1431,
      "každý": 1432,
      "##ane": 1433,
      "podmí": 1434,
      "##kový": 1435,
      "nejlep": 1436,
      "sr": 1437,
      "rov": 1438,
      "tř": 1439,
      "dále": 1440,
      "##tře": 1441,
      "plat": 1442,
      "##dět": 1443,
      "##per": 1444,
      "tři": 1445,
      "pís": 1446,
      "##šem": 1447,
      "dře": 1448,
      "ri": 1449,
      "##drž": 1450,
      "##tky": 1451,
      "stu": 1452,
      "zí": 1453,
      "##sím": 1454,
      "##nictví": 1455,
      "připo": 1456,
      "hle": 1457,
      "##ška": 1458,
      "##sed": 1459,
      "dota": 1460,
      "staveb": 1461,
      "zatím": 1462,
      "##rost": 1463,
      "nový": 1464,
      "##nan": 1465,
      "možnost": 1466,
      "svo": 1467,
      "zobraz": 1468,
      "##ému": 1469,
      "ano": 1470,
      "nov": 1471,
      "poslední": 1472,
      "prav": 1473,
      "organi": 1474,
      "##šit": 1475,
      "někter": 1476,
      "prodá": 1477,
      "##hlí": 1478,
      "aktu": 1479,
      "kole": 1480,
      "hy": 1481,
      "##řské": 1482,
      "pořád": 1483,
      "součas": 1484,
      "jan": 1485,
      "be": 1486,
      "dobře": 1487,
      "větš": 1488,
      "dokon": 1489,
      "##nik": 1490,
      "##šky": 1491,
      "##enou": 1492,
      "##cela": 1493,
      "ban": 1494,
      "základní": 1495,
      "17": 1496,
      "gra": 1497,
      "sní": 1498,
      "doporuč": 1499,
      "##nici": 1500,
      "##kání": 1501,
      "##víc": 1502,
      "##nými": 1503,
      "přede": 1504,
      "ad": 1505,
      "což": 1506,
      "ky": 1507,
      "##čné": 1508,
      "ubytování": 1509,
      "##čer": 1510,
      "teď": 1511,
      "odpově": 1512,
      "poskyt": 1513,
      "pre": 1514,
      "elektro": 1515,
      "pozem": 1516,
      "odbor": 1517,
      "##any": 1518,
      "##pt": 1519,
      "podí": 1520,
      "mm": 1521,
      "mimo": 1522,
      "pár": 1523,
      "##nerg": 1524,
      "pet": 1525,
      "jde": 1526,
      "##hl": 1527,
      "##ském": 1528,
      "byli": 1529,
      "opravdu": 1530,
      "tohoto": 1531,
      "##aně": 1532,
      "energ": 1533,
      "části": 1534,
      "##šší": 1535,
      "skuteč": 1536,
      "nejlepší": 1537,
      "##hou": 1538,
      "##rat": 1539,
      "mohou": 1540,
      "##bec": 1541,
      "velké": 1542,
      "tyto": 1543,
      "##teli": 1544,
      "potřeb": 1545,
      "##oví": 1546,
      "kterou": 1547,
      "rám": 1548,
      "umě": 1549,
      "vlá": 1550,
      "čt": 1551,
      "##art": 1552,
      "lep": 1553,
      "dé": 1554,
      "##les": 1555,
      "nut": 1556,
      "společnosti": 1557,
      "##iti": 1558,
      "době": 1559,
      "náv": 1560,
      "##emi": 1561,
      "##arma": 1562,
      "důvod": 1563,
      "##ovatel": 1564,
      "##šel": 1565,
      "##ard": 1566,
      "zvlá": 1567,
      "tri": 1568,
      "soutě": 1569,
      "dostup": 1570,
      "eko": 1571,
      "zab": 1572,
      "tady": 1573,
      "##ke": 1574,
      "##stau": 1575,
      "spoj": 1576,
      "##ge": 1577,
      "vide": 1578,
      "obsah": 1579,
      "řek": 1580,
      "umí": 1581,
      "tla": 1582,
      "několik": 1583,
      "rek": 1584,
      "možné": 1585,
      "objed": 1586,
      "fran": 1587,
      "##nka": 1588,
      "restau": 1589,
      "##op": 1590,
      "##til": 1591,
      "školy": 1592,
      "proč": 1593,
      "##řá": 1594,
      "ny": 1595,
      "člově": 1596,
      "recen": 1597,
      "počí": 1598,
      "akce": 1599,
      "##tom": 1600,
      "##hot": 1601,
      "pravi": 1602,
      "stud": 1603,
      "jim": 1604,
      "nor": 1605,
      "##lek": 1606,
      "cu": 1607,
      "##ost": 1608,
      "lidí": 1609,
      "kontro": 1610,
      "##šenství": 1611,
      "dítě": 1612,
      "##ence": 1613,
      "##ment": 1614,
      "##ňuje": 1615,
      "##ine": 1616,
      "##klady": 1617,
      "##četně": 1618,
      "##gu": 1619,
      "doku": 1620,
      "požad": 1621,
      "nastav": 1622,
      "##ško": 1623,
      "max": 1624,
      "tex": 1625,
      "oh": 1626,
      "situ": 1627,
      "člá": 1628,
      "kul": 1629,
      "měla": 1630,
      "příslušenství": 1631,
      "vaše": 1632,
      "stejně": 1633,
      "kab": 1634,
      "men": 1635,
      "stále": 1636,
      "záko": 1637,
      "včetně": 1638,
      "povin": 1639,
      "##řejmě": 1640,
      "vybra": 1641,
      "obec": 1642,
      "bal": 1643,
      "sup": 1644,
      "##děla": 1645,
      "##fer": 1646,
      "eu": 1647,
      "dobrý": 1648,
      "prostě": 1649,
      "her": 1650,
      "vys": 1651,
      "##uji": 1652,
      "myslí": 1653,
      "toto": 1654,
      "##kli": 1655,
      "##vatele": 1656,
      "km": 1657,
      "##om": 1658,
      "napří": 1659,
      "fa": 1660,
      "##ovy": 1661,
      "cz": 1662,
      "tis": 1663,
      "##koliv": 1664,
      "vzta": 1665,
      "země": 1666,
      "top": 1667,
      "studi": 1668,
      "##telu": 1669,
      "sebe": 1670,
      "fotografie": 1671,
      "##ůj": 1672,
      "sem": 1673,
      "##vající": 1674,
      "leto": 1675,
      "##žní": 1676,
      "##tka": 1677,
      "připrav": 1678,
      "##inky": 1679,
      "polo": 1680,
      "trochu": 1681,
      "otev": 1682,
      "ha": 1683,
      "##rem": 1684,
      "##her": 1685,
      "pí": 1686,
      "ser": 1687,
      "##ig": 1688,
      "ori": 1689,
      "spí": 1690,
      "##zdy": 1691,
      "popis": 1692,
      "les": 1693,
      "##istor": 1694,
      "##enta": 1695,
      "zdarma": 1696,
      "##ména": 1697,
      "##pozi": 1698,
      "smě": 1699,
      "ver": 1700,
      "jednotliv": 1701,
      "řízení": 1702,
      "##ps": 1703,
      "vl": 1704,
      "příspě": 1705,
      "jiné": 1706,
      "##cem": 1707,
      "##líb": 1708,
      "člen": 1709,
      "zi": 1710,
      "##lej": 1711,
      "oblasti": 1712,
      "během": 1713,
      "##ická": 1714,
      "návr": 1715,
      "24": 1716,
      "poji": 1717,
      "kal": 1718,
      "politi": 1719,
      "zda": 1720,
      "zdravo": 1721,
      "nabízí": 1722,
      "provoz": 1723,
      "ab": 1724,
      "sty": 1725,
      "cho": 1726,
      "##čního": 1727,
      "zprá": 1728,
      "40": 1729,
      "histor": 1730,
      "hotelu": 1731,
      "##ár": 1732,
      "sla": 1733,
      "##spo": 1734,
      "##nd": 1735,
      "kur": 1736,
      "dalších": 1737,
      "cest": 1738,
      "čís": 1739,
      "vody": 1740,
      "program": 1741,
      "##bal": 1742,
      "naši": 1743,
      "##aty": 1744,
      "##ul": 1745,
      "##álu": 1746,
      "Česká": 1747,
      "##lech": 1748,
      "##šeno": 1749,
      "##zv": 1750,
      "##etí": 1751,
      "dosta": 1752,
      "například": 1753,
      "vytvo": 1754,
      "závě": 1755,
      "##čů": 1756,
      "zji": 1757,
      "vzdělá": 1758,
      "navíc": 1759,
      "##vek": 1760,
      "vůbec": 1761,
      "##řel": 1762,
      "bezpeč": 1763,
      "život": 1764,
      "##dobí": 1765,
      "materiál": 1766,
      "##ujeme": 1767,
      "dál": 1768,
      "neza": 1769,
      "rece": 1770,
      "větší": 1771,
      "##sel": 1772,
      "neví": 1773,
      "##eň": 1774,
      "nemov": 1775,
      "kategorie": 1776,
      "or": 1777,
      "hodně": 1778,
      "např": 1779,
      "##anou": 1780,
      "motor": 1781,
      "##lace": 1782,
      "kolem": 1783,
      "ochra": 1784,
      "nejen": 1785,
      "vši": 1786,
      "předmě": 1787,
      "##stech": 1788,
      "urč": 1789,
      "kor": 1790,
      "##lerie": 1791,
      "##nku": 1792,
      "##ák": 1793,
      "proná": 1794,
      "tech": 1795,
      "opět": 1796,
      "##ický": 1797,
      "nová": 1798,
      "postav": 1799,
      "##ář": 1800,
      "##ývá": 1801,
      "##hr": 1802,
      "práci": 1803,
      "##chi": 1804,
      "děku": 1805,
      "čty": 1806,
      "##děj": 1807,
      "jednodu": 1808,
      "##žně": 1809,
      "##ovým": 1810,
      "disku": 1811,
      "##vším": 1812,
      "prostor": 1813,
      "##lice": 1814,
      "sko": 1815,
      "územ": 1816,
      "původ": 1817,
      "blí": 1818,
      "##níků": 1819,
      "##vací": 1820,
      "##sů": 1821,
      "##hodou": 1822,
      "možná": 1823,
      "##gen": 1824,
      "výbě": 1825,
      "super": 1826,
      "soud": 1827,
      "tre": 1828,
      "zákaz": 1829,
      "##ev": 1830,
      "proce": 1831,
      "koší": 1832,
      "pé": 1833,
      "rámci": 1834,
      "nabídky": 1835,
      "využí": 1836,
      "##plně": 1837,
      "##čem": 1838,
      "samoz": 1839,
      "sed": 1840,
      "##káz": 1841,
      "dom": 1842,
      "úda": 1843,
      "60": 1844,
      "rodin": 1845,
      "##der": 1846,
      "především": 1847,
      "chod": 1848,
      "##sla": 1849,
      "##nitř": 1850,
      "zase": 1851,
      "něm": 1852,
      "bohu": 1853,
      "skladem": 1854,
      "zví": 1855,
      "nemovito": 1856,
      "zprac": 1857,
      "vých": 1858,
      "svou": 1859,
      "zajímav": 1860,
      "kuchy": 1861,
      "zpět": 1862,
      "prez": 1863,
      "res": 1864,
      "ši": 1865,
      "poč": 1866,
      "##nomi": 1867,
      "projekt": 1868,
      "kultu": 1869,
      "prostředí": 1870,
      "kvalitní": 1871,
      "stří": 1872,
      "##ju": 1873,
      "jedna": 1874,
      "někdo": 1875,
      "nebude": 1876,
      "vybav": 1877,
      "měst": 1878,
      "produkt": 1879,
      "##hlé": 1880,
      "příjem": 1881,
      "doplň": 1882,
      "##pas": 1883,
      "součá": 1884,
      "##hat": 1885,
      "##šní": 1886,
      "##šlo": 1887,
      "Čr": 1888,
      "##rek": 1889,
      "##rky": 1890,
      "dobu": 1891,
      "těchto": 1892,
      "chla": 1893,
      "##pravy": 1894,
      "máte": 1895,
      "psy": 1896,
      "obě": 1897,
      "celkem": 1898,
      "##liš": 1899,
      "stanov": 1900,
      "bi": 1901,
      "mili": 1902,
      "hosp": 1903,
      "obraz": 1904,
      "máme": 1905,
      "autor": 1906,
      "##ana": 1907,
      "typ": 1908,
      "kontak": 1909,
      "kup": 1910,
      "21": 1911,
      "celý": 1912,
      "##ckou": 1913,
      "##prá": 1914,
      "vstup": 1915,
      "##itel": 1916,
      "##čil": 1917,
      "tou": 1918,
      "##fika": 1919,
      "##sem": 1920,
      "ot": 1921,
      "##cie": 1922,
      "pohy": 1923,
      "zobrazit": 1924,
      "komunika": 1925,
      "jas": 1926,
      "##lin": 1927,
      "domu": 1928,
      "květ": 1929,
      "##emo": 1930,
      "měli": 1931,
      "##ických": 1932,
      "násled": 1933,
      "teplo": 1934,
      "stě": 1935,
      "22": 1936,
      "obč": 1937,
      "##oved": 1938,
      "evrop": 1939,
      "domů": 1940,
      "skvě": 1941,
      "##běh": 1942,
      "##rom": 1943,
      "kdyby": 1944,
      "tomto": 1945,
      "schop": 1946,
      "smlouvy": 1947,
      "set": 1948,
      "nejsou": 1949,
      "##nil": 1950,
      "funk": 1951,
      "můž": 1952,
      "##hledem": 1953,
      "internet": 1954,
      "doma": 1955,
      "lidé": 1956,
      "vypad": 1957,
      "##měř": 1958,
      "##kres": 1959,
      "zej": 1960,
      "##eného": 1961,
      "ostra": 1962,
      "vyz": 1963,
      "jednou": 1964,
      "##nolog": 1965,
      "zapo": 1966,
      "##sad": 1967,
      "##kup": 1968,
      "pomocí": 1969,
      "00": 1970,
      "dům": 1971,
      "zná": 1972,
      "přístup": 1973,
      "nikdy": 1974,
      "##stro": 1975,
      "##roveň": 1976,
      "tv": 1977,
      "muž": 1978,
      "##go": 1979,
      "správ": 1980,
      "hlavně": 1981,
      "toti": 1982,
      "závod": 1983,
      "##krát": 1984,
      "zů": 1985,
      "přidá": 1986,
      "##pro": 1987,
      "nyní": 1988,
      "##prava": 1989,
      "působ": 1990,
      "rychle": 1991,
      "zkušeno": 1992,
      "##ovaný": 1993,
      "##gi": 1994,
      "##šti": 1995,
      "přímo": 1996,
      "##ely": 1997,
      "týd": 1998,
      "oby": 1999,
      "ply": 2000,
      "##kam": 2001,
      "srovnání": 2002,
      "tvr": 2003,
      "##sek": 2004,
      "svůj": 2005,
      "výkon": 2006,
      "##sté": 2007,
      "prová": 2008,
      "hr": 2009,
      "mil": 2010,
      "zkou": 2011,
      "oblíb": 2012,
      "jedná": 2013,
      "zejména": 2014,
      "firmy": 2015,
      "pen": 2016,
      "ope": 2017,
      "důležit": 2018,
      "##stan": 2019,
      "příro": 2020,
      "umo": 2021,
      "řad": 2022,
      "##stit": 2023,
      "ju": 2024,
      "dětí": 2025,
      "##kal": 2026,
      "tuto": 2027,
      "##tou": 2028,
      "recenze": 2029,
      "svého": 2030,
      "##čko": 2031,
      "mam": 2032,
      "všechno": 2033,
      "velký": 2034,
      "##hů": 2035,
      "cit": 2036,
      "##ket": 2037,
      "ml": 2038,
      "něme": 2039,
      "zvý": 2040,
      "společnost": 2041,
      "totiž": 2042,
      "##ledující": 2043,
      "rodi": 2044,
      "##alu": 2045,
      "mon": 2046,
      "okolí": 2047,
      "ang": 2048,
      "ká": 2049,
      "víc": 2050,
      "##obě": 2051,
      "rela": 2052,
      "##ér": 2053,
      "##šek": 2054,
      "neb": 2055,
      "dat": 2056,
      "##tera": 2057,
      "sva": 2058,
      "cy": 2059,
      "informací": 2060,
      "aktivit": 2061,
      "fotoga": 2062,
      "minist": 2063,
      "##vám": 2064,
      "všichni": 2065,
      "tvo": 2066,
      "řešení": 2067,
      "##žství": 2068,
      "##én": 2069,
      "##ech": 2070,
      "těž": 2071,
      "krát": 2072,
      "klí": 2073,
      "nemě": 2074,
      "##end": 2075,
      "##ovém": 2076,
      "##enci": 2077,
      "zaměstnan": 2078,
      "uzav": 2079,
      "##ili": 2080,
      "##sit": 2081,
      "lepší": 2082,
      "nako": 2083,
      "začí": 2084,
      "hry": 2085,
      "##kovi": 2086,
      "23": 2087,
      "opat": 2088,
      "praze": 2089,
      "dnů": 2090,
      "úspě": 2091,
      "##ován": 2092,
      "tva": 2093,
      "hned": 2094,
      "amer": 2095,
      "váno": 2096,
      "##átku": 2097,
      "pěk": 2098,
      "nav": 2099,
      "jazy": 2100,
      "##ia": 2101,
      "byt": 2102,
      "fotogalerie": 2103,
      "leh": 2104,
      "patří": 2105,
      "##žky": 2106,
      "restaurace": 2107,
      "para": 2108,
      "##ss": 2109,
      "kry": 2110,
      "##bá": 2111,
      "ly": 2112,
      "dobré": 2113,
      "nemu": 2114,
      "dodá": 2115,
      "dám": 2116,
      "##nce": 2117,
      "technolog": 2118,
      "hospod": 2119,
      "koupit": 2120,
      "oz": 2121,
      "##cent": 2122,
      "##xi": 2123,
      "jaké": 2124,
      "škol": 2125,
      "prakti": 2126,
      "##díl": 2127,
      "pol": 2128,
      "##álních": 2129,
      "slou": 2130,
      "##věd": 2131,
      "##est": 2132,
      "##ským": 2133,
      "všem": 2134,
      "##děli": 2135,
      "##aný": 2136,
      "určitě": 2137,
      "věci": 2138,
      "##ila": 2139,
      "zas": 2140,
      "##zeň": 2141,
      "pozor": 2142,
      "sice": 2143,
      "##rum": 2144,
      "##ron": 2145,
      "různé": 2146,
      "80": 2147,
      "zákon": 2148,
      "mnoho": 2149,
      "naší": 2150,
      "Čer": 2151,
      "návště": 2152,
      "samozřejmě": 2153,
      "košíku": 2154,
      "##kám": 2155,
      "##hodno": 2156,
      "kromě": 2157,
      "post": 2158,
      "##kali": 2159,
      "výstav": 2160,
      "souvis": 2161,
      "##zuje": 2162,
      "inve": 2163,
      "právní": 2164,
      "##ot": 2165,
      "spotře": 2166,
      "období": 2167,
      "osobní": 2168,
      "##nic": 2169,
      "##lání": 2170,
      "léka": 2171,
      "stře": 2172,
      "koru": 2173,
      "##ft": 2174,
      "##chom": 2175,
      "použití": 2176,
      "##zit": 2177,
      "sá": 2178,
      "celé": 2179,
      "##kty": 2180,
      "zvo": 2181,
      "##átky": 2182,
      "##spoň": 2183,
      "##eti": 2184,
      "##ell": 2185,
      "služe": 2186,
      "indi": 2187,
      "##stva": 2188,
      "ome": 2189,
      "##kově": 2190,
      "##rna": 2191,
      "účast": 2192,
      "##sil": 2193,
      "##fon": 2194,
      "mlad": 2195,
      "největ": 2196,
      "zápas": 2197,
      "##žší": 2198,
      "##koj": 2199,
      "fot": 2200,
      "poh": 2201,
      "##oby": 2202,
      "##ala": 2203,
      "místě": 2204,
      "##aná": 2205,
      "##dění": 2206,
      "letech": 2207,
      "obce": 2208,
      "počíta": 2209,
      "##cím": 2210,
      "druhé": 2211,
      "adr": 2212,
      "místa": 2213,
      "cca": 2214,
      "med": 2215,
      "často": 2216,
      "chví": 2217,
      "ozna": 2218,
      "pomoc": 2219,
      "nikdo": 2220,
      "pav": 2221,
      "##čkou": 2222,
      "hledá": 2223,
      "červ": 2224,
      "sc": 2225,
      "##dce": 2226,
      "dve": 2227,
      "##zen": 2228,
      "pronájem": 2229,
      "##rch": 2230,
      "##zá": 2231,
      "zákona": 2232,
      "##tivní": 2233,
      "význam": 2234,
      "zákla": 2235,
      "##rání": 2236,
      "##nické": 2237,
      "##rně": 2238,
      "film": 2239,
      "##čním": 2240,
      "##ději": 2241,
      "##res": 2242,
      "##lně": 2243,
      "minut": 2244,
      "klasi": 2245,
      "nakonec": 2246,
      "199": 2247,
      "bře": 2248,
      "prodám": 2249,
      "##celá": 2250,
      "tá": 2251,
      "voj": 2252,
      "##stal": 2253,
      "uživatel": 2254,
      "##ovaných": 2255,
      "mlu": 2256,
      "##kům": 2257,
      "zu": 2258,
      "nemoc": 2259,
      "odst": 2260,
      "profes": 2261,
      "##vil": 2262,
      "cha": 2263,
      "##nak": 2264,
      "uložit": 2265,
      "strany": 2266,
      "##hli": 2267,
      "##dra": 2268,
      "##ložení": 2269,
      "aplika": 2270,
      "kolo": 2271,
      "##rak": 2272,
      "of": 2273,
      "##mati": 2274,
      "zdraví": 2275,
      "##hléd": 2276,
      "ost": 2277,
      "týden": 2278,
      "roky": 2279,
      "##ována": 2280,
      "##bem": 2281,
      "##ino": 2282,
      "pova": 2283,
      "doda": 2284,
      "pokra": 2285,
      "hru": 2286,
      "uči": 2287,
      "angli": 2288,
      "sám": 2289,
      "ber": 2290,
      "jej": 2291,
      "výraz": 2292,
      "čtvr": 2293,
      "součástí": 2294,
      "##dal": 2295,
      "zahrani": 2296,
      "nachází": 2297,
      "ší": 2298,
      "the": 2299,
      "pam": 2300,
      "35": 2301,
      "##žen": 2302,
      "##zaci": 2303,
      "##inek": 2304,
      "nemů": 2305,
      "##řen": 2306,
      "buděj": 2307,
      "##lečení": 2308,
      "vyj": 2309,
      "ať": 2310,
      "profil": 2311,
      "##ilo": 2312,
      "mobil": 2313,
      "zcela": 2314,
      "##atu": 2315,
      "jedin": 2316,
      "##pozici": 2317,
      "malé": 2318,
      "kg": 2319,
      "svých": 2320,
      "kri": 2321,
      "##dle": 2322,
      "chci": 2323,
      "metod": 2324,
      "myslím": 2325,
      "##cháze": 2326,
      "koment": 2327,
      "pení": 2328,
      "kvů": 2329,
      "fung": 2330,
      "##krá": 2331,
      "kvůli": 2332,
      "jsi": 2333,
      "nev": 2334,
      "##koli": 2335,
      "velikost": 2336,
      "##pon": 2337,
      "##lova": 2338,
      "jmé": 2339,
      "neo": 2340,
      "knihy": 2341,
      "dovol": 2342,
      "ekonomi": 2343,
      "rozhodnutí": 2344,
      "navr": 2345,
      "dlouho": 2346,
      "pokrač": 2347,
      "##něte": 2348,
      "##pla": 2349,
      "sví": 2350,
      "svým": 2351,
      "##kami": 2352,
      "dní": 2353,
      "bran": 2354,
      "znam": 2355,
      "množství": 2356,
      "##zev": 2357,
      "tisí": 2358,
      "##kových": 2359,
      "moje": 2360,
      "##něž": 2361,
      "adres": 2362,
      "##jezd": 2363,
      "hled": 2364,
      "bav": 2365,
      "##alo": 2366,
      "lety": 2367,
      "##telem": 2368,
      "blíz": 2369,
      "tradi": 2370,
      "##oucí": 2371,
      "peníze": 2372,
      "por": 2373,
      "##letí": 2374,
      "uživatele": 2375,
      "rak": 2376,
      "##vyk": 2377,
      "služeb": 2378,
      "kuře": 2379,
      "dokonce": 2380,
      "##ovaná": 2381,
      "##šku": 2382,
      "hlu": 2383,
      "přij": 2384,
      "exist": 2385,
      "##zní": 2386,
      "##gy": 2387,
      "##hnout": 2388,
      "##ok": 2389,
      "fy": 2390,
      "90": 2391,
      "cenu": 2392,
      "##řice": 2393,
      "systému": 2394,
      "prove": 2395,
      "fe": 2396,
      "##bod": 2397,
      "##tně": 2398,
      "různých": 2399,
      "en": 2400,
      "##telné": 2401,
      "##ktor": 2402,
      "zájem": 2403,
      "stavu": 2404,
      "26": 2405,
      "výsledky": 2406,
      "výbor": 2407,
      "méně": 2408,
      "dlu": 2409,
      "##šla": 2410,
      "pru": 2411,
      "spoluprá": 2412,
      "jab": 2413,
      "základě": 2414,
      "##tické": 2415,
      "##cka": 2416,
      "tým": 2417,
      "špat": 2418,
      "ide": 2419,
      "##tin": 2420,
      "##jů": 2421,
      "úplně": 2422,
      "diva": 2423,
      "sled": 2424,
      "příprav": 2425,
      "ovšem": 2426,
      "komb": 2427,
      "vozi": 2428,
      "zároveň": 2429,
      "28": 2430,
      "##mp": 2431,
      "##ten": 2432,
      "##žné": 2433,
      "pán": 2434,
      "sociální": 2435,
      "největší": 2436,
      "území": 2437,
      "úřad": 2438,
      "znám": 2439,
      "kost": 2440,
      "pravidel": 2441,
      "velk": 2442,
      "sez": 2443,
      "sho": 2444,
      "##hi": 2445,
      "stup": 2446,
      "##vku": 2447,
      "part": 2448,
      "života": 2449,
      "někdy": 2450,
      "##ness": 2451,
      "poho": 2452,
      "##opak": 2453,
      "bram": 2454,
      "dny": 2455,
      "##stvo": 2456,
      "##jmu": 2457,
      "vra": 2458,
      "světa": 2459,
      "barev": 2460,
      "##ováním": 2461,
      "hvě": 2462,
      "##bili": 2463,
      "##br": 2464,
      "záva": 2465,
      "člověk": 2466,
      "zby": 2467,
      "uží": 2468,
      "##hé": 2469,
      "baz": 2470,
      "jenom": 2471,
      "odpad": 2472,
      "univer": 2473,
      "##osti": 2474,
      "video": 2475,
      "27": 2476,
      "dispozici": 2477,
      "##čce": 2478,
      "##dec": 2479,
      "tran": 2480,
      "##zka": 2481,
      "##cti": 2482,
      "seni": 2483,
      "mohl": 2484,
      "##ovány": 2485,
      "##ian": 2486,
      "##novu": 2487,
      "polož": 2488,
      "okres": 2489,
      "peč": 2490,
      "bá": 2491,
      "osoby": 2492,
      "##nal": 2493,
      "občan": 2494,
      "některé": 2495,
      "spou": 2496,
      "rád": 2497,
      "tohle": 2498,
      "byd": 2499,
      "##ií": 2500,
      "takové": 2501,
      "vyrob": 2502,
      "akci": 2503,
      "dří": 2504,
      "##lých": 2505,
      "##vem": 2506,
      "půl": 2507,
      "ps": 2508,
      "##hledá": 2509,
      "##ure": 2510,
      "pas": 2511,
      "##tal": 2512,
      "fyzi": 2513,
      "požadav": 2514,
      "##ovalo": 2515,
      "mag": 2516,
      "##stů": 2517,
      "sobě": 2518,
      "##risti": 2519,
      "kře": 2520,
      "bio": 2521,
      "##kat": 2522,
      "sal": 2523,
      "dostupnost": 2524,
      "večer": 2525,
      "chu": 2526,
      "doby": 2527,
      "ště": 2528,
      "##ováno": 2529,
      "99": 2530,
      "téma": 2531,
      "hmo": 2532,
      "dělat": 2533,
      "##tuje": 2534,
      "umož": 2535,
      "nevím": 2536,
      "celou": 2537,
      "vrá": 2538,
      "##zer": 2539,
      "zvíř": 2540,
      "##úč": 2541,
      "##kré": 2542,
      "orig": 2543,
      "ut": 2544,
      "tru": 2545,
      "ca": 2546,
      "##zni": 2547,
      "téměř": 2548,
      "bru": 2549,
      "projektu": 2550,
      "povo": 2551,
      "boj": 2552,
      "dv": 2553,
      "následující": 2554,
      "brno": 2555,
      "papí": 2556,
      "##nému": 2557,
      "činnosti": 2558,
      "pohled": 2559,
      "29": 2560,
      "děkuji": 2561,
      "manžel": 2562,
      "vyšší": 2563,
      "##ického": 2564,
      "rez": 2565,
      "ge": 2566,
      "díl": 2567,
      "ww": 2568,
      "vál": 2569,
      "archi": 2570,
      "##mysl": 2571,
      "and": 2572,
      "lou": 2573,
      "dokumen": 2574,
      "nalez": 2575,
      "relax": 2576,
      "půj": 2577,
      "budějovice": 2578,
      "bohužel": 2579,
      "##hledu": 2580,
      "kre": 2581,
      "stru": 2582,
      "##ovky": 2583,
      "dosa": 2584,
      "##řil": 2585,
      "ovlá": 2586,
      "roční": 2587,
      "králové": 2588,
      "elektri": 2589,
      "přesto": 2590,
      "přá": 2591,
      "televi": 2592,
      "podni": 2593,
      "70": 2594,
      "vhodné": 2595,
      "tabu": 2596,
      "##lie": 2597,
      "zach": 2598,
      "poté": 2599,
      "##boru": 2600,
      "45": 2601,
      "##tý": 2602,
      "aktuální": 2603,
      "námě": 2604,
      "##ker": 2605,
      "kancelá": 2606,
      "kabel": 2607,
      "vnitř": 2608,
      "##ďte": 2609,
      "vzdu": 2610,
      "poru": 2611,
      "komi": 2612,
      "název": 2613,
      "komple": 2614,
      "sle": 2615,
      "mla": 2616,
      "##fa": 2617,
      "maxim": 2618,
      "hou": 2619,
      "##ráž": 2620,
      "kone": 2621,
      "##kovou": 2622,
      "programu": 2623,
      "##raci": 2624,
      "www": 2625,
      "##chozí": 2626,
      "##méně": 2627,
      "##xx": 2628,
      "##orů": 2629,
      "##strukce": 2630,
      "budu": 2631,
      "##aci": 2632,
      "anti": 2633,
      "lidi": 2634,
      "lux": 2635,
      "##žití": 2636,
      "web": 2637,
      "potom": 2638,
      "dou": 2639,
      "##dál": 2640,
      "svá": 2641,
      "##ativní": 2642,
      "termí": 2643,
      "vznik": 2644,
      "##iska": 2645,
      "gu": 2646,
      "obsahuje": 2647,
      "##entů": 2648,
      "spokoj": 2649,
      "jednání": 2650,
      "ple": 2651,
      "fakt": 2652,
      "deta": 2653,
      "velice": 2654,
      "nevi": 2655,
      "rekla": 2656,
      "##níky": 2657,
      "zakoup": 2658,
      "ků": 2659,
      "umístě": 2660,
      "podpo": 2661,
      "klid": 2662,
      "desig": 2663,
      "jednoho": 2664,
      "žádné": 2665,
      "zelen": 2666,
      "brambor": 2667,
      "##ince": 2668,
      "##ety": 2669,
      "můj": 2670,
      "dohodou": 2671,
      "pracov": 2672,
      "staro": 2673,
      "udě": 2674,
      "oce": 2675,
      "plán": 2676,
      "##váme": 2677,
      "oblečení": 2678,
      "zaká": 2679,
      "##řené": 2680,
      "pev": 2681,
      "##aných": 2682,
      "konkré": 2683,
      "##ioná": 2684,
      "roman": 2685,
      "podstat": 2686,
      "model": 2687,
      "##řka": 2688,
      "směr": 2689,
      "000": 2690,
      "péče": 2691,
      "vítě": 2692,
      "záje": 2693,
      "pom": 2694,
      "poš": 2695,
      "budete": 2696,
      "znovu": 2697,
      "zastup": 2698,
      "heure": 2699,
      "zt": 2700,
      "##tit": 2701,
      "předpo": 2702,
      "trá": 2703,
      "prosím": 2704,
      "##ren": 2705,
      "horách": 2706,
      "průbě": 2707,
      "##řa": 2708,
      "souhla": 2709,
      "funkce": 2710,
      "##kování": 2711,
      "bole": 2712,
      "váš": 2713,
      "nena": 2714,
      "napro": 2715,
      "psa": 2716,
      "##pod": 2717,
      "finanční": 2718,
      "##ari": 2719,
      "##bit": 2720,
      "skon": 2721,
      "##terie": 2722,
      "mou": 2723,
      "účin": 2724,
      "##nej": 2725,
      "zám": 2726,
      "##slav": 2727,
      "vlastně": 2728,
      "odpoč": 2729,
      "korun": 2730,
      "##jících": 2731,
      "##ler": 2732,
      "délka": 2733,
      "bezpečnost": 2734,
      "nu": 2735,
      "najde": 2736,
      "minim": 2737,
      "telefon": 2738,
      "náhra": 2739,
      "výběr": 2740,
      "stavební": 2741,
      "nějaké": 2742,
      "vík": 2743,
      "chvíli": 2744,
      "##vala": 2745,
      "výše": 2746,
      "odpoví": 2747,
      "##ir": 2748,
      "okam": 2749,
      "řekl": 2750,
      "sub": 2751,
      "kola": 2752,
      "rádi": 2753,
      "vybrat": 2754,
      "náz": 2755,
      "uli": 2756,
      "třetí": 2757,
      "Ži": 2758,
      "potrav": 2759,
      "##luje": 2760,
      "##rka": 2761,
      "##fu": 2762,
      "##žil": 2763,
      "dřevě": 2764,
      "##pá": 2765,
      "tem": 2766,
      "potvr": 2767,
      "##oo": 2768,
      "udá": 2769,
      "slav": 2770,
      "##fin": 2771,
      "zlo": 2772,
      "31": 2773,
      "naps": 2774,
      "atd": 2775,
      "naopak": 2776,
      "říká": 2777,
      "můžeme": 2778,
      "Ško": 2779,
      "poměr": 2780,
      "kolik": 2781,
      "přesně": 2782,
      "##zovat": 2783,
      "stojí": 2784,
      "zb": 2785,
      "olo": 2786,
      "cvi": 2787,
      "několika": 2788,
      "##xu": 2789,
      "##kci": 2790,
      "dospě": 2791,
      "prod": 2792,
      "nedá": 2793,
      "##řilo": 2794,
      "upo": 2795,
      "##tního": 2796,
      "regist": 2797,
      "##gan": 2798,
      "##rk": 2799,
      "##tace": 2800,
      "rekon": 2801,
      "straně": 2802,
      "bro": 2803,
      "gene": 2804,
      "stand": 2805,
      "##ín": 2806,
      "##žené": 2807,
      "##rojů": 2808,
      "sobo": 2809,
      "Čes": 2810,
      "kama": 2811,
      "průměr": 2812,
      "bla": 2813,
      "##mit": 2814,
      "olomou": 2815,
      "##inka": 2816,
      "věc": 2817,
      "přísluš": 2818,
      "podpor": 2819,
      "kří": 2820,
      "ves": 2821,
      "san": 2822,
      "ček": 2823,
      "způsobem": 2824,
      "koupel": 2825,
      "data": 2826,
      "##zdu": 2827,
      "kru": 2828,
      "vliv": 2829,
      "kat": 2830,
      "problémy": 2831,
      "pocit": 2832,
      "ukon": 2833,
      "klá": 2834,
      "cer": 2835,
      "ředi": 2836,
      "##klo": 2837,
      "polé": 2838,
      "žen": 2839,
      "probí": 2840,
      "plzeň": 2841,
      "##ější": 2842,
      "sebou": 2843,
      "paci": 2844,
      "myš": 2845,
      "rychlost": 2846,
      "samostat": 2847,
      "hlas": 2848,
      "nebylo": 2849,
      "##cou": 2850,
      "kniha": 2851,
      "##dil": 2852,
      "py": 2853,
      "předchozí": 2854,
      "zástup": 2855,
      "výmě": 2856,
      "##enka": 2857,
      "jednu": 2858,
      "auta": 2859,
      "dop": 2860,
      "##dky": 2861,
      "společen": 2862,
      "##mus": 2863,
      "maji": 2864,
      "##álním": 2865,
      "##sled": 2866,
      "luxus": 2867,
      "vidět": 2868,
      "perfek": 2869,
      "vedle": 2870,
      "efek": 2871,
      "vedení": 2872,
      "muze": 2873,
      "odpo": 2874,
      "dělá": 2875,
      "ram": 2876,
      "##čeká": 2877,
      "vývoj": 2878,
      "nabídka": 2879,
      "polov": 2880,
      "##lec": 2881,
      "účet": 2882,
      "doplňky": 2883,
      "##qu": 2884,
      "32": 2885,
      "kov": 2886,
      "##čný": 2887,
      "há": 2888,
      "recep": 2889,
      "500": 2890,
      "##maz": 2891,
      "hez": 2892,
      "##ré": 2893,
      "podla": 2894,
      "republiky": 2895,
      "doká": 2896,
      "získá": 2897,
      "kolá": 2898,
      "svat": 2899,
      "##dem": 2900,
      "nového": 2901,
      "kos": 2902,
      "##nuje": 2903,
      "##rý": 2904,
      "zru": 2905,
      "ním": 2906,
      "red": 2907,
      "jednoduch": 2908,
      "##enky": 2909,
      "smlu": 2910,
      "##prve": 2911,
      "paní": 2912,
      "pozi": 2913,
      "##nete": 2914,
      "zájezdy": 2915,
      "##vost": 2916,
      "muse": 2917,
      "##dělení": 2918,
      "meziná": 2919,
      "vzor": 2920,
      "sně": 2921,
      "viz": 2922,
      "##kova": 2923,
      "##idi": 2924,
      "##zně": 2925,
      "charak": 2926,
      "jmen": 2927,
      "hol": 2928,
      "svobod": 2929,
      "nemovitosti": 2930,
      "nepří": 2931,
      "nau": 2932,
      "varian": 2933,
      "rozdíl": 2934,
      "##ovaly": 2935,
      "samot": 2936,
      "provedení": 2937,
      "##stří": 2938,
      "##asi": 2939,
      "##var": 2940,
      "řád": 2941,
      "veš": 2942,
      "vzdál": 2943,
      "zdravot": 2944,
      "##ovými": 2945,
      "času": 2946,
      "##ary": 2947,
      "podmínky": 2948,
      "##átka": 2949,
      "##ple": 2950,
      "norm": 2951,
      "##lil": 2952,
      "skří": 2953,
      "##níci": 2954,
      "abso": 2955,
      "blo": 2956,
      "nejvy": 2957,
      "žádo": 2958,
      "sen": 2959,
      "mini": 2960,
      "##logie": 2961,
      "hav": 2962,
      "ovo": 2963,
      "##čin": 2964,
      "vzni": 2965,
      "pohyb": 2966,
      "opti": 2967,
      "tan": 2968,
      "západ": 2969,
      "zvu": 2970,
      "##tura": 2971,
      "málo": 2972,
      "výko": 2973,
      "##ckým": 2974,
      "jednotlivých": 2975,
      "výši": 2976,
      "lit": 2977,
      "jaro": 2978,
      "nebyl": 2979,
      "ženy": 2980,
      "potřeby": 2981,
      "hud": 2982,
      "nejd": 2983,
      "považ": 2984,
      "tém": 2985,
      "oči": 2986,
      "letos": 2987,
      "well": 2988,
      "labem": 2989,
      "alespoň": 2990,
      "servis": 2991,
      "hradec": 2992,
      "resp": 2993,
      "##adí": 2994,
      "##nech": 2995,
      "##mob": 2996,
      "pohod": 2997,
      "nechá": 2998,
      "chcete": 2999,
      "origin": 3000,
      "upozor": 3001,
      "##nách": 3002,
      "sportovní": 3003,
      "##vili": 3004,
      "##tt": 3005,
      "peně": 3006,
      "vysvět": 3007,
      "##vice": 3008,
      "##cu": 3009,
      "praž": 3010,
      "##avou": 3011,
      "příliš": 3012,
      "zastav": 3013,
      "##lová": 3014,
      "níz": 3015,
      "##eru": 3016,
      "89": 3017,
      "jiných": 3018,
      "kamará": 3019,
      "##line": 3020,
      "reži": 3021,
      "vyh": 3022,
      "chal": 3023,
      "náklady": 3024,
      "##ením": 3025,
      "##rovna": 3026,
      "##řů": 3027,
      "##war": 3028,
      "##sf": 3029,
      "del": 3030,
      "mohli": 3031,
      "##ladu": 3032,
      "mate": 3033,
      "zad": 3034,
      "budeme": 3035,
      "české": 3036,
      "jedné": 3037,
      "objedná": 3038,
      "menší": 3039,
      "##šli": 3040,
      "proved": 3041,
      "aktivity": 3042,
      "sloven": 3043,
      "##ickou": 3044,
      "rizi": 3045,
      "##šené": 3046,
      "##rální": 3047,
      "východ": 3048,
      "##řadí": 3049,
      "##šte": 3050,
      "nějaký": 3051,
      "vzhledem": 3052,
      "##cház": 3053,
      "##lety": 3054,
      "situace": 3055,
      "smr": 3056,
      "našich": 3057,
      "podobné": 3058,
      "chtěl": 3059,
      "drob": 3060,
      "předpis": 3061,
      "ner": 3062,
      "stock": 3063,
      "zahá": 3064,
      "dub": 3065,
      "##cy": 3066,
      "##kového": 3067,
      "rozsa": 3068,
      "dětské": 3069,
      "##itom": 3070,
      "##skem": 3071,
      "##níku": 3072,
      "##ita": 3073,
      "pode": 3074,
      "dopravní": 3075,
      "návrh": 3076,
      "mlá": 3077,
      "čist": 3078,
      "přiz": 3079,
      "úrov": 3080,
      "##lín": 3081,
      "dovolená": 3082,
      "drž": 3083,
      "přihlá": 3084,
      "jiří": 3085,
      "úko": 3086,
      "wellness": 3087,
      "opak": 3088,
      "partner": 3089,
      "schvá": 3090,
      "obou": 3091,
      "##čná": 3092,
      "plast": 3093,
      "proces": 3094,
      "##sud": 3095,
      "##zim": 3096,
      "sý": 3097,
      "##tím": 3098,
      "dotaz": 3099,
      "hlad": 3100,
      "hodiny": 3101,
      "##delní": 3102,
      "##nkách": 3103,
      "ag": 3104,
      "doba": 3105,
      "dlouhod": 3106,
      "skupiny": 3107,
      "světě": 3108,
      "užiteč": 3109,
      "pok": 3110,
      "přev": 3111,
      "nutné": 3112,
      "takový": 3113,
      "insta": 3114,
      "organizace": 3115,
      "zra": 3116,
      "sti": 3117,
      "maz": 3118,
      "očeká": 3119,
      "poško": 3120,
      "úto": 3121,
      "telefo": 3122,
      "##huje": 3123,
      "náš": 3124,
      "druhý": 3125,
      "tzv": 3126,
      "test": 3127,
      "rostli": 3128,
      "##čila": 3129,
      "##fe": 3130,
      "ben": 3131,
      "##lada": 3132,
      "chrá": 3133,
      "náklad": 3134,
      "provozu": 3135,
      "později": 3136,
      "svém": 3137,
      "lev": 3138,
      "##ery": 3139,
      "příspěvek": 3140,
      "teh": 3141,
      "stránky": 3142,
      "ostrava": 3143,
      "moti": 3144,
      "##zené": 3145,
      "##chů": 3146,
      "##hody": 3147,
      "překva": 3148,
      "##xy": 3149,
      "zmí": 3150,
      "nemusí": 3151,
      "nových": 3152,
      "##ines": 3153,
      "tisíc": 3154,
      "odstra": 3155,
      "titu": 3156,
      "ceně": 3157,
      "ušet": 3158,
      "činnost": 3159,
      "kop": 3160,
      "petr": 3161,
      "většinou": 3162,
      "starší": 3163,
      "##eným": 3164,
      "##koho": 3165,
      "přidáno": 3166,
      "##čt": 3167,
      "kterým": 3168,
      "##des": 3169,
      "zim": 3170,
      "penzi": 3171,
      "běž": 3172,
      "snaží": 3173,
      "komunikace": 3174,
      "nád": 3175,
      "spíše": 3176,
      "##tko": 3177,
      "##pře": 3178,
      "platí": 3179,
      "36": 3180,
      "mora": 3181,
      "##rávně": 3182,
      "fan": 3183,
      "zís": 3184,
      "79": 3185,
      "we": 3186,
      "##dají": 3187,
      "sh": 3188,
      "zvy": 3189,
      "porad": 3190,
      "##pravu": 3191,
      "velká": 3192,
      "##rací": 3193,
      "pomů": 3194,
      "69": 3195,
      "soukro": 3196,
      "##ktivní": 3197,
      "investi": 3198,
      "75": 3199,
      "kterých": 3200,
      "spole": 3201,
      "##inci": 3202,
      "tlačí": 3203,
      "om": 3204,
      "##inami": 3205,
      "přílo": 3206,
      "sb": 3207,
      "nebez": 3208,
      "střední": 3209,
      "číslo": 3210,
      "nemůže": 3211,
      "list": 3212,
      "právo": 3213,
      "##lku": 3214,
      "minister": 3215,
      "##lti": 3216,
      "výzku": 3217,
      "vaši": 3218,
      "##kan": 3219,
      "##štině": 3220,
      "##př": 3221,
      "mne": 3222,
      "##telé": 3223,
      "zlep": 3224,
      "možnosti": 3225,
      "jaký": 3226,
      "##pově": 3227,
      "##fikace": 3228,
      "##vnější": 3229,
      "##šil": 3230,
      "aku": 3231,
      "kol": 3232,
      "prode": 3233,
      "přitom": 3234,
      "osoba": 3235,
      "##vědo": 3236,
      "získ": 3237,
      "republika": 3238,
      "##veřej": 3239,
      "##kládá": 3240,
      "konci": 3241,
      "jméno": 3242,
      "přem": 3243,
      "##dím": 3244,
      "##žený": 3245,
      "##více": 3246,
      "vede": 3247,
      "balí": 3248,
      "obchodní": 3249,
      "##nila": 3250,
      "cesta": 3251,
      "nel": 3252,
      "##myslu": 3253,
      "hude": 3254,
      "syn": 3255,
      "brně": 3256,
      "vyhlá": 3257,
      "##ích": 3258,
      "rozší": 3259,
      "zav": 3260,
      "seniory": 3261,
      "mist": 3262,
      "poda": 3263,
      "uprav": 3264,
      "zastupitel": 3265,
      "val": 3266,
      "##cku": 3267,
      "trest": 3268,
      "##leko": 3269,
      "voda": 3270,
      "prahy": 3271,
      "##nami": 3272,
      "předsed": 3273,
      "podrob": 3274,
      "ped": 3275,
      "státní": 3276,
      "zážit": 3277,
      "slož": 3278,
      "změny": 3279,
      "##stava": 3280,
      "docela": 3281,
      "vzá": 3282,
      "druž": 3283,
      "moto": 3284,
      "##tení": 3285,
      "##enty": 3286,
      "uvá": 3287,
      "rovněž": 3288,
      "pomá": 3289,
      "vítěz": 3290,
      "jídlo": 3291,
      "vypl": 3292,
      "jem": 3293,
      "apod": 3294,
      "kři": 3295,
      "trhu": 3296,
      "skoro": 3297,
      "##inách": 3298,
      "úspěš": 3299,
      "mech": 3300,
      "pamě": 3301,
      "lan": 3302,
      "jar": 3303,
      "oba": 3304,
      "žádný": 3305,
      "##dka": 3306,
      "rady": 3307,
      "##ord": 3308,
      "posu": 3309,
      "hmot": 3310,
      "soubor": 3311,
      "cestu": 3312,
      "barvy": 3313,
      "turisti": 3314,
      "relaxace": 3315,
      "##enost": 3316,
      "liber": 3317,
      "fotografi": 3318,
      "##poj": 3319,
      "stí": 3320,
      "balení": 3321,
      "##lého": 3322,
      "##bice": 3323,
      "##chov": 3324,
      "případně": 3325,
      "lam": 3326,
      "nejvyšší": 3327,
      "##řím": 3328,
      "znamená": 3329,
      "seznam": 3330,
      "sada": 3331,
      "jež": 3332,
      "##entní": 3333,
      "aktivní": 3334,
      "tvor": 3335,
      "ing": 3336,
      "uděla": 3337,
      "každé": 3338,
      "lokali": 3339,
      "##alý": 3340,
      "blízko": 3341,
      "odpočinek": 3342,
      "dan": 3343,
      "sama": 3344,
      "luxusní": 3345,
      "zpracování": 3346,
      "nastavení": 3347,
      "nepři": 3348,
      "300": 3349,
      "zkušenosti": 3350,
      "potřeba": 3351,
      "sami": 3352,
      "dav": 3353,
      "stran": 3354,
      "dvo": 3355,
      "pět": 3356,
      "mělo": 3357,
      "##kladu": 3358,
      "prázd": 3359,
      "draž": 3360,
      "daň": 3361,
      "##áky": 3362,
      "pouzd": 3363,
      "Ústí": 3364,
      "##měru": 3365,
      "##cího": 3366,
      "stačí": 3367,
      "##rami": 3368,
      "příj": 3369,
      "##ča": 3370,
      "win": 3371,
      "baterie": 3372,
      "ráda": 3373,
      "reak": 3374,
      "vit": 3375,
      "##tro": 3376,
      "profilový": 3377,
      "##stroje": 3378,
      "##ujete": 3379,
      "mak": 3380,
      "sig": 3381,
      "naprosto": 3382,
      "detail": 3383,
      "##git": 3384,
      "##ik": 3385,
      "sd": 3386,
      "##hor": 3387,
      "montá": 3388,
      "býval": 3389,
      "##kala": 3390,
      "bor": 3391,
      "názor": 3392,
      "využití": 3393,
      "poro": 3394,
      "##ité": 3395,
      "tímto": 3396,
      "pově": 3397,
      "knihov": 3398,
      "byty": 3399,
      "##ton": 3400,
      "hlou": 3401,
      "##éru": 3402,
      "##ckém": 3403,
      "děla": 3404,
      "vzpo": 3405,
      "bou": 3406,
      "##vence": 3407,
      "dámské": 3408,
      "##che": 3409,
      "sym": 3410,
      "##dali": 3411,
      "hři": 3412,
      "ilu": 3413,
      "apart": 3414,
      "lin": 3415,
      "tělo": 3416,
      "chalup": 3417,
      "##mr": 3418,
      "##toru": 3419,
      "průběhu": 3420,
      "čtyř": 3421,
      "##ja": 3422,
      "are": 3423,
      "##rku": 3424,
      "podporu": 3425,
      "bychom": 3426,
      "automob": 3427,
      "brá": 3428,
      "zprávy": 3429,
      "ukáz": 3430,
      "zásad": 3431,
      "sním": 3432,
      "vzdělávání": 3433,
      "dvoj": 3434,
      "stavby": 3435,
      "55": 3436,
      "##ster": 3437,
      "##dila": 3438,
      "##laci": 3439,
      "##pisu": 3440,
      "##žu": 3441,
      "některých": 3442,
      "recept": 3443,
      "povrch": 3444,
      "nákup": 3445,
      "opatření": 3446,
      "staré": 3447,
      "ned": 3448,
      "59": 3449,
      "kraje": 3450,
      "vánoční": 3451,
      "##ůl": 3452,
      "pokoj": 3453,
      "33": 3454,
      "prvním": 3455,
      "medi": 3456,
      "##ály": 3457,
      "speciální": 3458,
      "##nictvím": 3459,
      "zh": 3460,
      "majet": 3461,
      "rozhodně": 3462,
      "mlé": 3463,
      "najdete": 3464,
      "##mít": 3465,
      "##ph": 3466,
      "##lon": 3467,
      "##spí": 3468,
      "společně": 3469,
      "obyvatel": 3470,
      "pozná": 3471,
      "jiného": 3472,
      "##tečně": 3473,
      "zeměděl": 3474,
      "jiný": 3475,
      "rozpoč": 3476,
      "místní": 3477,
      "čím": 3478,
      "nevě": 3479,
      "výu": 3480,
      "##ovaného": 3481,
      "##lus": 3482,
      "sé": 3483,
      "pal": 3484,
      "smí": 3485,
      "##ít": 3486,
      "škola": 3487,
      "har": 3488,
      "aho": 3489,
      "nema": 3490,
      "energie": 3491,
      "##pres": 3492,
      "zemi": 3493,
      "##díme": 3494,
      "údaje": 3495,
      "##kazu": 3496,
      "čes": 3497,
      "závis": 3498,
      "nelze": 3499,
      "klíč": 3500,
      "##ity": 3501,
      "popr": 3502,
      "insp": 3503,
      "dopad": 3504,
      "prohlí": 3505,
      "deko": 3506,
      "2016": 3507,
      "##inace": 3508,
      "víkend": 3509,
      "39": 3510,
      "otevř": 3511,
      "začátku": 3512,
      "##podob": 3513,
      "novou": 3514,
      "celo": 3515,
      "##kos": 3516,
      "jistě": 3517,
      "vybavení": 3518,
      "podzim": 3519,
      "##ektor": 3520,
      "is": 3521,
      "občas": 3522,
      "##vejte": 3523,
      "##oná": 3524,
      "problem": 3525,
      "heurece": 3526,
      "han": 3527,
      "náměstí": 3528,
      "nimi": 3529,
      "typu": 3530,
      "dy": 3531,
      "pardu": 3532,
      "udělat": 3533,
      "formu": 3534,
      "ruce": 3535,
      "věn": 3536,
      "dodání": 3537,
      "2015": 3538,
      "gr": 3539,
      "odvo": 3540,
      "paramet": 3541,
      "zdro": 3542,
      "značky": 3543,
      "martin": 3544,
      "moderní": 3545,
      "dar": 3546,
      "vytvá": 3547,
      "sever": 3548,
      "čtyři": 3549,
      "##nul": 3550,
      "perfektní": 3551,
      "řidi": 3552,
      "mik": 3553,
      "budouc": 3554,
      "vnitřní": 3555,
      "##sh": 3556,
      "vybí": 3557,
      "doz": 3558,
      "soudu": 3559,
      "##stické": 3560,
      "šp": 3561,
      "##pou": 3562,
      "##teční": 3563,
      "léč": 3564,
      "##mar": 3565,
      "potřebu": 3566,
      "těm": 3567,
      "širo": 3568,
      "pad": 3569,
      "##kých": 3570,
      "ztrá": 3571,
      "##cvi": 3572,
      "vyž": 3573,
      "scé": 3574,
      "čo": 3575,
      "##cko": 3576,
      "##rostřed": 3577,
      "##ýš": 3578,
      "##ur": 3579,
      "tera": 3580,
      "##řem": 3581,
      "cílem": 3582,
      "dce": 3583,
      "pomoci": 3584,
      "počas": 3585,
      "Ří": 3586,
      "polévka": 3587,
      "soutěže": 3588,
      "##stává": 3589,
      "49": 3590,
      "pros": 3591,
      "maso": 3592,
      "mně": 3593,
      "htt": 3594,
      "##tila": 3595,
      "zr": 3596,
      "domy": 3597,
      "##tury": 3598,
      "##sně": 3599,
      "##vin": 3600,
      "zajišť": 3601,
      "národ": 3602,
      "prostřednictvím": 3603,
      "poj": 3604,
      "##ovení": 3605,
      "září": 3606,
      "##ung": 3607,
      "klad": 3608,
      "65": 3609,
      "zlat": 3610,
      "hračky": 3611,
      "uva": 3612,
      "měsíc": 3613,
      "regu": 3614,
      "spl": 3615,
      "car": 3616,
      "většina": 3617,
      "abych": 3618,
      "umění": 3619,
      "##zel": 3620,
      "##klid": 3621,
      "zdá": 3622,
      "##lostí": 3623,
      "premi": 3624,
      "##mem": 3625,
      "tvá": 3626,
      "oprávně": 3627,
      "vyšet": 3628,
      "kvalita": 3629,
      "##vidu": 3630,
      "2014": 3631,
      "##vodu": 3632,
      "vypadá": 3633,
      "článek": 3634,
      "podá": 3635,
      "mikro": 3636,
      "obra": 3637,
      "sledu": 3638,
      "##stil": 3639,
      "##lík": 3640,
      "kapa": 3641,
      "ii": 3642,
      "##inaci": 3643,
      "##dala": 3644,
      "vešker": 3645,
      "150": 3646,
      "ane": 3647,
      "mohla": 3648,
      "důvodu": 3649,
      "mnoha": 3650,
      "##šov": 3651,
      "hvěz": 3652,
      "ustan": 3653,
      "##rech": 3654,
      "##kur": 3655,
      "##lor": 3656,
      "ahoj": 3657,
      "mnohem": 3658,
      "tisk": 3659,
      "prostoru": 3660,
      "horní": 3661,
      "##jíž": 3662,
      "sklá": 3663,
      "jeli": 3664,
      "záru": 3665,
      "barva": 3666,
      "nově": 3667,
      "2018": 3668,
      "ově": 3669,
      "důležité": 3670,
      "došlo": 3671,
      "pořádku": 3672,
      "energet": 3673,
      "nepře": 3674,
      "jose": 3675,
      "obvyk": 3676,
      "pravdě": 3677,
      "odol": 3678,
      "skutečně": 3679,
      "usa": 3680,
      "práva": 3681,
      "drá": 3682,
      "velkou": 3683,
      "produktu": 3684,
      "tab": 3685,
      "speciali": 3686,
      "##žila": 3687,
      "máš": 3688,
      "výji": 3689,
      "zla": 3690,
      "info": 3691,
      "někte": 3692,
      "zdravotní": 3693,
      "příležit": 3694,
      "rozvoj": 3695,
      "##čen": 3696,
      "zahraničí": 3697,
      "cuk": 3698,
      "plně": 3699,
      "##stý": 3700,
      "tj": 3701,
      "čem": 3702,
      "vyhledá": 3703,
      "sli": 3704,
      "##cet": 3705,
      "počasí": 3706,
      "##elu": 3707,
      "posti": 3708,
      "koláč": 3709,
      "vyzkou": 3710,
      "##ění": 3711,
      "současné": 3712,
      "ole": 3713,
      "příští": 3714,
      "škole": 3715,
      "olej": 3716,
      "nemám": 3717,
      "##telný": 3718,
      "##ral": 3719,
      "filmu": 3720,
      "poprvé": 3721,
      "##rny": 3722,
      "pek": 3723,
      "##ago": 3724,
      "##přejít": 3725,
      "kčpřejít": 3726,
      "tolik": 3727,
      "neboť": 3728,
      "digit": 3729,
      "vydá": 3730,
      "vysoké": 3731,
      "34": 3732,
      "použít": 3733,
      "aplikace": 3734,
      "com": 3735,
      "##gh": 3736,
      "druhou": 3737,
      "lod": 3738,
      "vyjád": 3739,
      "še": 3740,
      "uplat": 3741,
      "##ger": 3742,
      "šan": 3743,
      "našeho": 3744,
      "podnika": 3745,
      "hře": 3746,
      "pon": 3747,
      "odpověď": 3748,
      "2013": 3749,
      "mó": 3750,
      "mor": 3751,
      "pokoje": 3752,
      "2012": 3753,
      "situaci": 3754,
      "hroz": 3755,
      "karlov": 3756,
      "dostal": 3757,
      "##uj": 3758,
      "##mil": 3759,
      "takto": 3760,
      "hro": 3761,
      "##účast": 3762,
      "poly": 3763,
      "aktuali": 3764,
      "##ovka": 3765,
      "es": 3766,
      "##kovice": 3767,
      "podě": 3768,
      "pohád": 3769,
      "sportov": 3770,
      "pne": 3771,
      "používá": 3772,
      "babi": 3773,
      "text": 3774,
      "původní": 3775,
      "kalho": 3776,
      "##ama": 3777,
      "##dli": 3778,
      "nabízíme": 3779,
      "byste": 3780,
      "kategorii": 3781,
      "demo": 3782,
      "bun": 3783,
      "##adu": 3784,
      "nesmí": 3785,
      "materiálu": 3786,
      "zne": 3787,
      "##roti": 3788,
      "nebyla": 3789,
      "##lady": 3790,
      "mus": 3791,
      "slova": 3792,
      "sklen": 3793,
      "##ština": 3794,
      "připomí": 3795,
      "prý": 3796,
      "ovliv": 3797,
      "nem": 3798,
      "publi": 3799,
      "##onů": 3800,
      "krásné": 3801,
      "zábav": 3802,
      "hlá": 3803,
      "souladu": 3804,
      "zahr": 3805,
      "##enosti": 3806,
      "nezá": 3807,
      "učitel": 3808,
      "##ic": 3809,
      "čl": 3810,
      "##spor": 3811,
      "##ití": 3812,
      "##sť": 3813,
      "##bytek": 3814,
      "noc": 3815,
      "francou": 3816,
      "kterém": 3817,
      "qu": 3818,
      "hot": 3819,
      "pole": 3820,
      "##znamu": 3821,
      "uká": 3822,
      "tomá": 3823,
      "brit": 3824,
      "musím": 3825,
      "##sle": 3826,
      "2017": 3827,
      "utkání": 3828,
      "jehož": 3829,
      "##řství": 3830,
      "nejde": 3831,
      "##nali": 3832,
      "bohat": 3833,
      "růž": 3834,
      "venkov": 3835,
      "plnění": 3836,
      "38": 3837,
      "con": 3838,
      "napo": 3839,
      "##rodní": 3840,
      "##ram": 3841,
      "výrobce": 3842,
      "vác": 3843,
      "národní": 3844,
      "století": 3845,
      "##níka": 3846,
      "##vení": 3847,
      "tur": 3848,
      "##šuje": 3849,
      "spolupráci": 3850,
      "douf": 3851,
      "mysli": 3852,
      "##áře": 3853,
      "naj": 3854,
      "##ivní": 3855,
      "##vol": 3856,
      "af": 3857,
      "spotřebi": 3858,
      "firma": 3859,
      "##álního": 3860,
      "##ledne": 3861,
      "multi": 3862,
      "postupně": 3863,
      "vedoucí": 3864,
      "##we": 3865,
      "lyž": 3866,
      "neod": 3867,
      "doru": 3868,
      "spíš": 3869,
      "obsahu": 3870,
      "ráno": 3871,
      "někde": 3872,
      "design": 3873,
      "působí": 3874,
      "##voje": 3875,
      "kuchyň": 3876,
      "stoj": 3877,
      "cesty": 3878,
      "sklo": 3879,
      "##žili": 3880,
      "dlouh": 3881,
      "2011": 3882,
      "užitečná": 3883,
      "sestav": 3884,
      "smluvní": 3885,
      "omá": 3886,
      "městě": 3887,
      "##zací": 3888,
      "doporučuji": 3889,
      "##stitu": 3890,
      "pc": 3891,
      "##ňují": 3892,
      "##čuje": 3893,
      "hasi": 3894,
      "pravděpodob": 3895,
      "graf": 3896,
      "struktu": 3897,
      "těhot": 3898,
      "celá": 3899,
      "dříve": 3900,
      "rodiny": 3901,
      "osla": 3902,
      "objem": 3903,
      "kot": 3904,
      "##kají": 3905,
      "##jších": 3906,
      "##hodu": 3907,
      "radost": 3908,
      "trén": 3909,
      "firem": 3910,
      "##ón": 3911,
      "vlasy": 3912,
      "jakou": 3913,
      "Že": 3914,
      "##dé": 3915,
      "muže": 3916,
      "opera": 3917,
      "kterého": 3918,
      "obu": 3919,
      "rezer": 3920,
      "izo": 3921,
      "konfer": 3922,
      "měsíce": 3923,
      "jez": 3924,
      "přehled": 3925,
      "odh": 3926,
      "mis": 3927,
      "morav": 3928,
      "dalším": 3929,
      "dát": 3930,
      "tvoří": 3931,
      "nejvíce": 3932,
      "##čím": 3933,
      "veřejné": 3934,
      "věku": 3935,
      "pred": 3936,
      "výroba": 3937,
      "snadno": 3938,
      "##kovat": 3939,
      "policie": 3940,
      "rý": 3941,
      "zhot": 3942,
      "věcí": 3943,
      "##enými": 3944,
      "hum": 3945,
      "ušetří": 3946,
      "uspo": 3947,
      "měsíců": 3948,
      "výstup": 3949,
      "##měry": 3950,
      "ulici": 3951,
      "##kým": 3952,
      "článku": 3953,
      "každého": 3954,
      "produktů": 3955,
      "nepro": 3956,
      "##kraj": 3957,
      "bet": 3958,
      "2010": 3959,
      "apartmá": 3960,
      "2019": 3961,
      "##gr": 3962,
      "musel": 3963,
      "popu": 3964,
      "udrž": 3965,
      "hlí": 3966,
      "##pětí": 3967,
      "##čín": 3968,
      "interi": 3969,
      "agen": 3970,
      "el": 3971,
      "ředitel": 3972,
      "42": 3973,
      "##jní": 3974,
      "prv": 3975,
      "nek": 3976,
      "tlu": 3977,
      "str": 3978,
      "posí": 3979,
      "##stře": 3980,
      "bytu": 3981,
      "##lce": 3982,
      "hodnoty": 3983,
      "##bava": 3984,
      "fotbal": 3985,
      "mohlo": 3986,
      "bl": 3987,
      "teda": 3988,
      "posledních": 3989,
      "ran": 3990,
      "tehdy": 3991,
      "##štní": 3992,
      "našem": 3993,
      "vepř": 3994,
      "##jak": 3995,
      "kontakt": 3996,
      "##dý": 3997,
      "vyrá": 3998,
      "had": 3999,
      "jiho": 4000,
      "produkty": 4001,
      "##ves": 4002,
      "rodiče": 4003,
      "leg": 4004,
      "prostředky": 4005,
      "##xe": 4006,
      "body": 4007,
      "nato": 4008,
      "pozadí": 4009,
      "##stroj": 4010,
      "##ovanou": 4011,
      "far": 4012,
      "nas": 4013,
      "kamen": 4014,
      "defin": 4015,
      "možností": 4016,
      "##drží": 4017,
      "jedním": 4018,
      "ochran": 4019,
      "##lel": 4020,
      "kó": 4021,
      "##ika": 4022,
      "následně": 4023,
      "zept": 4024,
      "##blí": 4025,
      "##ws": 4026,
      "sbí": 4027,
      "kosmet": 4028,
      "autobu": 4029,
      "##nie": 4030,
      "začal": 4031,
      "salát": 4032,
      "dosá": 4033,
      "##olog": 4034,
      "zrovna": 4035,
      "výrobky": 4036,
      "vlož": 4037,
      "litera": 4038,
      "##telně": 4039,
      "šť": 4040,
      "vědo": 4041,
      "##dací": 4042,
      "otázky": 4043,
      "bri": 4044,
      "letní": 4045,
      "uvi": 4046,
      "vystoup": 4047,
      "##čeb": 4048,
      "##bri": 4049,
      "online": 4050,
      "naz": 4051,
      "##boo": 4052,
      "zadní": 4053,
      "pedago": 4054,
      "##nili": 4055,
      "polici": 4056,
      "##hrad": 4057,
      "##rál": 4058,
      "napad": 4059,
      "##jetí": 4060,
      "raj": 4061,
      "trou": 4062,
      "usku": 4063,
      "přijde": 4064,
      "neob": 4065,
      "technické": 4066,
      "rychlé": 4067,
      "##chodu": 4068,
      "buď": 4069,
      "vyber": 4070,
      "turna": 4071,
      "písem": 4072,
      "prací": 4073,
      "##zra": 4074,
      "nicméně": 4075,
      "srdce": 4076,
      "individu": 4077,
      "##plat": 4078,
      "##fici": 4079,
      "line": 4080,
      "krém": 4081,
      "francouz": 4082,
      "člověka": 4083,
      "nechce": 4084,
      "správní": 4085,
      "nemovitostí": 4086,
      "malý": 4087,
      "note": 4088,
      "reag": 4089,
      "objedna": 4090,
      "nějakou": 4091,
      "##zích": 4092,
      "poví": 4093,
      "sly": 4094,
      "ideální": 4095,
      "zveřej": 4096,
      "daleko": 4097,
      "centra": 4098,
      "##běr": 4099,
      "lož": 4100,
      "příběh": 4101,
      "pozemky": 4102,
      "dveře": 4103,
      "##ledek": 4104,
      "##řet": 4105,
      "pěti": 4106,
      "seri": 4107,
      "lépe": 4108,
      "nechtě": 4109,
      "klo": 4110,
      "ih": 4111,
      "##leb": 4112,
      "zbra": 4113,
      "výkonu": 4114,
      "##čera": 4115,
      "líbí": 4116,
      "jich": 4117,
      "sníd": 4118,
      "van": 4119,
      "hodinky": 4120,
      "sítě": 4121,
      "najít": 4122,
      "##řít": 4123,
      "přece": 4124,
      "##žuje": 4125,
      "##ban": 4126,
      "měly": 4127,
      "počtu": 4128,
      "##ks": 4129,
      "##vno": 4130,
      "internetu": 4131,
      "psycho": 4132,
      "pořad": 4133,
      "oto": 4134,
      "píše": 4135,
      "##lím": 4136,
      "##zování": 4137,
      "gy": 4138,
      "podmínek": 4139,
      "##rej": 4140,
      "zúčast": 4141,
      "soft": 4142,
      "zdroj": 4143,
      "ph": 4144,
      "velikosti": 4145,
      "rada": 4146,
      "setkání": 4147,
      "hrát": 4148,
      "novo": 4149,
      "##prez": 4150,
      "kapacit": 4151,
      "maximální": 4152,
      "životní": 4153,
      "přední": 4154,
      "umožňuje": 4155,
      "##adla": 4156,
      "troj": 4157,
      "dnešní": 4158,
      "##stopad": 4159,
      "komise": 4160,
      "začíná": 4161,
      "95": 4162,
      "takhle": 4163,
      "poziti": 4164,
      "kdyz": 4165,
      "elektroni": 4166,
      "výz": 4167,
      "##razi": 4168,
      "náročné": 4169,
      "založ": 4170,
      "37": 4171,
      "profesioná": 4172,
      "ptá": 4173,
      "mezinárodní": 4174,
      "říj": 4175,
      "skla": 4176,
      "##rovná": 4177,
      "technologie": 4178,
      "jezd": 4179,
      "šest": 4180,
      "mail": 4181,
      "fu": 4182,
      "měsíci": 4183,
      "aj": 4184,
      "vystav": 4185,
      "osvět": 4186,
      "dítěte": 4187,
      "ilustra": 4188,
      "##něné": 4189,
      "##pů": 4190,
      "klub": 4191,
      "noci": 4192,
      "ul": 4193,
      "přítom": 4194,
      "ihned": 4195,
      "malá": 4196,
      "automat": 4197,
      "dobrá": 4198,
      "##hoda": 4199,
      "##střed": 4200,
      "kle": 4201,
      "vím": 4202,
      "říct": 4203,
      "hal": 4204,
      "##fle": 4205,
      "důsled": 4206,
      "im": 4207,
      "ska": 4208,
      "##odní": 4209,
      "##ony": 4210,
      "přírodní": 4211,
      "centrum": 4212,
      "inf": 4213,
      "žena": 4214,
      "přijí": 4215,
      "posla": 4216,
      "##enti": 4217,
      "##ňování": 4218,
      "poměrně": 4219,
      "##bora": 4220,
      "##rovat": 4221,
      "festi": 4222,
      "##látor": 4223,
      "konec": 4224,
      "domov": 4225,
      "ruka": 4226,
      "blu": 4227,
      "týmu": 4228,
      "85": 4229,
      "##lar": 4230,
      "##oda": 4231,
      "jana": 4232,
      "konzu": 4233,
      "##dělí": 4234,
      "##tov": 4235,
      "##řila": 4236,
      "listopad": 4237,
      "ztra": 4238,
      "chaty": 4239,
      "díly": 4240,
      "##chem": 4241,
      "##řením": 4242,
      "konečně": 4243,
      "kuchyně": 4244,
      "kuřecí": 4245,
      "teor": 4246,
      "třída": 4247,
      "##ld": 4248,
      "soupe": 4249,
      "gó": 4250,
      "subje": 4251,
      "evi": 4252,
      "vin": 4253,
      "##vila": 4254,
      "stejné": 4255,
      "pojist": 4256,
      "hon": 4257,
      "##chal": 4258,
      "##rych": 4259,
      "stati": 4260,
      "euro": 4261,
      "mr": 4262,
      "##rii": 4263,
      "nabídku": 4264,
      "##nos": 4265,
      "překlady": 4266,
      "##lati": 4267,
      "pojištění": 4268,
      "funguje": 4269,
      "myšlen": 4270,
      "hrad": 4271,
      "chtěla": 4272,
      "##tat": 4273,
      "##kona": 4274,
      "ustanovení": 4275,
      "zákazníků": 4276,
      "jít": 4277,
      "lak": 4278,
      "plánu": 4279,
      "uv": 4280,
      "mohu": 4281,
      "jeliko": 4282,
      "##ruba": 4283,
      "bydlení": 4284,
      "##šně": 4285,
      "navští": 4286,
      "strana": 4287,
      "##ff": 4288,
      "evropské": 4289,
      "inform": 4290,
      "mazlí": 4291,
      "zaměstnanců": 4292,
      "fá": 4293,
      "reality": 4294,
      "##cům": 4295,
      "##bky": 4296,
      "zatímco": 4297,
      "zakoupeno": 4298,
      "##mali": 4299,
      "ocho": 4300,
      "bílé": 4301,
      "návštěvní": 4302,
      "##žek": 4303,
      "hel": 4304,
      "práv": 4305,
      "námi": 4306,
      "prohlá": 4307,
      "zobra": 4308,
      "monit": 4309,
      "zásob": 4310,
      "zpra": 4311,
      "králov": 4312,
      "obslu": 4313,
      "##hne": 4314,
      "host": 4315,
      "smet": 4316,
      "dlouhodob": 4317,
      "stroj": 4318,
      "analý": 4319,
      "##vace": 4320,
      "trené": 4321,
      "vodu": 4322,
      "sobotu": 4323,
      "nájem": 4324,
      "##hlo": 4325,
      "objekt": 4326,
      "##říz": 4327,
      "chem": 4328,
      "celkové": 4329,
      "av": 4330,
      "konstru": 4331,
      "Čí": 4332,
      "zo": 4333,
      "##aru": 4334,
      "##skými": 4335,
      "##nějších": 4336,
      "go": 4337,
      "rozhov": 4338,
      "domác": 4339,
      "moci": 4340,
      "tal": 4341,
      "stroje": 4342,
      "trans": 4343,
      "##ore": 4344,
      "síť": 4345,
      "##nt": 4346,
      "##iden": 4347,
      "zabez": 4348,
      "poznám": 4349,
      "přiroz": 4350,
      "stříbr": 4351,
      "obo": 4352,
      "bílá": 4353,
      "##kazuje": 4354,
      "zava": 4355,
      "stranu": 4356,
      "formá": 4357,
      "podobě": 4358,
      "such": 4359,
      "##tex": 4360,
      "údrž": 4361,
      "zřejmě": 4362,
      "bodů": 4363,
      "##car": 4364,
      "##nová": 4365,
      "slouží": 4366,
      "převod": 4367,
      "obci": 4368,
      "nádher": 4369,
      "##kl": 4370,
      "mláde": 4371,
      "atmo": 4372,
      "spis": 4373,
      "strateg": 4374,
      "stávající": 4375,
      "##hání": 4376,
      "oblast": 4377,
      "##leží": 4378,
      "ona": 4379,
      "##pen": 4380,
      "fotografií": 4381,
      "400": 4382,
      "přesvěd": 4383,
      "absol": 4384,
      "radě": 4385,
      "roze": 4386,
      "nejak": 4387,
      "slad": 4388,
      "48": 4389,
      "čí": 4390,
      "##han": 4391,
      "jejím": 4392,
      "požá": 4393,
      "##stři": 4394,
      "perso": 4395,
      "kurz": 4396,
      "##bud": 4397,
      "koste": 4398,
      "##čov": 4399,
      "##bách": 4400,
      "##ekt": 4401,
      "čeká": 4402,
      "##pravě": 4403,
      "vzpomí": 4404,
      "zách": 4405,
      "##ident": 4406,
      "##str": 4407,
      "nápad": 4408,
      "mý": 4409,
      "dro": 4410,
      "wi": 4411,
      "##onu": 4412,
      "##kolá": 4413,
      "sdru": 4414,
      "univerzit": 4415,
      "vaší": 4416,
      "festival": 4417,
      "děj": 4418,
      "##stane": 4419,
      "dětmi": 4420,
      "##bilní": 4421,
      "využít": 4422,
      "střel": 4423,
      "##ací": 4424,
      "vztahu": 4425,
      "##ickým": 4426,
      "institu": 4427,
      "kní": 4428,
      "##dav": 4429,
      "eli": 4430,
      "##son": 4431,
      "republice": 4432,
      "##tej": 4433,
      "##átor": 4434,
      "##mech": 4435,
      "divá": 4436,
      "rou": 4437,
      "poplat": 4438,
      "##dlem": 4439,
      "##ingu": 4440,
      "zhruba": 4441,
      "vztah": 4442,
      "osobně": 4443,
      "##iště": 4444,
      "nábytek": 4445,
      "mani": 4446,
      "neda": 4447,
      "oddělení": 4448,
      "##pisy": 4449,
      "ono": 4450,
      "##vce": 4451,
      "##óny": 4452,
      "server": 4453,
      "usnes": 4454,
      "přeno": 4455,
      "zajištění": 4456,
      "##vaná": 4457,
      "rozsahu": 4458,
      "##kého": 4459,
      "venkově": 4460,
      "krou": 4461,
      "##nové": 4462,
      "rekonstrukce": 4463,
      "som": 4464,
      "prou": 4465,
      "##neme": 4466,
      "reprez": 4467,
      "kurzy": 4468,
      "##entace": 4469,
      "##čkové": 4470,
      "jelikož": 4471,
      "##čej": 4472,
      "##čili": 4473,
      "zmi": 4474,
      "čtení": 4475,
      "##ovatele": 4476,
      "okamžit": 4477,
      "hlediska": 4478,
      "##ňte": 4479,
      "cvičení": 4480,
      "vždycky": 4481,
      "jednom": 4482,
      "nástup": 4483,
      "tentokrát": 4484,
      "pohá": 4485,
      "dem": 4486,
      "architek": 4487,
      "##ion": 4488,
      "možno": 4489,
      "##bar": 4490,
      "spolupráce": 4491,
      "ip": 4492,
      "##livě": 4493,
      "##wa": 4494,
      "ital": 4495,
      "##kej": 4496,
      "jenže": 4497,
      "soutěž": 4498,
      "01": 4499,
      "kočá": 4500,
      "##ant": 4501,
      "198": 4502,
      "kk": 4503,
      "odpověd": 4504,
      "jednotlivé": 4505,
      "##valo": 4506,
      "zimní": 4507,
      "deset": 4508,
      "ostatních": 4509,
      "##zační": 4510,
      "vej": 4511,
      "funkci": 4512,
      "moder": 4513,
      "dvěma": 4514,
      "sedm": 4515,
      "hlubo": 4516,
      "rokem": 4517,
      "lidem": 4518,
      "##nilo": 4519,
      "you": 4520,
      "médi": 4521,
      "##land": 4522,
      "vrcho": 4523,
      "##énu": 4524,
      "nábo": 4525,
      "vaz": 4526,
      "rukou": 4527,
      "boty": 4528,
      "chování": 4529,
      "díla": 4530,
      "obrov": 4531,
      "##klu": 4532,
      "extra": 4533,
      "českých": 4534,
      "komentář": 4535,
      "atmosf": 4536,
      "nářadí": 4537,
      "dostat": 4538,
      "středo": 4539,
      "gol": 4540,
      "##ační": 4541,
      "třet": 4542,
      "hudební": 4543,
      "##tách": 4544,
      "oblíbené": 4545,
      "##mer": 4546,
      "symbo": 4547,
      "požadavky": 4548,
      "##vač": 4549,
      "##deme": 4550,
      "vůči": 4551,
      "pavel": 4552,
      "přátel": 4553,
      "roli": 4554,
      "##desát": 4555,
      "##vůr": 4556,
      "fon": 4557,
      "holky": 4558,
      "2009": 4559,
      "##tice": 4560,
      "##nají": 4561,
      "##čků": 4562,
      "ošet": 4563,
      "školní": 4564,
      "taková": 4565,
      "##vot": 4566,
      "připojení": 4567,
      "kilo": 4568,
      "##žas": 4569,
      "##počet": 4570,
      "uvedl": 4571,
      "##sen": 4572,
      "podobně": 4573,
      "abychom": 4574,
      "##dl": 4575,
      "výt": 4576,
      "osm": 4577,
      "tmav": 4578,
      "##mír": 4579,
      "žlu": 4580,
      "princi": 4581,
      "hně": 4582,
      "##žka": 4583,
      "kapit": 4584,
      "inten": 4585,
      "předem": 4586,
      "odmě": 4587,
      "stal": 4588,
      "úvě": 4589,
      "##átek": 4590,
      "romantické": 4591,
      "##ovu": 4592,
      "##tít": 4593,
      "červen": 4594,
      "orli": 4595,
      "šed": 4596,
      "skupina": 4597,
      "neg": 4598,
      "pres": 4599,
      "vlastnosti": 4600,
      "naho": 4601,
      "celého": 4602,
      "nejdří": 4603,
      "##nicí": 4604,
      "##jn": 4605,
      "net": 4606,
      "dražby": 4607,
      "prote": 4608,
      "##chyb": 4609,
      "stalo": 4610,
      "dopravy": 4611,
      "angličt": 4612,
      "dist": 4613,
      "mimin": 4614,
      "mer": 4615,
      "44": 4616,
      "charakteri": 4617,
      "##tání": 4618,
      "kari": 4619,
      "údajů": 4620,
      "gril": 4621,
      "##os": 4622,
      "##ske": 4623,
      "bene": 4624,
      "##včí": 4625,
      "filt": 4626,
      "podařilo": 4627,
      "špi": 4628,
      "pošt": 4629,
      "veškeré": 4630,
      "nis": 4631,
      "dostane": 4632,
      "stránkách": 4633,
      "franti": 4634,
      "##kční": 4635,
      "##kvi": 4636,
      "##teř": 4637,
      "nejle": 4638,
      "##čeno": 4639,
      "pozemku": 4640,
      "##etě": 4641,
      "úva": 4642,
      "##telů": 4643,
      "kusů": 4644,
      "trh": 4645,
      "zapla": 4646,
      "poch": 4647,
      "řadu": 4648,
      "zastá": 4649,
      "41": 4650,
      "##čené": 4651,
      "neh": 4652,
      "##plo": 4653,
      "vyvo": 4654,
      "smyslu": 4655,
      "správně": 4656,
      "##stou": 4657,
      "pošta": 4658,
      "řez": 4659,
      "zábava": 4660,
      "120": 4661,
      "##kcí": 4662,
      "jídel": 4663,
      "audi": 4664,
      "##20": 4665,
      "fotky": 4666,
      "obrázky": 4667,
      "pohybu": 4668,
      "##emoc": 4669,
      "##nově": 4670,
      "gen": 4671,
      "pátek": 4672,
      "výroby": 4673,
      "##elí": 4674,
      "výsledek": 4675,
      "zrc": 4676,
      "náhradní": 4677,
      "slune": 4678,
      "souvislosti": 4679,
      "připoj": 4680,
      "delší": 4681,
      "vysí": 4682,
      "ruční": 4683,
      "obvykle": 4684,
      "##pce": 4685,
      "navi": 4686,
      "zařa": 4687,
      "##zda": 4688,
      "##inku": 4689,
      "přiná": 4690,
      "ústav": 4691,
      "alkoho": 4692,
      "okna": 4693,
      "las": 4694,
      "vysa": 4695,
      "pobyt": 4696,
      "úrovni": 4697,
      "sni": 4698,
      "##žku": 4699,
      "##nál": 4700,
      "fakul": 4701,
      "fre": 4702,
      "##padech": 4703,
      "vzduchu": 4704,
      "ed": 4705,
      "##lační": 4706,
      "směrem": 4707,
      "##kud": 4708,
      "##šné": 4709,
      "nedosta": 4710,
      "##éra": 4711,
      "##mentu": 4712,
      "##telná": 4713,
      "dotace": 4714,
      "##mal": 4715,
      "bato": 4716,
      "police": 4717,
      "měření": 4718,
      "##enství": 4719,
      "zaměř": 4720,
      "##řili": 4721,
      "##čnou": 4722,
      "katast": 4723,
      "##las": 4724,
      "##jícím": 4725,
      "##jedná": 4726,
      "domlu": 4727,
      "##avy": 4728,
      "výrazně": 4729,
      "##pení": 4730,
      "##roub": 4731,
      "klubu": 4732,
      "uvedené": 4733,
      "historie": 4734,
      "pes": 4735,
      "získat": 4736,
      "##rátor": 4737,
      "úřadu": 4738,
      "dokument": 4739,
      "##ribu": 4740,
      "##zz": 4741,
      "rakou": 4742,
      "tábor": 4743,
      "majetku": 4744,
      "krabi": 4745,
      "začala": 4746,
      "vyš": 4747,
      "svoji": 4748,
      "43": 4749,
      "pravda": 4750,
      "pohledu": 4751,
      "vych": 4752,
      "vzájem": 4753,
      "výška": 4754,
      "denně": 4755,
      "rej": 4756,
      "zeptat": 4757,
      "smlouva": 4758,
      "asist": 4759,
      "nižší": 4760,
      "bytů": 4761,
      "##tern": 4762,
      "2008": 4763,
      "státu": 4764,
      "ostrov": 4765,
      "##uš": 4766,
      "dla": 4767,
      "verze": 4768,
      "##vých": 4769,
      "##žovat": 4770,
      "##dili": 4771,
      "onemoc": 4772,
      "styl": 4773,
      "park": 4774,
      "nebezpeč": 4775,
      "ukončení": 4776,
      "soused": 4777,
      "nichž": 4778,
      "přibli": 4779,
      "ohro": 4780,
      "Ště": 4781,
      "demokra": 4782,
      "snídaně": 4783,
      "nesta": 4784,
      "zemí": 4785,
      "procent": 4786,
      "kompletní": 4787,
      "##éry": 4788,
      "##tili": 4789,
      "##vané": 4790,
      "##wer": 4791,
      "blízkosti": 4792,
      "těla": 4793,
      "počítač": 4794,
      "souvise": 4795,
      "pořá": 4796,
      "##anis": 4797,
      "##čkem": 4798,
      "##kovým": 4799,
      "##hel": 4800,
      "automati": 4801,
      "obuv": 4802,
      "komentáře": 4803,
      "##adlo": 4804,
      "fó": 4805,
      "##inále": 4806,
      "hospodář": 4807,
      "aut": 4808,
      "vytá": 4809,
      "drží": 4810,
      "mapě": 4811,
      "kapito": 4812,
      "životě": 4813,
      "##díte": 4814,
      "chalupy": 4815,
      "250": 4816,
      "sáz": 4817,
      "oproti": 4818,
      "##endá": 4819,
      "vyžad": 4820,
      "hrom": 4821,
      "seku": 4822,
      "slovo": 4823,
      "dobrov": 4824,
      "současně": 4825,
      "sprav": 4826,
      "želez": 4827,
      "vašeho": 4828,
      "uvědo": 4829,
      "##niční": 4830,
      "http": 4831,
      "vodou": 4832,
      "repro": 4833,
      "nadá": 4834,
      "zpě": 4835,
      "teprve": 4836,
      "níž": 4837,
      "schů": 4838,
      "zajímavé": 4839,
      "oboru": 4840,
      "##zím": 4841,
      "sdí": 4842,
      "zahradní": 4843,
      "pracovat": 4844,
      "chá": 4845,
      "končí": 4846,
      "záj": 4847,
      "ruká": 4848,
      "automobil": 4849,
      "##ionu": 4850,
      "prodlou": 4851,
      "##aného": 4852,
      "##sné": 4853,
      "##číst": 4854,
      "chuť": 4855,
      "char": 4856,
      "##čková": 4857,
      "tomáš": 4858,
      "průvod": 4859,
      "##pem": 4860,
      "řá": 4861,
      "zpo": 4862,
      "neměl": 4863,
      "kvality": 4864,
      "nemají": 4865,
      "světlo": 4866,
      "všu": 4867,
      "vesel": 4868,
      "vydání": 4869,
      "komuni": 4870,
      "druhy": 4871,
      "##čích": 4872,
      "vhodný": 4873,
      "konkrétní": 4874,
      "návrhu": 4875,
      "časo": 4876,
      "start": 4877,
      "originální": 4878,
      "prvního": 4879,
      "##tora": 4880,
      "okolo": 4881,
      "skříň": 4882,
      "##lené": 4883,
      "##říme": 4884,
      "neko": 4885,
      "bak": 4886,
      "##námení": 4887,
      "standar": 4888,
      "slo": 4889,
      "štěstí": 4890,
      "znění": 4891,
      "žáků": 4892,
      "##lární": 4893,
      "ryb": 4894,
      "lon": 4895,
      "##oti": 4896,
      "lékař": 4897,
      "naro": 4898,
      "posou": 4899,
      "2000": 4900,
      "lhů": 4901,
      "čtvrt": 4902,
      "orgán": 4903,
      "vodní": 4904,
      "##áci": 4905,
      "muži": 4906,
      "problémů": 4907,
      "kalendá": 4908,
      "pás": 4909,
      "obli": 4910,
      "vynika": 4911,
      "ocen": 4912,
      "hraje": 4913,
      "řem": 4914,
      "ulice": 4915,
      "##nutím": 4916,
      "##lépe": 4917,
      "##tifi": 4918,
      "ochrany": 4919,
      "josef": 4920,
      "tajem": 4921,
      "zdroje": 4922,
      "předmětu": 4923,
      "nejlépe": 4924,
      "exper": 4925,
      "pracovi": 4926,
      "podání": 4927,
      "mobilní": 4928,
      "##ped": 4929,
      "ochrana": 4930,
      "obchodě": 4931,
      "fanta": 4932,
      "sociálních": 4933,
      "výzkum": 4934,
      "metrů": 4935,
      "čtená": 4936,
      "napsal": 4937,
      "##mení": 4938,
      "soko": 4939,
      "jednoduché": 4940,
      "##sim": 4941,
      "inspi": 4942,
      "prezident": 4943,
      "události": 4944,
      "desky": 4945,
      "prst": 4946,
      "komer": 4947,
      "##hrál": 4948,
      "zvláštní": 4949,
      "##zemí": 4950,
      "##ňovat": 4951,
      "##hové": 4952,
      "zahrada": 4953,
      "vozidla": 4954,
      "spoluprac": 4955,
      "dlouhé": 4956,
      "rodinné": 4957,
      "odkaz": 4958,
      "plochy": 4959,
      "někteří": 4960,
      "obecně": 4961,
      "milionů": 4962,
      "konstrukce": 4963,
      "zvířata": 4964,
      "uměle": 4965,
      "##vateli": 4966,
      "##dejte": 4967,
      "diskuse": 4968,
      "##rové": 4969,
      "přání": 4970,
      "stat": 4971,
      "uk": 4972,
      "lyža": 4973,
      "vs": 4974,
      "##řování": 4975,
      "##razil": 4976,
      "míru": 4977,
      "spu": 4978,
      "spojení": 4979,
      "##štá": 4980,
      "dárky": 4981,
      "dolní": 4982,
      "##tních": 4983,
      "zhotovi": 4984,
      "##pri": 4985,
      "též": 4986,
      "disk": 4987,
      "budovy": 4988,
      "fle": 4989,
      "##lenou": 4990,
      "nená": 4991,
      "pozdě": 4992,
      "druhá": 4993,
      "noční": 4994,
      "mladá": 4995,
      "##rový": 4996,
      "chi": 4997,
      "neni": 4998,
      "nezbyt": 4999,
      "vodě": 5000,
      "51": 5001,
      "##působ": 5002,
      "přišel": 5003,
      "admin": 5004,
      "napl": 5005,
      "emi": 5006,
      "##lis": 5007,
      "##anu": 5008,
      "hřiště": 5009,
      "minimálně": 5010,
      "bezpečnostní": 5011,
      "##pust": 5012,
      "zep": 5013,
      "brambory": 5014,
      "dopo": 5015,
      "změna": 5016,
      "##mně": 5017,
      "technika": 5018,
      "##asy": 5019,
      "děkujeme": 5020,
      "##vné": 5021,
      "peněz": 5022,
      "poste": 5023,
      "termín": 5024,
      "použi": 5025,
      "##lila": 5026,
      "##cování": 5027,
      "windo": 5028,
      "počítače": 5029,
      "řadě": 5030,
      "##stěji": 5031,
      "šaty": 5032,
      "##etu": 5033,
      "ema": 5034,
      "zvýšení": 5035,
      "těší": 5036,
      "venti": 5037,
      "napětí": 5038,
      "market": 5039,
      "musíte": 5040,
      "face": 5041,
      "##vuje": 5042,
      "nerez": 5043,
      "##éf": 5044,
      "mého": 5045,
      "jablo": 5046,
      "primá": 5047,
      "okol": 5048,
      "##rtu": 5049,
      "hledáte": 5050,
      "dot": 5051,
      "vlády": 5052,
      "##iz": 5053,
      "Ča": 5054,
      "##ink": 5055,
      "vitam": 5056,
      "##poz": 5057,
      "dosud": 5058,
      "ploch": 5059,
      "rozum": 5060,
      "##lovat": 5061,
      "cd": 5062,
      "svými": 5063,
      "pohodl": 5064,
      "##book": 5065,
      "##vor": 5066,
      "2006": 5067,
      "##ted": 5068,
      "##pit": 5069,
      "dodrž": 5070,
      "stanice": 5071,
      "proběh": 5072,
      "##hal": 5073,
      "vojen": 5074,
      "##taci": 5075,
      "případech": 5076,
      "doved": 5077,
      "stůl": 5078,
      "##ostí": 5079,
      "nejsem": 5080,
      "dokáže": 5081,
      "středu": 5082,
      "úžas": 5083,
      "skupinu": 5084,
      "dár": 5085,
      "najed": 5086,
      "nejča": 5087,
      "##hav": 5088,
      "dia": 5089,
      "hledání": 5090,
      "aspoň": 5091,
      "bit": 5092,
      "parametry": 5093,
      "46": 5094,
      "předmět": 5095,
      "can": 5096,
      "příprava": 5097,
      "olomouc": 5098,
      "##eto": 5099,
      "mra": 5100,
      "fanou": 5101,
      "tradiční": 5102,
      "vlt": 5103,
      "nemocnice": 5104,
      "pó": 5105,
      "vyře": 5106,
      "cestě": 5107,
      "používat": 5108,
      "karty": 5109,
      "et": 5110,
      "##ničky": 5111,
      "cas": 5112,
      "##rátit": 5113,
      "musíme": 5114,
      "kulturní": 5115,
      "zpráva": 5116,
      "každá": 5117,
      "##stov": 5118,
      "##dro": 5119,
      "návod": 5120,
      "znak": 5121,
      "raději": 5122,
      "předná": 5123,
      "zved": 5124,
      "dárek": 5125,
      "hranice": 5126,
      "194": 5127,
      "##hlédnout": 5128,
      "letoš": 5129,
      "##čením": 5130,
      "výš": 5131,
      "as": 5132,
      "bolest": 5133,
      "dřevo": 5134,
      "třídy": 5135,
      "dph": 5136,
      "##žená": 5137,
      "použité": 5138,
      "cibu": 5139,
      "##nut": 5140,
      "##dané": 5141,
      "ofici": 5142,
      "##ších": 5143,
      "pozici": 5144,
      "okamži": 5145,
      "doktor": 5146,
      "softwar": 5147,
      "##bý": 5148,
      "chtějí": 5149,
      "pát": 5150,
      "konkur": 5151,
      "sezo": 5152,
      "složit": 5153,
      "Český": 5154,
      "Ře": 5155,
      "zkušenost": 5156,
      "odborné": 5157,
      "ret": 5158,
      "##šená": 5159,
      "šet": 5160,
      "zod": 5161,
      "žalo": 5162,
      "##kuje": 5163,
      "ovládání": 5164,
      "##ght": 5165,
      "usnesení": 5166,
      "tat": 5167,
      "popla": 5168,
      "nos": 5169,
      "##nova": 5170,
      "umístění": 5171,
      "naroz": 5172,
      "každou": 5173,
      "živ": 5174,
      "geo": 5175,
      "##jel": 5176,
      "skupin": 5177,
      "formou": 5178,
      "##tním": 5179,
      "promě": 5180,
      "##aněl": 5181,
      "zadá": 5182,
      "##líky": 5183,
      "disple": 5184,
      "důvodů": 5185,
      "masá": 5186,
      "objektu": 5187,
      "##zdob": 5188,
      "podlož": 5189,
      "špatně": 5190,
      "moře": 5191,
      "kus": 5192,
      "černá": 5193,
      "stránka": 5194,
      "reakce": 5195,
      "vyko": 5196,
      "hlavy": 5197,
      "invest": 5198,
      "dnech": 5199,
      "dý": 5200,
      "##star": 5201,
      "prospě": 5202,
      "čet": 5203,
      "nohy": 5204,
      "velko": 5205,
      "plné": 5206,
      "##kazy": 5207,
      "univerz": 5208,
      "windows": 5209,
      "gar": 5210,
      "##stní": 5211,
      "přičem": 5212,
      "##zují": 5213,
      "sdružení": 5214,
      "příklad": 5215,
      "##vovat": 5216,
      "kalhoty": 5217,
      "brzy": 5218,
      "elegan": 5219,
      "převá": 5220,
      "recepty": 5221,
      "len": 5222,
      "##drže": 5223,
      "slunce": 5224,
      "##čina": 5225,
      "vhodná": 5226,
      "řady": 5227,
      "iden": 5228,
      "standard": 5229,
      "pomalu": 5230,
      "nen": 5231,
      "##čkami": 5232,
      "listopadu": 5233,
      "příbě": 5234,
      "##alizace": 5235,
      "hlavním": 5236,
      "spoustu": 5237,
      "pravidla": 5238,
      "##ňů": 5239,
      "vlh": 5240,
      "##chat": 5241,
      "prostředků": 5242,
      "prvky": 5243,
      "##th": 5244,
      "řada": 5245,
      "student": 5246,
      "kata": 5247,
      "cestou": 5248,
      "##cov": 5249,
      "přines": 5250,
      "řešit": 5251,
      "##loží": 5252,
      "čerst": 5253,
      "akcí": 5254,
      "existuje": 5255,
      "plus": 5256,
      "##nor": 5257,
      "2007": 5258,
      "motoru": 5259,
      "nápo": 5260,
      "nejprve": 5261,
      "##bka": 5262,
      "krásný": 5263,
      "smysl": 5264,
      "jejichž": 5265,
      "##zkou": 5266,
      "##kupu": 5267,
      "nejmen": 5268,
      "přičemž": 5269,
      "předá": 5270,
      "pochop": 5271,
      "uher": 5272,
      "potenci": 5273,
      "##cházejí": 5274,
      "kupující": 5275,
      "prázdn": 5276,
      "nechat": 5277,
      "ochranu": 5278,
      "chybí": 5279,
      "##íme": 5280,
      "normální": 5281,
      "##řská": 5282,
      "výhod": 5283,
      "##dku": 5284,
      "vním": 5285,
      "chybě": 5286,
      "romá": 5287,
      "daně": 5288,
      "dochází": 5289,
      "jedine": 5290,
      "stabili": 5291,
      "podpora": 5292,
      "napá": 5293,
      "hlavu": 5294,
      "otázku": 5295,
      "seznamu": 5296,
      "okru": 5297,
      "mimořád": 5298,
      "##isko": 5299,
      "ovoce": 5300,
      "lete": 5301,
      "najednou": 5302,
      "rodina": 5303,
      "##jícího": 5304,
      "vymě": 5305,
      "kraji": 5306,
      "ciz": 5307,
      "václav": 5308,
      "600": 5309,
      "vzdělání": 5310,
      "inze": 5311,
      "jaká": 5312,
      "opravy": 5313,
      "wor": 5314,
      "arg": 5315,
      "##níkem": 5316,
      "##mile": 5317,
      "##zala": 5318,
      "jasné": 5319,
      "jízd": 5320,
      "##tah": 5321,
      "integ": 5322,
      "hrd": 5323,
      "##hají": 5324,
      "pravidelně": 5325,
      "##reg": 5326,
      "diag": 5327,
      "stažení": 5328,
      "závěr": 5329,
      "poří": 5330,
      "##zat": 5331,
      "##pína": 5332,
      "oni": 5333,
      "pozitivní": 5334,
      "uve": 5335,
      "rozpočtu": 5336,
      "ble": 5337,
      "kandi": 5338,
      "moment": 5339,
      "komplex": 5340,
      "##tku": 5341,
      "opu": 5342,
      "56": 5343,
      "poraden": 5344,
      "cykli": 5345,
      "čokolá": 5346,
      "muset": 5347,
      "trval": 5348,
      "chlad": 5349,
      "##ovacích": 5350,
      "##ng": 5351,
      "doprav": 5352,
      "včera": 5353,
      "dětem": 5354,
      "centru": 5355,
      "ada": 5356,
      "webu": 5357,
      "rekre": 5358,
      "prakticky": 5359,
      "členů": 5360,
      "##kázal": 5361,
      "všude": 5362,
      "##lůž": 5363,
      "jihla": 5364,
      "nisou": 5365,
      "##loven": 5366,
      "skutečnosti": 5367,
      "##logické": 5368,
      "tes": 5369,
      "##tejte": 5370,
      "srp": 5371,
      "most": 5372,
      "bankov": 5373,
      "mrt": 5374,
      "péči": 5375,
      "##nné": 5376,
      "ša": 5377,
      "##lových": 5378,
      "panel": 5379,
      "látky": 5380,
      "minimální": 5381,
      "loň": 5382,
      "ms": 5383,
      "tim": 5384,
      "kombin": 5385,
      "knih": 5386,
      "výda": 5387,
      "přez": 5388,
      "zlín": 5389,
      "klik": 5390,
      "##zvem": 5391,
      "otázka": 5392,
      "hi": 5393,
      "tepel": 5394,
      "##cené": 5395,
      "##obec": 5396,
      "částe": 5397,
      "##red": 5398,
      "vědět": 5399,
      "##šený": 5400,
      "dveří": 5401,
      "##lým": 5402,
      "zahrady": 5403,
      "47": 5404,
      "##znak": 5405,
      "kriti": 5406,
      "hledat": 5407,
      "neděli": 5408,
      "Čt": 5409,
      "orgá": 5410,
      "new": 5411,
      "dobrou": 5412,
      "mluví": 5413,
      "administ": 5414,
      "##lt": 5415,
      "zaru": 5416,
      "imp": 5417,
      "atra": 5418,
      "cuket": 5419,
      "pozemků": 5420,
      "hodinami": 5421,
      "adv": 5422,
      "##mb": 5423,
      "propa": 5424,
      "připra": 5425,
      "názvem": 5426,
      "kres": 5427,
      "it": 5428,
      "##tami": 5429,
      "lehce": 5430,
      "fit": 5431,
      "ucha": 5432,
      "vytvořit": 5433,
      "rozměry": 5434,
      "takovou": 5435,
      "nepou": 5436,
      "praxi": 5437,
      "potě": 5438,
      "##vad": 5439,
      "##ria": 5440,
      "distribu": 5441,
      "příspěv": 5442,
      "##eném": 5443,
      "zážitky": 5444,
      "lav": 5445,
      "##mpi": 5446,
      "##cházet": 5447,
      "##zce": 5448,
      "##činy": 5449,
      "ulož": 5450,
      "světla": 5451,
      "pneum": 5452,
      "maj": 5453,
      "pali": 5454,
      "lito": 5455,
      "uhlí": 5456,
      "mana": 5457,
      "kůže": 5458,
      "uvnitř": 5459,
      "hub": 5460,
      "výběru": 5461,
      "dneska": 5462,
      "##pečí": 5463,
      "manipu": 5464,
      "poptá": 5465,
      "černé": 5466,
      "##tivně": 5467,
      "##pří": 5468,
      "##lám": 5469,
      "##stika": 5470,
      "udělá": 5471,
      "oře": 5472,
      "ušetříte": 5473,
      "fas": 5474,
      "tričko": 5475,
      "povinen": 5476,
      "sex": 5477,
      "začne": 5478,
      "##aku": 5479,
      "##lací": 5480,
      "52": 5481,
      "##čilo": 5482,
      "exe": 5483,
      "##tují": 5484,
      "##sech": 5485,
      "kláves": 5486,
      "omezení": 5487,
      "osvětlení": 5488,
      "##jích": 5489,
      "nástroje": 5490,
      "##stili": 5491,
      "fer": 5492,
      "kerami": 5493,
      "areálu": 5494,
      "obtí": 5495,
      "duše": 5496,
      "obal": 5497,
      "rozu": 5498,
      "neustá": 5499,
      "japon": 5500,
      "zada": 5501,
      "hli": 5502,
      "##ex": 5503,
      "představuje": 5504,
      "196": 5505,
      "polštá": 5506,
      "pondělí": 5507,
      "odpoledne": 5508,
      "hd": 5509,
      "léta": 5510,
      "##bytku": 5511,
      "praxe": 5512,
      "armá": 5513,
      "vad": 5514,
      "play": 5515,
      "##stoupit": 5516,
      "rozli": 5517,
      "dalšího": 5518,
      "desí": 5519,
      "##čice": 5520,
      "fotograf": 5521,
      "montáž": 5522,
      "54": 5523,
      "mlý": 5524,
      "vyme": 5525,
      "##tečné": 5526,
      "modrá": 5527,
      "složení": 5528,
      "dílo": 5529,
      "vzniku": 5530,
      "pěkně": 5531,
      "poškození": 5532,
      "##boj": 5533,
      "##pal": 5534,
      "pokr": 5535,
      "micha": 5536,
      "##ckými": 5537,
      "nezapo": 5538,
      "pojišť": 5539,
      "##enční": 5540,
      "někoho": 5541,
      "důchod": 5542,
      "##leh": 5543,
      "zajistit": 5544,
      "##pie": 5545,
      "##zivní": 5546,
      "obcí": 5547,
      "letošní": 5548,
      "##livé": 5549,
      "##ovaným": 5550,
      "nabídce": 5551,
      "##ori": 5552,
      "##znamená": 5553,
      "##hrát": 5554,
      "##ros": 5555,
      "přírod": 5556,
      "porod": 5557,
      "##vov": 5558,
      "reklama": 5559,
      "výži": 5560,
      "##čování": 5561,
      "poved": 5562,
      "##kosloven": 5563,
      "žádná": 5564,
      "dekorace": 5565,
      "##bami": 5566,
      "glo": 5567,
      "dojde": 5568,
      "pravdu": 5569,
      "každo": 5570,
      "##ampi": 5571,
      "altern": 5572,
      "pedagog": 5573,
      "##čník": 5574,
      "bolesti": 5575,
      "vylou": 5576,
      "snížení": 5577,
      "zaměstna": 5578,
      "##šak": 5579,
      "##rozu": 5580,
      "karel": 5581,
      "orlicí": 5582,
      "týka": 5583,
      "gran": 5584,
      "boles": 5585,
      "stál": 5586,
      "vytvoř": 5587,
      "pracovních": 5588,
      "odpovědi": 5589,
      "tenis": 5590,
      "pánské": 5591,
      "deseti": 5592,
      "dává": 5593,
      "th": 5594,
      "jestliže": 5595,
      "městech": 5596,
      "opo": 5597,
      "oly": 5598,
      "textu": 5599,
      "výsledků": 5600,
      "obnov": 5601,
      "##volu": 5602,
      "domě": 5603,
      "##chová": 5604,
      "jídelní": 5605,
      "nahra": 5606,
      "nim": 5607,
      "němu": 5608,
      "výjim": 5609,
      "##žování": 5610,
      "přívě": 5611,
      "rejstří": 5612,
      "opa": 5613,
      "okra": 5614,
      "voli": 5615,
      "##ovač": 5616,
      "##hlas": 5617,
      "dodává": 5618,
      "port": 5619,
      "kvě": 5620,
      "výlet": 5621,
      "svoje": 5622,
      "pry": 5623,
      "předpisů": 5624,
      "dení": 5625,
      "podstatě": 5626,
      "žádnou": 5627,
      "##vést": 5628,
      "datum": 5629,
      "sázavou": 5630,
      "##hledně": 5631,
      "vez": 5632,
      "penzion": 5633,
      "pane": 5634,
      "ren": 5635,
      "záležit": 5636,
      "##jov": 5637,
      "spodní": 5638,
      "učeb": 5639,
      "64": 5640,
      "##int": 5641,
      "úpl": 5642,
      "##rné": 5643,
      "avšak": 5644,
      "hypo": 5645,
      "nákladů": 5646,
      "seminá": 5647,
      "out": 5648,
      "##cové": 5649,
      "##chopi": 5650,
      "goo": 5651,
      "rekonstru": 5652,
      "##port": 5653,
      "doporučení": 5654,
      "dokumentace": 5655,
      "##čnost": 5656,
      "##apa": 5657,
      "##rovod": 5658,
      "aka": 5659,
      "částí": 5660,
      "měk": 5661,
      "zauj": 5662,
      "##inové": 5663,
      "nijak": 5664,
      "těhotenství": 5665,
      "využívá": 5666,
      "##rová": 5667,
      "logi": 5668,
      "kav": 5669,
      "##ys": 5670,
      "naleznete": 5671,
      "##jně": 5672,
      "stránku": 5673,
      "neustále": 5674,
      "kuf": 5675,
      "hvězdi": 5676,
      "david": 5677,
      "poslou": 5678,
      "dohod": 5679,
      "vrch": 5680,
      "jiná": 5681,
      "##ble": 5682,
      "těstov": 5683,
      "úpravy": 5684,
      "svet": 5685,
      "minulosti": 5686,
      "přejít": 5687,
      "vysoce": 5688,
      "stylu": 5689,
      "##lách": 5690,
      "jednotky": 5691,
      "box": 5692,
      "poskytuje": 5693,
      "rajč": 5694,
      "##jedno": 5695,
      "brou": 5696,
      "vyhledávání": 5697,
      "smrti": 5698,
      "##lal": 5699,
      "kanceláře": 5700,
      "refer": 5701,
      "funkční": 5702,
      "##nických": 5703,
      "tebe": 5704,
      "evropě": 5705,
      "##enější": 5706,
      "vrst": 5707,
      "##jezdu": 5708,
      "dané": 5709,
      "##tební": 5710,
      "skry": 5711,
      "##lán": 5712,
      "městské": 5713,
      "mistrov": 5714,
      "zástupce": 5715,
      "každém": 5716,
      "pun": 5717,
      "židle": 5718,
      "vyprá": 5719,
      "doh": 5720,
      "techniky": 5721,
      "skr": 5722,
      "účel": 5723,
      "poklad": 5724,
      "jasně": 5725,
      "##kace": 5726,
      "stará": 5727,
      "žádost": 5728,
      "doporučujeme": 5729,
      "##gar": 5730,
      "extr": 5731,
      "##šila": 5732,
      "dřeva": 5733,
      "voz": 5734,
      "##sní": 5735,
      "televize": 5736,
      "leží": 5737,
      "plech": 5738,
      "hří": 5739,
      "růst": 5740,
      "touto": 5741,
      "odmít": 5742,
      "přím": 5743,
      "##mní": 5744,
      "organiz": 5745,
      "##pky": 5746,
      "##zet": 5747,
      "domin": 5748,
      "láska": 5749,
      "celém": 5750,
      "řekla": 5751,
      "kucha": 5752,
      "parku": 5753,
      "tipy": 5754,
      "##kém": 5755,
      "obvod": 5756,
      "zobrazení": 5757,
      "poznávací": 5758,
      "##par": 5759,
      "monitor": 5760,
      "přináší": 5761,
      "53": 5762,
      "nosi": 5763,
      "##íř": 5764,
      "zdrojů": 5765,
      "systémy": 5766,
      "smu": 5767,
      "##tory": 5768,
      "žádosti": 5769,
      "mnou": 5770,
      "mateřské": 5771,
      "abyste": 5772,
      "oleje": 5773,
      "##ňující": 5774,
      "materiály": 5775,
      "rozto": 5776,
      "pokro": 5777,
      "katalog": 5778,
      "životního": 5779,
      "chtěli": 5780,
      "něho": 5781,
      "vis": 5782,
      "##lina": 5783,
      "ukraj": 5784,
      "exeku": 5785,
      "zvlád": 5786,
      "českého": 5787,
      "hráči": 5788,
      "um": 5789,
      "dostupné": 5790,
      "vyhodno": 5791,
      "ac": 5792,
      "nezávis": 5793,
      "prostory": 5794,
      "##gle": 5795,
      "ivan": 5796,
      "miro": 5797,
      "pozornost": 5798,
      "nádra": 5799,
      "prádlo": 5800,
      "zájmu": 5801,
      "bur": 5802,
      "společností": 5803,
      "##isku": 5804,
      "legen": 5805,
      "podíl": 5806,
      "zásu": 5807,
      "profi": 5808,
      "##mální": 5809,
      "likvi": 5810,
      "odliš": 5811,
      "doprovod": 5812,
      "poznat": 5813,
      "základních": 5814,
      "začít": 5815,
      "##nět": 5816,
      "důvě": 5817,
      "písm": 5818,
      "##vování": 5819,
      "##štěstí": 5820,
      "onemocnění": 5821,
      "vč": 5822,
      "hospoda": 5823,
      "##zech": 5824,
      "prvních": 5825,
      "vti": 5826,
      "rybní": 5827,
      "##vej": 5828,
      "kříž": 5829,
      "##lač": 5830,
      "petra": 5831,
      "vítězství": 5832,
      "vztahy": 5833,
      "bes": 5834,
      "##vet": 5835,
      "koleč": 5836,
      "materiálů": 5837,
      "plynu": 5838,
      "krásná": 5839,
      "nesou": 5840,
      "výhled": 5841,
      "vnější": 5842,
      "přízni": 5843,
      "osobních": 5844,
      "##zny": 5845,
      "##stek": 5846,
      "er": 5847,
      "##icky": 5848,
      "##ést": 5849,
      "cíl": 5850,
      "můžu": 5851,
      "##stila": 5852,
      "##ňá": 5853,
      "milo": 5854,
      "ham": 5855,
      "##bře": 5856,
      "změně": 5857,
      "potraviny": 5858,
      "řídí": 5859,
      "koncert": 5860,
      "spolehli": 5861,
      "##nuté": 5862,
      "čase": 5863,
      "kuli": 5864,
      "tane": 5865,
      "proud": 5866,
      "brna": 5867,
      "mgr": 5868,
      "slavnost": 5869,
      "tomuto": 5870,
      "tiská": 5871,
      "zdi": 5872,
      "odpovídá": 5873,
      "##bali": 5874,
      "##sch": 5875,
      "kilomet": 5876,
      "pouzdro": 5877,
      "##ling": 5878,
      "lad": 5879,
      "vozí": 5880,
      "tip": 5881,
      "povinnost": 5882,
      "##valy": 5883,
      "pardubice": 5884,
      "podnikání": 5885,
      "bul": 5886,
      "klou": 5887,
      "odhad": 5888,
      "nadále": 5889,
      "plný": 5890,
      "##šením": 5891,
      "dětská": 5892,
      "preziden": 5893,
      "##mazán": 5894,
      "prodeje": 5895,
      "##tec": 5896,
      "navrh": 5897,
      "doufám": 5898,
      "rež": 5899,
      "masa": 5900,
      "##rativní": 5901,
      "pomáhá": 5902,
      "května": 5903,
      "mine": 5904,
      "##zali": 5905,
      "zes": 5906,
      "vzdělávací": 5907,
      "klient": 5908,
      "změnu": 5909,
      "##vách": 5910,
      "volný": 5911,
      "klidně": 5912,
      "nechci": 5913,
      "jinou": 5914,
      "lib": 5915,
      "druhého": 5916,
      "místech": 5917,
      "##atiky": 5918,
      "hov": 5919,
      "úřed": 5920,
      "##řuje": 5921,
      "##jete": 5922,
      "okamžitě": 5923,
      "šlo": 5924,
      "zbav": 5925,
      "dětský": 5926,
      "parla": 5927,
      "těle": 5928,
      "##kar": 5929,
      "spočí": 5930,
      "##ovce": 5931,
      "mění": 5932,
      "##dů": 5933,
      "hradi": 5934,
      "modré": 5935,
      "bů": 5936,
      "spa": 5937,
      "##haj": 5938,
      "lů": 5939,
      "přemýš": 5940,
      "položek": 5941,
      "poky": 5942,
      "zased": 5943,
      "58": 5944,
      "záměr": 5945,
      "regioná": 5946,
      "krásně": 5947,
      "nádobí": 5948,
      "kousek": 5949,
      "realizace": 5950,
      "##dim": 5951,
      "vynikající": 5952,
      "##vého": 5953,
      "skvělé": 5954,
      "záleží": 5955,
      "##mlu": 5956,
      "netra": 5957,
      "nutno": 5958,
      "##bat": 5959,
      "chceme": 5960,
      "podpory": 5961,
      "197": 5962,
      "povinnosti": 5963,
      "dospělé": 5964,
      "zása": 5965,
      "##ilu": 5966,
      "anebo": 5967,
      "##brá": 5968,
      "##tali": 5969,
      "##mrz": 5970,
      "gym": 5971,
      "šesti": 5972,
      "bus": 5973,
      "lip": 5974,
      "61": 5975,
      "zapoj": 5976,
      "kryt": 5977,
      "fotoapa": 5978,
      "probíhá": 5979,
      "log": 5980,
      "stavba": 5981,
      "reprodu": 5982,
      "##aka": 5983,
      "ježí": 5984,
      "dvd": 5985,
      "sexu": 5986,
      "dos": 5987,
      "uzavř": 5988,
      "##vosti": 5989,
      "kontaktu": 5990,
      "závěre": 5991,
      "mic": 5992,
      "michal": 5993,
      "##padá": 5994,
      "##graf": 5995,
      "dole": 5996,
      "režimu": 5997,
      "provádě": 5998,
      "stane": 5999,
      "##ič": 6000,
      "uvol": 6001,
      "potí": 6002,
      "jenž": 6003,
      "reál": 6004,
      "tvaru": 6005,
      "viděl": 6006,
      "klimati": 6007,
      "předseda": 6008,
      "seda": 6009,
      "podnikatel": 6010,
      "soli": 6011,
      "pana": 6012,
      "frek": 6013,
      "##dající": 6014,
      "pokračovat": 6015,
      "dek": 6016,
      "starý": 6017,
      "digitální": 6018,
      "##ředu": 6019,
      "ol": 6020,
      "##terá": 6021,
      "spol": 6022,
      "hygi": 6023,
      "spr": 6024,
      "##stran": 6025,
      "hmotnost": 6026,
      "Škoda": 6027,
      "jednoduše": 6028,
      "##hone": 6029,
      "jaku": 6030,
      "##kyně": 6031,
      "evropy": 6032,
      "emo": 6033,
      "nábožen": 6034,
      "##hlédnutí": 6035,
      "##get": 6036,
      "dřevěné": 6037,
      "označ": 6038,
      "svíti": 6039,
      "bel": 6040,
      "dostala": 6041,
      "##štěm": 6042,
      "přibližně": 6043,
      "muzi": 6044,
      "air": 6045,
      "chodí": 6046,
      "jablonec": 6047,
      "pozice": 6048,
      "nebyly": 6049,
      "kyse": 6050,
      "##ickém": 6051,
      "kluci": 6052,
      "##tové": 6053,
      "pojišťov": 6054,
      "vyšetření": 6055,
      "místnosti": 6056,
      "specifikace": 6057,
      "pravděpodobně": 6058,
      "smlouvu": 6059,
      "nebudou": 6060,
      "hově": 6061,
      "stejný": 6062,
      "##jede": 6063,
      "wil": 6064,
      "boží": 6065,
      "mel": 6066,
      "obdob": 6067,
      "##sila": 6068,
      "přechod": 6069,
      "dívka": 6070,
      "absolu": 6071,
      "víkendové": 6072,
      "detek": 6073,
      "ročník": 6074,
      "plocha": 6075,
      "kultur": 6076,
      "cíle": 6077,
      "vepřové": 6078,
      "všeobec": 6079,
      "rozši": 6080,
      "těžko": 6081,
      "bli": 6082,
      "licen": 6083,
      "pouzdra": 6084,
      "##rační": 6085,
      "##čelem": 6086,
      "oc": 6087,
      "války": 6088,
      "doplně": 6089,
      "ana": 6090,
      "##kontro": 6091,
      "##lený": 6092,
      "exter": 6093,
      "pracuje": 6094,
      "vybud": 6095,
      "kvalitu": 6096,
      "povr": 6097,
      "ilustrační": 6098,
      "kober": 6099,
      "náram": 6100,
      "stupně": 6101,
      "##nské": 6102,
      "spousta": 6103,
      "Šp": 6104,
      "odbě": 6105,
      "##dci": 6106,
      "manu": 6107,
      "rozvod": 6108,
      "usb": 6109,
      "teploty": 6110,
      "meda": 6111,
      "informační": 6112,
      "##nická": 6113,
      "nacházíte": 6114,
      "turistika": 6115,
      "##ývající": 6116,
      "##náct": 6117,
      "##sat": 6118,
      "chut": 6119,
      "zámek": 6120,
      "strach": 6121,
      "rodinného": 6122,
      "##sc": 6123,
      "##ody": 6124,
      "zeď": 6125,
      "slá": 6126,
      "vysoko": 6127,
      "oteví": 6128,
      "vlák": 6129,
      "alerg": 6130,
      "svému": 6131,
      "český": 6132,
      "milu": 6133,
      "hodnota": 6134,
      "telefonu": 6135,
      "zápis": 6136,
      "schopnost": 6137,
      "jediný": 6138,
      "nedě": 6139,
      "verzi": 6140,
      "lázně": 6141,
      "filo": 6142,
      "divo": 6143,
      "netradi": 6144,
      "průmys": 6145,
      "##aj": 6146,
      "##ovicích": 6147,
      "názory": 6148,
      "rozvoje": 6149,
      "duch": 6150,
      "druhů": 6151,
      "tel": 6152,
      "2004": 6153,
      "buďte": 6154,
      "videa": 6155,
      "statisti": 6156,
      "vyberte": 6157,
      "týdny": 6158,
      "stoup": 6159,
      "##hn": 6160,
      "napsat": 6161,
      "hokej": 6162,
      "adresa": 6163,
      "spá": 6164,
      "sel": 6165,
      "bezp": 6166,
      "##kaza": 6167,
      "57": 6168,
      "##cek": 6169,
      "##řky": 6170,
      "##pozice": 6171,
      "hes": 6172,
      "ač": 6173,
      "epi": 6174,
      "##měst": 6175,
      "diskuze": 6176,
      "kostel": 6177,
      "##chách": 6178,
      "výrobu": 6179,
      "##ml": 6180,
      "děje": 6181,
      "šéf": 6182,
      "##zované": 6183,
      "neře": 6184,
      "gará": 6185,
      "vysokou": 6186,
      "##tion": 6187,
      "sw": 6188,
      "elektrické": 6189,
      "typy": 6190,
      "rozhodl": 6191,
      "sor": 6192,
      "řetě": 6193,
      "nef": 6194,
      "##ris": 6195,
      "##ation": 6196,
      "soutěží": 6197,
      "adap": 6198,
      "nápl": 6199,
      "původně": 6200,
      "pobytu": 6201,
      "##čných": 6202,
      "denní": 6203,
      "mix": 6204,
      "moz": 6205,
      "velkých": 6206,
      "mazlíčky": 6207,
      "vážně": 6208,
      "piz": 6209,
      "uvádí": 6210,
      "hob": 6211,
      "magnet": 6212,
      "dest": 6213,
      "uskuteč": 6214,
      "jader": 6215,
      "##nín": 6216,
      "vysky": 6217,
      "tlačítko": 6218,
      "června": 6219,
      "negativní": 6220,
      "poti": 6221,
      "##lník": 6222,
      "##moc": 6223,
      "prodeji": 6224,
      "směru": 6225,
      "vysoká": 6226,
      "nah": 6227,
      "sbor": 6228,
      "menu": 6229,
      "výrobě": 6230,
      "otevře": 6231,
      "dostá": 6232,
      "správné": 6233,
      "články": 6234,
      "plyn": 6235,
      "##šování": 6236,
      "tvaro": 6237,
      "##vkou": 6238,
      "##brat": 6239,
      "az": 6240,
      "výrobků": 6241,
      "ovlada": 6242,
      "##tla": 6243,
      "##orit": 6244,
      "samolep": 6245,
      "udr": 6246,
      "prov": 6247,
      "voleb": 6248,
      "hráč": 6249,
      "skutečnost": 6250,
      "rozměr": 6251,
      "vychází": 6252,
      "koncent": 6253,
      "zbývá": 6254,
      "##hly": 6255,
      "sluch": 6256,
      "nasa": 6257,
      "sleduje": 6258,
      "hodinu": 6259,
      "##lejší": 6260,
      "dvak": 6261,
      "předlož": 6262,
      "pobo": 6263,
      "##myš": 6264,
      "nejdříve": 6265,
      "konzer": 6266,
      "podívat": 6267,
      "dubna": 6268,
      "miku": 6269,
      "blog": 6270,
      "mart": 6271,
      "##rali": 6272,
      "přil": 6273,
      "změnit": 6274,
      "off": 6275,
      "infra": 6276,
      "října": 6277,
      "pej": 6278,
      "##mila": 6279,
      "zodpově": 6280,
      "nů": 6281,
      "ohledně": 6282,
      "zdů": 6283,
      "uvedených": 6284,
      "##lovou": 6285,
      "neva": 6286,
      "##letu": 6287,
      "##iky": 6288,
      "##áku": 6289,
      "ministerstvo": 6290,
      "podpr": 6291,
      "těžké": 6292,
      "loni": 6293,
      "zítra": 6294,
      "křesť": 6295,
      "jeste": 6296,
      "ako": 6297,
      "forma": 6298,
      "koně": 6299,
      "##rají": 6300,
      "šanci": 6301,
      "týdne": 6302,
      "##dlí": 6303,
      "fla": 6304,
      "strom": 6305,
      "úter": 6306,
      "lah": 6307,
      "nejvý": 6308,
      "krok": 6309,
      "der": 6310,
      "vodo": 6311,
      "##ními": 6312,
      "oznámení": 6313,
      "přizpůsob": 6314,
      "venku": 6315,
      "jiným": 6316,
      "##žeme": 6317,
      "mohly": 6318,
      "karlovy": 6319,
      "stala": 6320,
      "##dři": 6321,
      "##mon": 6322,
      "##cová": 6323,
      "dod": 6324,
      "výtvar": 6325,
      "druhém": 6326,
      "##žet": 6327,
      "světové": 6328,
      "##ilí": 6329,
      "vláda": 6330,
      "dala": 6331,
      "analy": 6332,
      "představení": 6333,
      "museli": 6334,
      "##liny": 6335,
      "Žád": 6336,
      "šířka": 6337,
      "břez": 6338,
      "ročníku": 6339,
      "bed": 6340,
      "specif": 6341,
      "##ki": 6342,
      "rozví": 6343,
      "vnit": 6344,
      "800": 6345,
      "rozhodu": 6346,
      "manag": 6347,
      "nene": 6348,
      "pozd": 6349,
      "eviden": 6350,
      "Čas": 6351,
      "projektů": 6352,
      "black": 6353,
      "##klada": 6354,
      "ští": 6355,
      "funkcí": 6356,
      "filmy": 6357,
      "zni": 6358,
      "čaj": 6359,
      "uchaze": 6360,
      "##říž": 6361,
      "žal": 6362,
      "síly": 6363,
      "trošku": 6364,
      "##nička": 6365,
      "dobrod": 6366,
      "jisto": 6367,
      "##razit": 6368,
      "říci": 6369,
      "##stala": 6370,
      "redak": 6371,
      "2005": 6372,
      "příjemné": 6373,
      "olympi": 6374,
      "##smě": 6375,
      "dolů": 6376,
      "##ovné": 6377,
      "horší": 6378,
      "##xxxx": 6379,
      "zálo": 6380,
      "veče": 6381,
      "dokud": 6382,
      "divadlo": 6383,
      "ond": 6384,
      "tašky": 6385,
      "tlak": 6386,
      "nesp": 6387,
      "správy": 6388,
      "adventní": 6389,
      "univerzální": 6390,
      "ukázat": 6391,
      "kód": 6392,
      "zŠ": 6393,
      "##ici": 6394,
      "šla": 6395,
      "řemes": 6396,
      "automaticky": 6397,
      "mezinárod": 6398,
      "předpoklá": 6399,
      "památ": 6400,
      "používání": 6401,
      "zabezpe": 6402,
      "úroveň": 6403,
      "nava": 6404,
      "minuty": 6405,
      "kontrola": 6406,
      "##tám": 6407,
      "##ben": 6408,
      "energetická": 6409,
      "##bů": 6410,
      "procesu": 6411,
      "dola": 6412,
      "##gá": 6413,
      "majitel": 6414,
      "studia": 6415,
      "řádu": 6416,
      "##blo": 6417,
      "papír": 6418,
      "##endu": 6419,
      "##čo": 6420,
      "koši": 6421,
      "odstav": 6422,
      "závaz": 6423,
      "maximálně": 6424,
      "potřebuje": 6425,
      "fond": 6426,
      "neroz": 6427,
      "##voji": 6428,
      "nahrá": 6429,
      "limit": 6430,
      "profesionální": 6431,
      "spojené": 6432,
      "jinde": 6433,
      "úvod": 6434,
      "výlety": 6435,
      "natá": 6436,
      "dobrodru": 6437,
      "##ujte": 6438,
      "##orem": 6439,
      "nejméně": 6440,
      "mnoh": 6441,
      "česká": 6442,
      "velkým": 6443,
      "přispě": 6444,
      "rodinný": 6445,
      "##out": 6446,
      "##žná": 6447,
      "zahrá": 6448,
      "##nala": 6449,
      "##jím": 6450,
      "##pp": 6451,
      "##vaný": 6452,
      "osa": 6453,
      "##vače": 6454,
      "jarní": 6455,
      "chlu": 6456,
      "potravin": 6457,
      "označení": 6458,
      "Ši": 6459,
      "##mání": 6460,
      "dvakrát": 6461,
      "brod": 6462,
      "bývá": 6463,
      "vet": 6464,
      "soustřed": 6465,
      "posta": 6466,
      "nejlevnější": 6467,
      "##pání": 6468,
      "##bel": 6469,
      "zip": 6470,
      "hoř": 6471,
      "Čá": 6472,
      "vltavou": 6473,
      "instalace": 6474,
      "##žením": 6475,
      "##obchod": 6476,
      "obr": 6477,
      "##lením": 6478,
      "takového": 6479,
      "##cher": 6480,
      "skvěle": 6481,
      "sams": 6482,
      "běžné": 6483,
      "nádraží": 6484,
      "stani": 6485,
      "stránce": 6486,
      "kontrolu": 6487,
      "brý": 6488,
      "žáci": 6489,
      "zapeč": 6490,
      "matem": 6491,
      "stad": 6492,
      "hovo": 6493,
      "čísla": 6494,
      "##íny": 6495,
      "jazyk": 6496,
      "rostlin": 6497,
      "dodavatel": 6498,
      "##tné": 6499,
      "##slava": 6500,
      "dodat": 6501,
      "procen": 6502,
      "##stev": 6503,
      "fondu": 6504,
      "eta": 6505,
      "##inec": 6506,
      "apartmán": 6507,
      "dort": 6508,
      "edit": 6509,
      "##zena": 6510,
      "míč": 6511,
      "schod": 6512,
      "##átko": 6513,
      "stěž": 6514,
      "vladi": 6515,
      "ruku": 6516,
      "1000": 6517,
      "uniká": 6518,
      "účelem": 6519,
      "tun": 6520,
      "chlap": 6521,
      "přišla": 6522,
      "liberec": 6523,
      "vypo": 6524,
      "##entu": 6525,
      "hory": 6526,
      "čištění": 6527,
      "unie": 6528,
      "silnice": 6529,
      "pit": 6530,
      "vámi": 6531,
      "papri": 6532,
      "##nicích": 6533,
      "##strojů": 6534,
      "jím": 6535,
      "krev": 6536,
      "##soby": 6537,
      "##doby": 6538,
      "jakmile": 6539,
      "##tala": 6540,
      "jména": 6541,
      "čtvrtek": 6542,
      "09": 6543,
      "195": 6544,
      "nějaká": 6545,
      "sezó": 6546,
      "vylep": 6547,
      "smo": 6548,
      "##měřice": 6549,
      "uply": 6550,
      "úlo": 6551,
      "hř": 6552,
      "kandidá": 6553,
      "potřebné": 6554,
      "##sové": 6555,
      "veřejnosti": 6556,
      "přestože": 6557,
      "domácími": 6558,
      "modely": 6559,
      "musela": 6560,
      "literatura": 6561,
      "63": 6562,
      "##cip": 6563,
      "malo": 6564,
      "všechna": 6565,
      "zaslou": 6566,
      "poně": 6567,
      "##knout": 6568,
      "jindři": 6569,
      "##nální": 6570,
      "šťast": 6571,
      "##odo": 6572,
      "id": 6573,
      "knihu": 6574,
      "##řských": 6575,
      "##dilo": 6576,
      "vyrábě": 6577,
      "vozidel": 6578,
      "##ův": 6579,
      "##stoj": 6580,
      "gre": 6581,
      "přís": 6582,
      "tvrdí": 6583,
      "krité": 6584,
      "kno": 6585,
      "chystá": 6586,
      "týká": 6587,
      "##toři": 6588,
      "služba": 6589,
      "##vez": 6590,
      "převz": 6591,
      "free": 6592,
      "studie": 6593,
      "série": 6594,
      "tvar": 6595,
      "sýrem": 6596,
      "sma": 6597,
      "netu": 6598,
      "##kládání": 6599,
      "kultury": 6600,
      "66": 6601,
      "dostali": 6602,
      "##slo": 6603,
      "oken": 6604,
      "hovězí": 6605,
      "google": 6606,
      "jednozna": 6607,
      "historii": 6608,
      "ledna": 6609,
      "průzku": 6610,
      "berou": 6611,
      "##lip": 6612,
      "tvůr": 6613,
      "hotelů": 6614,
      "přírody": 6615,
      "prince": 6616,
      "zachy": 6617,
      "sprch": 6618,
      "##skému": 6619,
      "volby": 6620,
      "pomazán": 6621,
      "slab": 6622,
      "##bert": 6623,
      "zaháj": 6624,
      "cukrov": 6625,
      "##fil": 6626,
      "68": 6627,
      "vědomí": 6628,
      "pravé": 6629,
      "metody": 6630,
      "klidu": 6631,
      "posil": 6632,
      "Či": 6633,
      "odstranění": 6634,
      "chvil": 6635,
      "bůh": 6636,
      "akadem": 6637,
      "##zních": 6638,
      "bazén": 6639,
      "afri": 6640,
      "##zený": 6641,
      "##pec": 6642,
      "zajiště": 6643,
      "##čena": 6644,
      "technologií": 6645,
      "programy": 6646,
      "dalšími": 6647,
      "radu": 6648,
      "##řitel": 6649,
      "kterému": 6650,
      "činností": 6651,
      "lis": 6652,
      "##čného": 6653,
      "vybírá": 6654,
      "##kální": 6655,
      "##čině": 6656,
      "nepod": 6657,
      "adresu": 6658,
      "##nický": 6659,
      "látek": 6660,
      "neměla": 6661,
      "dokona": 6662,
      "uživatelů": 6663,
      "odes": 6664,
      "modu": 6665,
      "víno": 6666,
      "planet": 6667,
      "letiště": 6668,
      "##islav": 6669,
      "##booku": 6670,
      "nejspí": 6671,
      "barvě": 6672,
      "integrov": 6673,
      "individuální": 6674,
      "##žer": 6675,
      "##kladů": 6676,
      "##menu": 6677,
      "sval": 6678,
      "##pevně": 6679,
      "zam": 6680,
      "trička": 6681,
      "ara": 6682,
      "venkovní": 6683,
      "##ovést": 6684,
      "jižní": 6685,
      "postel": 6686,
      "vzduch": 6687,
      "zvířat": 6688,
      "sad": 6689,
      "jejího": 6690,
      "nebudu": 6691,
      "zahraniční": 6692,
      "těsto": 6693,
      "dez": 6694,
      "zahradě": 6695,
      "zakázky": 6696,
      "mp": 6697,
      "varianty": 6698,
      "akumu": 6699,
      "filtr": 6700,
      "demon": 6701,
      "##lic": 6702,
      "##ale": 6703,
      "zdob": 6704,
      "vašich": 6705,
      "##ovic": 6706,
      "cestovní": 6707,
      "##lela": 6708,
      "využi": 6709,
      "kapu": 6710,
      "rozdí": 6711,
      "užívání": 6712,
      "novinky": 6713,
      "třech": 6714,
      "##ise": 6715,
      "zasa": 6716,
      "kterými": 6717,
      "související": 6718,
      "zavá": 6719,
      "##spek": 6720,
      "surov": 6721,
      "##lína": 6722,
      "termo": 6723,
      "##nějším": 6724,
      "databá": 6725,
      "##třeb": 6726,
      "stisk": 6727,
      "bílý": 6728,
      "věk": 6729,
      "hodí": 6730,
      "zpravod": 6731,
      "boleslav": 6732,
      "##čkách": 6733,
      "ukazuje": 6734,
      "komfor": 6735,
      "přeč": 6736,
      "přer": 6737,
      "bři": 6738,
      "získal": 6739,
      "##lili": 6740,
      "novým": 6741,
      "preven": 6742,
      "zapí": 6743,
      "ohledem": 6744,
      "nabídek": 6745,
      "kusy": 6746,
      "Šum": 6747,
      "##exist": 6748,
      "doty": 6749,
      "koupelny": 6750,
      "##pka": 6751,
      "postele": 6752,
      "hudba": 6753,
      "##lava": 6754,
      "##šice": 6755,
      "léká": 6756,
      "vzdálenosti": 6757,
      "krajský": 6758,
      "obor": 6759,
      "titul": 6760,
      "bezpečnosti": 6761,
      "jakým": 6762,
      "realizaci": 6763,
      "cestování": 6764,
      "tématu": 6765,
      "března": 6766,
      "šat": 6767,
      "kočky": 6768,
      "blá": 6769,
      "Úřad": 6770,
      "##chodem": 6771,
      "##zou": 6772,
      "chro": 6773,
      "stres": 6774,
      "vary": 6775,
      "albu": 6776,
      "dobrovol": 6777,
      "jídla": 6778,
      "##stky": 6779,
      "nejmenší": 6780,
      "##kované": 6781,
      "dov": 6782,
      "##rátu": 6783,
      "marie": 6784,
      "ohodno": 6785,
      "veřejných": 6786,
      "mladí": 6787,
      "chle": 6788,
      "##leně": 6789,
      "##komu": 6790,
      "pohádky": 6791,
      "email": 6792,
      "nejnově": 6793,
      "hodnotu": 6794,
      "cla": 6795,
      "nejed": 6796,
      "193": 6797,
      "pohla": 6798,
      "vyhov": 6799,
      "výboru": 6800,
      "pravo": 6801,
      "lesk": 6802,
      "robo": 6803,
      "léči": 6804,
      "pěkné": 6805,
      "em": 6806,
      "hosté": 6807,
      "mari": 6808,
      "smrt": 6809,
      "otec": 6810,
      "redu": 6811,
      "##padlo": 6812,
      "sledovat": 6813,
      "marketing": 6814,
      "74": 6815,
      "##itá": 6816,
      "pěkný": 6817,
      "tudí": 6818,
      "all": 6819,
      "povolení": 6820,
      "gala": 6821,
      "banky": 6822,
      "naštěstí": 6823,
      "zakon": 6824,
      "hej": 6825,
      "nedoká": 6826,
      "ruko": 6827,
      "##letý": 6828,
      "mladší": 6829,
      "pochopi": 6830,
      "abs": 6831,
      "##cii": 6832,
      "regionu": 6833,
      "##sala": 6834,
      "vaření": 6835,
      "##teru": 6836,
      "zelené": 6837,
      "##něných": 6838,
      "zpátky": 6839,
      "všeho": 6840,
      "##rovnat": 6841,
      "cou": 6842,
      "##šu": 6843,
      "podi": 6844,
      "##ráty": 6845,
      "02": 6846,
      "přístroje": 6847,
      "##dám": 6848,
      "ovoc": 6849,
      "##žný": 6850,
      "##mec": 6851,
      "těles": 6852,
      "ir": 6853,
      "vystoupení": 6854,
      "napi": 6855,
      "zajišťuje": 6856,
      "samsung": 6857,
      "gri": 6858,
      "neú": 6859,
      "obyčej": 6860,
      "##ance": 6861,
      "příležitost": 6862,
      "##dace": 6863,
      "divadla": 6864,
      "##něním": 6865,
      "##gace": 6866,
      "formulá": 6867,
      "heureka": 6868,
      "zvyk": 6869,
      "přítel": 6870,
      "formě": 6871,
      "muzeum": 6872,
      "##álky": 6873,
      "##dov": 6874,
      "##lii": 6875,
      "projekty": 6876,
      "stává": 6877,
      "aplikaci": 6878,
      "paměť": 6879,
      "sun": 6880,
      "komerční": 6881,
      "bas": 6882,
      "spar": 6883,
      "kas": 6884,
      "fotek": 6885,
      "bob": 6886,
      "##mění": 6887,
      "##šovice": 6888,
      "akor": 6889,
      "mluvčí": 6890,
      "malých": 6891,
      "vlastnictví": 6892,
      "62": 6893,
      "novém": 6894,
      "celkově": 6895,
      "poskytování": 6896,
      "##voká": 6897,
      "##mene": 6898,
      "neexist": 6899,
      "##hování": 6900,
      "180": 6901,
      "současnosti": 6902,
      "nakup": 6903,
      "##ovaní": 6904,
      "průmysl": 6905,
      "##stin": 6906,
      "vidí": 6907,
      "přehrá": 6908,
      "##oth": 6909,
      "koho": 6910,
      "platit": 6911,
      "frý": 6912,
      "sněhu": 6913,
      "##kovy": 6914,
      "osu": 6915,
      "kame": 6916,
      "prodejní": 6917,
      "kotou": 6918,
      "kalendář": 6919,
      "mechani": 6920,
      "mladé": 6921,
      "jménem": 6922,
      "iv": 6923,
      "kombinaci": 6924,
      "##kost": 6925,
      "blan": 6926,
      "úro": 6927,
      "komplet": 6928,
      "odvá": 6929,
      "gól": 6930,
      "zámku": 6931,
      "úterý": 6932,
      "narozen": 6933,
      "zahájení": 6934,
      "výrobek": 6935,
      "##leté": 6936,
      "Čs": 6937,
      "##ujících": 6938,
      "prodejce": 6939,
      "čeho": 6940,
      "tudíž": 6941,
      "nemáte": 6942,
      "mírně": 6943,
      "dlouhá": 6944,
      "##číme": 6945,
      "ruky": 6946,
      "závěru": 6947,
      "stre": 6948,
      "##žených": 6949,
      "nejvíc": 6950,
      "zajistí": 6951,
      "labora": 6952,
      "mes": 6953,
      "příbra": 6954,
      "##líme": 6955,
      "##zeny": 6956,
      "chyb": 6957,
      "kartá": 6958,
      "paměti": 6959,
      "plu": 6960,
      "##aným": 6961,
      "##lému": 6962,
      "mrk": 6963,
      "investice": 6964,
      "teplota": 6965,
      "ali": 6966,
      "##něn": 6967,
      "vzhled": 6968,
      "zůstává": 6969,
      "kuchyni": 6970,
      "kontra": 6971,
      "refle": 6972,
      "příspěvky": 6973,
      "společné": 6974,
      "splá": 6975,
      "##cel": 6976,
      "pití": 6977,
      "nedostat": 6978,
      "nikde": 6979,
      "zaměstnání": 6980,
      "počátku": 6981,
      "vidím": 6982,
      "schval": 6983,
      "ohří": 6984,
      "odpor": 6985,
      "##nus": 6986,
      "věde": 6987,
      "níže": 6988,
      "finále": 6989,
      "přírodě": 6990,
      "ae": 6991,
      "žije": 6992,
      "němž": 6993,
      "nabíje": 6994,
      "provozní": 6995,
      "zbytek": 6996,
      "vyzna": 6997,
      "vánoce": 6998,
      "cor": 6999,
      "klasické": 7000,
      "takze": 7001,
      "vyv": 7002,
      "##razí": 7003,
      "hradiště": 7004,
      "itá": 7005,
      "tenhle": 7006,
      "72": 7007,
      "##kář": 7008,
      "##entaci": 7009,
      "flor": 7010,
      "revi": 7011,
      "tí": 7012,
      "dneš": 7013,
      "velikono": 7014,
      "dlouhodobě": 7015,
      "řidič": 7016,
      "konf": 7017,
      "lží": 7018,
      "system": 7019,
      "oran": 7020,
      "here": 7021,
      "dali": 7022,
      "vždyť": 7023,
      "krmi": 7024,
      "jaroslav": 7025,
      "bezd": 7026,
      "zvláště": 7027,
      "režim": 7028,
      "lásky": 7029,
      "modelu": 7030,
      "vysoký": 7031,
      "výjime": 7032,
      "vlo": 7033,
      "##stavě": 7034,
      "soukrom": 7035,
      "##tiv": 7036,
      "víte": 7037,
      "##zové": 7038,
      "návrat": 7039,
      "vle": 7040,
      "taj": 7041,
      "zvě": 7042,
      "rock": 7043,
      "barevné": 7044,
      "matka": 7045,
      "objeví": 7046,
      "ohledu": 7047,
      "provést": 7048,
      "pono": 7049,
      "##též": 7050,
      "účtu": 7051,
      "##nich": 7052,
      "Žď": 7053,
      "ministerstva": 7054,
      "jičín": 7055,
      "hráčů": 7056,
      "##hop": 7057,
      "cyk": 7058,
      "##lních": 7059,
      "prsten": 7060,
      "##har": 7061,
      "prohlášení": 7062,
      "zkontro": 7063,
      "##leno": 7064,
      "absolv": 7065,
      "nejbli": 7066,
      "stři": 7067,
      "##mout": 7068,
      "maď": 7069,
      "##vatelem": 7070,
      "budeš": 7071,
      "určité": 7072,
      "budoucí": 7073,
      "jediné": 7074,
      "vrátit": 7075,
      "##livý": 7076,
      "několikrát": 7077,
      "rychlosti": 7078,
      "červené": 7079,
      "objekti": 7080,
      "dokonal": 7081,
      "Čech": 7082,
      "aniž": 7083,
      "dlužní": 7084,
      "ný": 7085,
      "##lia": 7086,
      "zastoup": 7087,
      "vyprac": 7088,
      "##wn": 7089,
      "##iness": 7090,
      "hlavou": 7091,
      "účastníků": 7092,
      "nedávno": 7093,
      "koncem": 7094,
      "##řený": 7095,
      "Česku": 7096,
      "##smu": 7097,
      "témata": 7098,
      "##ovače": 7099,
      "##vních": 7100,
      "starost": 7101,
      "##žela": 7102,
      "galerie": 7103,
      "fajn": 7104,
      "sedí": 7105,
      "malou": 7106,
      "gro": 7107,
      "##pan": 7108,
      "##lejte": 7109,
      "nejčastěji": 7110,
      "##dně": 7111,
      "##hodě": 7112,
      "riziko": 7113,
      "zvíře": 7114,
      "šel": 7115,
      "##čany": 7116,
      "topení": 7117,
      "harmo": 7118,
      "takových": 7119,
      "kau": 7120,
      "začali": 7121,
      "dni": 7122,
      "##forma": 7123,
      "rozsah": 7124,
      "odě": 7125,
      "pomůže": 7126,
      "77": 7127,
      "zeleninou": 7128,
      "důsledku": 7129,
      "poradenství": 7130,
      "bodu": 7131,
      "##žnost": 7132,
      "volné": 7133,
      "komunikaci": 7134,
      "sledování": 7135,
      "ozdob": 7136,
      "98": 7137,
      "##lant": 7138,
      "tram": 7139,
      "kun": 7140,
      "##mel": 7141,
      "balíčku": 7142,
      "##tný": 7143,
      "##aky": 7144,
      "##latí": 7145,
      "##tes": 7146,
      "jede": 7147,
      "kombinace": 7148,
      "představit": 7149,
      "brzd": 7150,
      "nařízení": 7151,
      "dodavatele": 7152,
      "uspořá": 7153,
      "pohledá": 7154,
      "##ňa": 7155,
      "generace": 7156,
      "pleť": 7157,
      "zkra": 7158,
      "netradiční": 7159,
      "polovině": 7160,
      "dostatečně": 7161,
      "buch": 7162,
      "vidi": 7163,
      "výrobku": 7164,
      "podez": 7165,
      "udělal": 7166,
      "zah": 7167,
      "##tré": 7168,
      "sítí": 7169,
      "vyhrá": 7170,
      "##denní": 7171,
      "##matu": 7172,
      "napí": 7173,
      "úča": 7174,
      "cukr": 7175,
      "pomazánka": 7176,
      "put": 7177,
      "prodávající": 7178,
      "vašem": 7179,
      "léky": 7180,
      "skleně": 7181,
      "nou": 7182,
      "##lích": 7183,
      "##ovku": 7184,
      "chtít": 7185,
      "obý": 7186,
      "mistrovství": 7187,
      "##véd": 7188,
      "okno": 7189,
      "##nického": 7190,
      "zástupci": 7191,
      "odsou": 7192,
      "diagnosti": 7193,
      "##šný": 7194,
      "činí": 7195,
      "##lete": 7196,
      "kurzu": 7197,
      "##lůžkový": 7198,
      "nevz": 7199,
      "dani": 7200,
      "londý": 7201,
      "překá": 7202,
      "nábytku": 7203,
      "zahrad": 7204,
      "mali": 7205,
      "##ovacího": 7206,
      "##au": 7207,
      "zemích": 7208,
      "shro": 7209,
      "pyt": 7210,
      "vykoná": 7211,
      "chladi": 7212,
      "listy": 7213,
      "gi": 7214,
      "magist": 7215,
      "cyklo": 7216,
      "zpí": 7217,
      "ods": 7218,
      "přenos": 7219,
      "##jíme": 7220,
      "kara": 7221,
      "konektor": 7222,
      "Úč": 7223,
      "přet": 7224,
      "přístroj": 7225,
      "##dol": 7226,
      "silnici": 7227,
      "##noj": 7228,
      "##dách": 7229,
      "povrchu": 7230,
      "##hová": 7231,
      "místnost": 7232,
      "##sic": 7233,
      "horo": 7234,
      "micro": 7235,
      "celkový": 7236,
      "pěst": 7237,
      "sezná": 7238,
      "jád": 7239,
      "pivo": 7240,
      "rostliny": 7241,
      "##ůležit": 7242,
      "rozsá": 7243,
      "##ňky": 7244,
      "úse": 7245,
      "oku": 7246,
      "programů": 7247,
      "pohodě": 7248,
      "vedou": 7249,
      "rovnou": 7250,
      "členy": 7251,
      "pořadí": 7252,
      "diplo": 7253,
      "##český": 7254,
      "koord": 7255,
      "záme": 7256,
      "##bová": 7257,
      "Žá": 7258,
      "zm": 7259,
      "##ill": 7260,
      "certifi": 7261,
      "poplatek": 7262,
      "mit": 7263,
      "##stický": 7264,
      "oslov": 7265,
      "gb": 7266,
      "##niku": 7267,
      "vůně": 7268,
      "kw": 7269,
      "##tování": 7270,
      "malí": 7271,
      "zlepšení": 7272,
      "osmi": 7273,
      "plno": 7274,
      "##sion": 7275,
      "řeší": 7276,
      "úprava": 7277,
      "##ářské": 7278,
      "rozšíření": 7279,
      "půjde": 7280,
      "formy": 7281,
      "##fy": 7282,
      "videí": 7283,
      "##avě": 7284,
      "narození": 7285,
      "neznám": 7286,
      "křesťan": 7287,
      "73": 7288,
      "nepříjem": 7289,
      "projed": 7290,
      "##struktu": 7291,
      "Život": 7292,
      "škoda": 7293,
      "chat": 7294,
      "operační": 7295,
      "##zeno": 7296,
      "wal": 7297,
      "##átkem": 7298,
      "##ickými": 7299,
      "rodičů": 7300,
      "##oden": 7301,
      "nakrá": 7302,
      "vtip": 7303,
      "vyda": 7304,
      "skvělý": 7305,
      "intera": 7306,
      "osvěd": 7307,
      "maje": 7308,
      "kontroly": 7309,
      "home": 7310,
      "business": 7311,
      "kdysi": 7312,
      "kosmetika": 7313,
      "hráče": 7314,
      "přeru": 7315,
      "tren": 7316,
      "vytvoření": 7317,
      "lyžařské": 7318,
      "výstava": 7319,
      "koní": 7320,
      "##nily": 7321,
      "##nejsi": 7322,
      "zvět": 7323,
      "setká": 7324,
      "smart": 7325,
      "koncer": 7326,
      "dých": 7327,
      "kř": 7328,
      "převážně": 7329,
      "##zná": 7330,
      "##raž": 7331,
      "##odu": 7332,
      "role": 7333,
      "##řiz": 7334,
      "mad": 7335,
      "zmrz": 7336,
      "wa": 7337,
      "uzaví": 7338,
      "saz": 7339,
      "##morav": 7340,
      "realiz": 7341,
      "doporučuje": 7342,
      "předtím": 7343,
      "pořádně": 7344,
      "včas": 7345,
      "pilo": 7346,
      "##jením": 7347,
      "přestup": 7348,
      "režis": 7349,
      "trenér": 7350,
      "dlaž": 7351,
      "zate": 7352,
      "byst": 7353,
      "můžeš": 7354,
      "chru": 7355,
      "rož": 7356,
      "kompon": 7357,
      "úz": 7358,
      "ministr": 7359,
      "objednávky": 7360,
      "03": 7361,
      "##ají": 7362,
      "##dar": 7363,
      "mc": 7364,
      "probě": 7365,
      "extrém": 7366,
      "maďar": 7367,
      "změn": 7368,
      "zvuk": 7369,
      "lidmi": 7370,
      "čín": 7371,
      "žáky": 7372,
      "dobí": 7373,
      "fra": 7374,
      "kancelář": 7375,
      "nud": 7376,
      "cizí": 7377,
      "##cházející": 7378,
      "nahoru": 7379,
      "všemi": 7380,
      "manažer": 7381,
      "##telných": 7382,
      "##ser": 7383,
      "většinu": 7384,
      "past": 7385,
      "kartu": 7386,
      "výhodou": 7387,
      "zkušeností": 7388,
      "podnik": 7389,
      "iii": 7390,
      "##tační": 7391,
      "mŠ": 7392,
      "směs": 7393,
      "přichází": 7394,
      "mapa": 7395,
      "pořada": 7396,
      "bere": 7397,
      "##ceti": 7398,
      "holči": 7399,
      "deska": 7400,
      "zahrnuje": 7401,
      "platby": 7402,
      "těstoviny": 7403,
      "son": 7404,
      "##razu": 7405,
      "brat": 7406,
      "podprs": 7407,
      "zkrát": 7408,
      "##zt": 7409,
      "##áků": 7410,
      "kontakty": 7411,
      "legis": 7412,
      "fanouš": 7413,
      "##vie": 7414,
      "vyjádření": 7415,
      "##áty": 7416,
      "elektř": 7417,
      "nemohl": 7418,
      "##stoupil": 7419,
      "proh": 7420,
      "politiky": 7421,
      "ozná": 7422,
      "dvoji": 7423,
      "časem": 7424,
      "##top": 7425,
      "necha": 7426,
      "provádí": 7427,
      "kapacita": 7428,
      "zabý": 7429,
      "výdej": 7430,
      "##mbu": 7431,
      "zjiště": 7432,
      "##pění": 7433,
      "nemys": 7434,
      "mládež": 7435,
      "vlastním": 7436,
      "snadné": 7437,
      "##nkou": 7438,
      "##rant": 7439,
      "určení": 7440,
      "ložnice": 7441,
      "##fikaci": 7442,
      "##nci": 7443,
      "hledám": 7444,
      "##vují": 7445,
      "značka": 7446,
      "poskytnutí": 7447,
      "zátě": 7448,
      "potre": 7449,
      "pul": 7450,
      "05": 7451,
      "mobi": 7452,
      "dynami": 7453,
      "golf": 7454,
      "spat": 7455,
      "maxi": 7456,
      "##kru": 7457,
      "týkající": 7458,
      "##čnosti": 7459,
      "kláš": 7460,
      "turi": 7461,
      "rychlý": 7462,
      "nechy": 7463,
      "##telství": 7464,
      "bateri": 7465,
      "názoru": 7466,
      "oblíbených": 7467,
      "vlasů": 7468,
      "kned": 7469,
      "zasedání": 7470,
      "##soci": 7471,
      "stop": 7472,
      "##perky": 7473,
      "inteli": 7474,
      "účinky": 7475,
      "##cin": 7476,
      "přijíma": 7477,
      "shod": 7478,
      "konkrétně": 7479,
      "zákonem": 7480,
      "zajíma": 7481,
      "hlavního": 7482,
      "##óza": 7483,
      "##pice": 7484,
      "částečně": 7485,
      "vrací": 7486,
      "slep": 7487,
      "vývoje": 7488,
      "účely": 7489,
      "předání": 7490,
      "žít": 7491,
      "zjistit": 7492,
      "správce": 7493,
      "spotřebiče": 7494,
      "číst": 7495,
      "držák": 7496,
      "Čss": 7497,
      "lek": 7498,
      "##řadit": 7499,
      "wo": 7500,
      "zoo": 7501,
      "krása": 7502,
      "prohlédnout": 7503,
      "##kazují": 7504,
      "##šná": 7505,
      "respekt": 7506,
      "##sal": 7507,
      "kosti": 7508,
      "sleva": 7509,
      "předmětem": 7510,
      "lat": 7511,
      "beton": 7512,
      "nechal": 7513,
      "spraved": 7514,
      "podpis": 7515,
      "domova": 7516,
      "lesy": 7517,
      "nejdůležit": 7518,
      "##ovaném": 7519,
      "začátek": 7520,
      "čemu": 7521,
      "##votní": 7522,
      "pomůcky": 7523,
      "doporučené": 7524,
      "zelená": 7525,
      "elegantní": 7526,
      "dědi": 7527,
      "vyjad": 7528,
      "zdravotnictví": 7529,
      "koj": 7530,
      "nikoliv": 7531,
      "zásadní": 7532,
      "dřív": 7533,
      "hodnot": 7534,
      "vzít": 7535,
      "ryby": 7536,
      "##ózy": 7537,
      "inzer": 7538,
      "hezky": 7539,
      "zaměstnanci": 7540,
      "neuvě": 7541,
      "bre": 7542,
      "nejnovější": 7543,
      "figu": 7544,
      "hlav": 7545,
      "nalé": 7546,
      "jes": 7547,
      "nejdůležitější": 7548,
      "akorát": 7549,
      "ture": 7550,
      "##latit": 7551,
      "celková": 7552,
      "##íte": 7553,
      "##čte": 7554,
      "pil": 7555,
      "nastavit": 7556,
      "člán": 7557,
      "círk": 7558,
      "našel": 7559,
      "neco": 7560,
      "pracovníků": 7561,
      "záznam": 7562,
      "spon": 7563,
      "zprostřed": 7564,
      "hydro": 7565,
      "vystup": 7566,
      "veřejnost": 7567,
      "identi": 7568,
      "dopis": 7569,
      "souhlas": 7570,
      "metra": 7571,
      "uzavření": 7572,
      "zkoušky": 7573,
      "##láš": 7574,
      "léto": 7575,
      "ská": 7576,
      "průměru": 7577,
      "##sků": 7578,
      "elektronické": 7579,
      "mono": 7580,
      "exoti": 7581,
      "nebezpečí": 7582,
      "překvapi": 7583,
      "##vější": 7584,
      "prosince": 7585,
      "nebe": 7586,
      "hydra": 7587,
      "revolu": 7588,
      "##laš": 7589,
      "##lub": 7590,
      "postavení": 7591,
      "##žena": 7592,
      "##álů": 7593,
      "zás": 7594,
      "fial": 7595,
      "létě": 7596,
      "těsně": 7597,
      "##ženo": 7598,
      "##padla": 7599,
      "kem": 7600,
      "zhlédnutí": 7601,
      "nast": 7602,
      "studium": 7603,
      "wc": 7604,
      "souboru": 7605,
      "rem": 7606,
      "naru": 7607,
      "bys": 7608,
      "##tva": 7609,
      "dokumenty": 7610,
      "dam": 7611,
      "smlouvě": 7612,
      "trvá": 7613,
      "##nora": 7614,
      "přípravy": 7615,
      "týče": 7616,
      "kaz": 7617,
      "##chý": 7618,
      "výstavy": 7619,
      "vypro": 7620,
      "nezná": 7621,
      "upozornění": 7622,
      "lesa": 7623,
      "alo": 7624,
      "rozhovor": 7625,
      "##alování": 7626,
      "zabývá": 7627,
      "hudeb": 7628,
      "##vené": 7629,
      "prochá": 7630,
      "školení": 7631,
      "##nácti": 7632,
      "přeji": 7633,
      "chodit": 7634,
      "dovolené": 7635,
      "školu": 7636,
      "inžený": 7637,
      "standardní": 7638,
      "pád": 7639,
      "##cemi": 7640,
      "zprávu": 7641,
      "rodinu": 7642,
      "##rke": 7643,
      "sportu": 7644,
      "##kor": 7645,
      "jednak": 7646,
      "nese": 7647,
      "vyvá": 7648,
      "františek": 7649,
      "##10": 7650,
      "juni": 7651,
      "respek": 7652,
      "oprava": 7653,
      "výhody": 7654,
      "podporuje": 7655,
      "fron": 7656,
      "dopravu": 7657,
      "domácnosti": 7658,
      "eti": 7659,
      "##hovat": 7660,
      "hotovo": 7661,
      "##ceno": 7662,
      "67": 7663,
      "systémů": 7664,
      "##čci": 7665,
      "##mum": 7666,
      "zvlášť": 7667,
      "druhu": 7668,
      "##řte": 7669,
      "jeze": 7670,
      "podmínkách": 7671,
      "chyby": 7672,
      "dlouhou": 7673,
      "dohody": 7674,
      "dž": 7675,
      "příležitosti": 7676,
      "roy": 7677,
      "svátek": 7678,
      "závodu": 7679,
      "##ktory": 7680,
      "nevim": 7681,
      "obchody": 7682,
      "hodnotí": 7683,
      "mužů": 7684,
      "lepi": 7685,
      "##él": 7686,
      "##stem": 7687,
      "podlahy": 7688,
      "jakub": 7689,
      "radio": 7690,
      "organis": 7691,
      "##ceni": 7692,
      "##menty": 7693,
      "##vený": 7694,
      "chů": 7695,
      "anto": 7696,
      "##vině": 7697,
      "seh": 7698,
      "dámská": 7699,
      "lidské": 7700,
      "suk": 7701,
      "protoko": 7702,
      "krátké": 7703,
      "ekolog": 7704,
      "lov": 7705,
      "vil": 7706,
      "zajímá": 7707,
      "##vaci": 7708,
      "logo": 7709,
      "##kosti": 7710,
      "syna": 7711,
      "neměli": 7712,
      "dalo": 7713,
      "konstat": 7714,
      "##romady": 7715,
      "starosta": 7716,
      "##líně": 7717,
      "začalo": 7718,
      "terez": 7719,
      "pacientů": 7720,
      "úsmě": 7721,
      "##poví": 7722,
      "zabezpečení": 7723,
      "informaci": 7724,
      "##rovi": 7725,
      "dohromady": 7726,
      "obaly": 7727,
      "kněž": 7728,
      "##ney": 7729,
      "třídě": 7730,
      "vína": 7731,
      "luká": 7732,
      "brýle": 7733,
      "termínu": 7734,
      "zodpověd": 7735,
      "podniku": 7736,
      "pracoviště": 7737,
      "doručení": 7738,
      "společenství": 7739,
      "prezidenta": 7740,
      "sedmi": 7741,
      "vzdálenost": 7742,
      "každoden": 7743,
      "imu": 7744,
      "bílém": 7745,
      "bot": 7746,
      "##livost": 7747,
      "sl": 7748,
      "rychlá": 7749,
      "praktické": 7750,
      "objektů": 7751,
      "dej": 7752,
      "úspěch": 7753,
      "strojů": 7754,
      "těs": 7755,
      "týdnů": 7756,
      "obrázku": 7757,
      "zaved": 7758,
      "##mina": 7759,
      "bezdrát": 7760,
      "stojan": 7761,
      "oliv": 7762,
      "##vz": 7763,
      "finančních": 7764,
      "noviná": 7765,
      "nejpoz": 7766,
      "2001": 7767,
      "předpokládá": 7768,
      "hlava": 7769,
      "##plej": 7770,
      "##ano": 7771,
      "##žnosti": 7772,
      "tabulky": 7773,
      "jam": 7774,
      "2003": 7775,
      "podívejte": 7776,
      "##techni": 7777,
      "přípravky": 7778,
      "pochyb": 7779,
      "dáv": 7780,
      "nástroj": 7781,
      "předpisy": 7782,
      "##zením": 7783,
      "krku": 7784,
      "vozu": 7785,
      "##nuto": 7786,
      "##rus": 7787,
      "prově": 7788,
      "kavár": 7789,
      "bub": 7790,
      "dozvě": 7791,
      "organizací": 7792,
      "schopnosti": 7793,
      "srpna": 7794,
      "stránek": 7795,
      "##něna": 7796,
      "album": 7797,
      "ostravě": 7798,
      "angličtině": 7799,
      "známé": 7800,
      "autora": 7801,
      "komunit": 7802,
      "filtry": 7803,
      "výzkumu": 7804,
      "levné": 7805,
      "psychi": 7806,
      "soutěži": 7807,
      "firmě": 7808,
      "miliar": 7809,
      "dávno": 7810,
      "##zie": 7811,
      "výsledkem": 7812,
      "propoj": 7813,
      "zápasu": 7814,
      "pohov": 7815,
      "nemůžu": 7816,
      "zatí": 7817,
      "statu": 7818,
      "zhotovitel": 7819,
      "umy": 7820,
      "odehrá": 7821,
      "mír": 7822,
      "oč": 7823,
      "pozemek": 7824,
      "omy": 7825,
      "##násob": 7826,
      "pará": 7827,
      "##vidla": 7828,
      "matrace": 7829,
      "teku": 7830,
      "##žitek": 7831,
      "##bývá": 7832,
      "##instal": 7833,
      "smluv": 7834,
      "tepla": 7835,
      "spad": 7836,
      "Žďár": 7837,
      "kategorií": 7838,
      "hobby": 7839,
      "Českosloven": 7840,
      "parkovi": 7841,
      "lži": 7842,
      "financování": 7843,
      "##šena": 7844,
      "stravování": 7845,
      "tw": 7846,
      "hudby": 7847,
      "zaměstnance": 7848,
      "kali": 7849,
      "displej": 7850,
      "kyt": 7851,
      "zaš": 7852,
      "treba": 7853,
      "Ší": 7854,
      "studenti": 7855,
      "##výcar": 7856,
      "##váním": 7857,
      "charakter": 7858,
      "havlí": 7859,
      "ukaza": 7860,
      "Žena": 7861,
      "##nii": 7862,
      "##jeli": 7863,
      "sest": 7864,
      "##mové": 7865,
      "kamarád": 7866,
      "gum": 7867,
      "úprav": 7868,
      "##čtí": 7869,
      "##ction": 7870,
      "##ránit": 7871,
      "power": 7872,
      "posledním": 7873,
      "##rad": 7874,
      "dovolenou": 7875,
      "výh": 7876,
      "mechan": 7877,
      "využit": 7878,
      "byť": 7879,
      "náuš": 7880,
      "##něný": 7881,
      "černý": 7882,
      "##cioná": 7883,
      "vozy": 7884,
      "stanovení": 7885,
      "vodov": 7886,
      "důraz": 7887,
      "pozdrav": 7888,
      "##zeni": 7889,
      "soustav": 7890,
      "nelí": 7891,
      "poznámka": 7892,
      "##jednodu": 7893,
      "úhra": 7894,
      "odstí": 7895,
      "190": 7896,
      "shr": 7897,
      "vedením": 7898,
      "##cený": 7899,
      "zabí": 7900,
      "kva": 7901,
      "papíru": 7902,
      "jezdí": 7903,
      "andro": 7904,
      "navá": 7905,
      "jednat": 7906,
      "##čerst": 7907,
      "panenky": 7908,
      "##hý": 7909,
      "volba": 7910,
      "##ovně": 7911,
      "poto": 7912,
      "##růz": 7913,
      "novin": 7914,
      "##ley": 7915,
      "apple": 7916,
      "semi": 7917,
      "zavo": 7918,
      "zranění": 7919,
      "sady": 7920,
      "službu": 7921,
      "sme": 7922,
      "managem": 7923,
      "##cke": 7924,
      "2002": 7925,
      "jízdy": 7926,
      "##dice": 7927,
      "strašně": 7928,
      "síla": 7929,
      "matur": 7930,
      "věřím": 7931,
      "##pek": 7932,
      "displeje": 7933,
      "správa": 7934,
      "osobu": 7935,
      "konzul": 7936,
      "##řady": 7937,
      "srde": 7938,
      "drobné": 7939,
      "občanů": 7940,
      "##chou": 7941,
      "nastavitel": 7942,
      "baby": 7943,
      "komí": 7944,
      "##lního": 7945,
      "konání": 7946,
      "prezentace": 7947,
      "dojít": 7948,
      "krátce": 7949,
      "##ini": 7950,
      "##telnost": 7951,
      "##kát": 7952,
      "parf": 7953,
      "##před": 7954,
      "##šela": 7955,
      "inde": 7956,
      "klíče": 7957,
      "záruka": 7958,
      "76": 7959,
      "##vím": 7960,
      "přidáme": 7961,
      "##rního": 7962,
      "dnem": 7963,
      "##burg": 7964,
      "##smus": 7965,
      "##čká": 7966,
      "znalost": 7967,
      "rodině": 7968,
      "zou": 7969,
      "miminko": 7970,
      "##bce": 7971,
      "závislosti": 7972,
      "##lák": 7973,
      "##dor": 7974,
      "rukavice": 7975,
      "##grafie": 7976,
      "samostatně": 7977,
      "případné": 7978,
      "izra": 7979,
      "fitness": 7980,
      "kouzel": 7981,
      "žada": 7982,
      "Čechách": 7983,
      "spi": 7984,
      "pláž": 7985,
      "vést": 7986,
      "tor": 7987,
      "sekund": 7988,
      "nárok": 7989,
      "círke": 7990,
      "obývací": 7991,
      "sbě": 7992,
      "jazyka": 7993,
      "působení": 7994,
      "dostatek": 7995,
      "dojem": 7996,
      "nejpozději": 7997,
      "muzea": 7998,
      "vrátí": 7999,
      "##hala": 8000,
      "##telnou": 8001,
      "##těte": 8002,
      "04": 8003,
      "jednotka": 8004,
      "rozlišení": 8005,
      "nápoje": 8006,
      "otv": 8007,
      "##itou": 8008,
      "důkaz": 8009,
      "uprostřed": 8010,
      "Úvod": 8011,
      "hromad": 8012,
      "hodinách": 8013,
      "110": 8014,
      "ostatním": 8015,
      "##ith": 8016,
      "firmu": 8017,
      "úpravu": 8018,
      "propo": 8019,
      "miroslav": 8020,
      "Ústav": 8021,
      "##rurg": 8022,
      "pacient": 8023,
      "politické": 8024,
      "postý": 8025,
      "##koval": 8026,
      "700": 8027,
      "vznika": 8028,
      "nejspíš": 8029,
      "##řeno": 8030,
      "ful": 8031,
      "přípravu": 8032,
      "rozdě": 8033,
      "##tná": 8034,
      "účetní": 8035,
      "vejce": 8036,
      "vino": 8037,
      "gymná": 8038,
      "##ýt": 8039,
      "lho": 8040,
      "software": 8041,
      "akční": 8042,
      "##žou": 8043,
      "##hový": 8044,
      "předměty": 8045,
      "věnovat": 8046,
      "zan": 8047,
      "Česko": 8048,
      "zimě": 8049,
      "vou": 8050,
      "schrá": 8051,
      "dostateč": 8052,
      "##šenou": 8053,
      "lez": 8054,
      "záchra": 8055,
      "zří": 8056,
      "občerst": 8057,
      "##řená": 8058,
      "##ora": 8059,
      "gymnázi": 8060,
      "dotazy": 8061,
      "gale": 8062,
      "lékaře": 8063,
      "flo": 8064,
      "dělají": 8065,
      "krve": 8066,
      "dluhy": 8067,
      "obvině": 8068,
      "zdůraz": 8069,
      "vyplývá": 8070,
      "##ša": 8071,
      "festivalu": 8072,
      "nejbližší": 8073,
      "##rování": 8074,
      "##zující": 8075,
      "##žíme": 8076,
      "pracovníci": 8077,
      "nevý": 8078,
      "vizu": 8079,
      "chvíle": 8080,
      "státy": 8081,
      "vic": 8082,
      "oceli": 8083,
      "##vaz": 8084,
      "určen": 8085,
      "mluvit": 8086,
      "##vního": 8087,
      "učení": 8088,
      "školství": 8089,
      "tlaku": 8090,
      "##nÍ": 8091,
      "umožní": 8092,
      "přesu": 8093,
      "šroub": 8094,
      "zemědělství": 8095,
      "##cháme": 8096,
      "jet": 8097,
      "silné": 8098,
      "##itě": 8099,
      "chybu": 8100,
      "##čným": 8101,
      "turnaj": 8102,
      "nepat": 8103,
      "kultura": 8104,
      "##tovat": 8105,
      "140": 8106,
      "eur": 8107,
      "##hodnotil": 8108,
      "faktu": 8109,
      "##mie": 8110,
      "stromy": 8111,
      "nejhor": 8112,
      "##enu": 8113,
      "##vilo": 8114,
      "pota": 8115,
      "vas": 8116,
      "jinými": 8117,
      "infrastruktu": 8118,
      "vyzkoušet": 8119,
      "mléko": 8120,
      "majetek": 8121,
      "vu": 8122,
      "února": 8123,
      "##tický": 8124,
      "##zených": 8125,
      "nále": 8126,
      "##dové": 8127,
      "zje": 8128,
      "dobro": 8129,
      "strako": 8130,
      "pokus": 8131,
      "##kry": 8132,
      "členové": 8133,
      "hospodaření": 8134,
      "německu": 8135,
      "##žít": 8136,
      "##rií": 8137,
      "zkla": 8138,
      "kdybych": 8139,
      "pronájmu": 8140,
      "jízda": 8141,
      "##leli": 8142,
      "baví": 8143,
      "vlád": 8144,
      "poradit": 8145,
      "zázna": 8146,
      "zkrátka": 8147,
      "vznikla": 8148,
      "provádění": 8149,
      "červená": 8150,
      "konference": 8151,
      "##čům": 8152,
      "aqu": 8153,
      "osvo": 8154,
      "radi": 8155,
      "průvodce": 8156,
      "##čítá": 8157,
      "sluneční": 8158,
      "bavlně": 8159,
      "kupní": 8160,
      "##šeli": 8161,
      "náhodou": 8162,
      "prvků": 8163,
      "móda": 8164,
      "rychnov": 8165,
      "centrální": 8166,
      "popel": 8167,
      "studentů": 8168,
      "lem": 8169,
      "##ang": 8170,
      "##ens": 8171,
      "koncep": 8172,
      "opě": 8173,
      "08": 8174,
      "##řes": 8175,
      "##pil": 8176,
      "71": 8177,
      "místních": 8178,
      "čímž": 8179,
      "pokoji": 8180,
      "příloha": 8181,
      "##bek": 8182,
      "soukromí": 8183,
      "ocenění": 8184,
      "un": 8185,
      "oblíbeným": 8186,
      "##atické": 8187,
      "zálož": 8188,
      "faktor": 8189,
      "zeman": 8190,
      "podél": 8191,
      "sběr": 8192,
      "rost": 8193,
      "porušení": 8194,
      "hů": 8195,
      "masary": 8196,
      "audio": 8197,
      "půjčky": 8198,
      "cam": 8199,
      "##até": 8200,
      "potřebujete": 8201,
      "##ratu": 8202,
      "operace": 8203,
      "vít": 8204,
      "dcera": 8205,
      "zkuste": 8206,
      "##rám": 8207,
      "vají": 8208,
      "motocy": 8209,
      "domácích": 8210,
      "průmyslu": 8211,
      "##ach": 8212,
      "##šili": 8213,
      "retro": 8214,
      "##bet": 8215,
      "##šly": 8216,
      "instal": 8217,
      "##inám": 8218,
      "##ročně": 8219,
      "signá": 8220,
      "##ela": 8221,
      "Člově": 8222,
      "160": 8223,
      "července": 8224,
      "nádob": 8225,
      "těšit": 8226,
      "přihlásit": 8227,
      "oka": 8228,
      "##ktů": 8229,
      "přijetí": 8230,
      "##nás": 8231,
      "vlastních": 8232,
      "prevence": 8233,
      "gel": 8234,
      "loso": 8235,
      "zbyt": 8236,
      "##kola": 8237,
      "znalosti": 8238,
      "společenské": 8239,
      "milan": 8240,
      "##cni": 8241,
      "bundy": 8242,
      "##lena": 8243,
      "americké": 8244,
      "##stvu": 8245,
      "výsky": 8246,
      "aktuálně": 8247,
      "telefony": 8248,
      "lát": 8249,
      "samotné": 8250,
      "ig": 8251,
      "sněmov": 8252,
      "rekreační": 8253,
      "##bro": 8254,
      "##gal": 8255,
      "skříně": 8256,
      "##áteční": 8257,
      "##váte": 8258,
      "##kaž": 8259,
      "##meček": 8260,
      "podeps": 8261,
      "věří": 8262,
      "inici": 8263,
      "##čném": 8264,
      "uložení": 8265,
      "##zená": 8266,
      "minutě": 8267,
      "jejíž": 8268,
      "alex": 8269,
      "chomu": 8270,
      "06": 8271,
      "podzimní": 8272,
      "##ováni": 8273,
      "mladý": 8274,
      "systémem": 8275,
      "promí": 8276,
      "doslova": 8277,
      "restauraci": 8278,
      "hrozí": 8279,
      "stejnou": 8280,
      "stěny": 8281,
      "dlouhý": 8282,
      "líbi": 8283,
      "##uli": 8284,
      "kolekce": 8285,
      "zjistí": 8286,
      "druhým": 8287,
      "dvaná": 8288,
      "hloubka": 8289,
      "07": 8290,
      "tabulka": 8291,
      "problemati": 8292,
      "uh": 8293,
      "psát": 8294,
      "spojených": 8295,
      "##eněk": 8296,
      "chra": 8297,
      "##čený": 8298,
      "metro": 8299,
      "lékaři": 8300,
      "zastupitelstva": 8301,
      "pivov": 8302,
      "příbram": 8303,
      "potru": 8304,
      "hnutí": 8305,
      "svit": 8306,
      "dodnes": 8307,
      "##řeny": 8308,
      "dosáhnout": 8309,
      "zní": 8310,
      "třebí": 8311,
      "##hují": 8312,
      "dají": 8313,
      "schopen": 8314,
      "úkol": 8315,
      "výměna": 8316,
      "88": 8317,
      "##vitu": 8318,
      "cro": 8319,
      "84": 8320,
      "slevy": 8321,
      "##ťte": 8322,
      "slovy": 8323,
      "kapsy": 8324,
      "##řský": 8325,
      "##zn": 8326,
      "Čssd": 8327,
      "ki": 8328,
      "lípa": 8329,
      "států": 8330,
      "zrušit": 8331,
      "##tají": 8332,
      "časopis": 8333,
      "přednost": 8334,
      "##vaných": 8335,
      "plát": 8336,
      "vytváří": 8337,
      "koš": 8338,
      "objekty": 8339,
      "tajemství": 8340,
      "parkování": 8341,
      "zdr": 8342,
      "zpravidla": 8343,
      "##are": 8344,
      "problému": 8345,
      "sílu": 8346,
      "prsa": 8347,
      "provede": 8348,
      "né": 8349,
      "velkého": 8350,
      "existují": 8351,
      "##lených": 8352,
      "nadě": 8353,
      "##seda": 8354,
      "zpravodaj": 8355,
      "váleč": 8356,
      "severní": 8357,
      "kousky": 8358,
      "##ll": 8359,
      "##50": 8360,
      "meziří": 8361,
      "##gres": 8362,
      "poněkud": 8363,
      "požád": 8364,
      "míry": 8365,
      "sili": 8366,
      "zkus": 8367,
      "vyd": 8368,
      "jednotek": 8369,
      "##ovani": 8370,
      "chor": 8371,
      "malého": 8372,
      "youtu": 8373,
      "císa": 8374,
      "bás": 8375,
      "hlavě": 8376,
      "způ": 8377,
      "royal": 8378,
      "tlou": 8379,
      "pp": 8380,
      "zuby": 8381,
      "černo": 8382,
      "##žím": 8383,
      "britá": 8384,
      "iphone": 8385,
      "slan": 8386,
      "oranž": 8387,
      "zemřel": 8388,
      "úklid": 8389,
      "chyba": 8390,
      "rekonstrukci": 8391,
      "aro": 8392,
      "96": 8393,
      "výročí": 8394,
      "řečeno": 8395,
      "hranici": 8396,
      "svatební": 8397,
      "fyzické": 8398,
      "prostějov": 8399,
      "chceš": 8400,
      "##alni": 8401,
      "pokles": 8402,
      "pražské": 8403,
      "omlou": 8404,
      "růstu": 8405,
      "porodu": 8406,
      "infek": 8407,
      "##bří": 8408,
      "dodal": 8409,
      "přístupu": 8410,
      "milá": 8411,
      "koupil": 8412,
      "bíl": 8413,
      "##ždění": 8414,
      "následujících": 8415,
      "350": 8416,
      "##inový": 8417,
      "tablet": 8418,
      "nákupu": 8419,
      "přijít": 8420,
      "mléka": 8421,
      "záchran": 8422,
      "https": 8423,
      "příběhy": 8424,
      "map": 8425,
      "odběr": 8426,
      "poslan": 8427,
      "zeptejte": 8428,
      "národního": 8429,
      "##skos": 8430,
      "orient": 8431,
      "osud": 8432,
      "špatné": 8433,
      "šir": 8434,
      "psaní": 8435,
      "tlačítka": 8436,
      "78": 8437,
      "martina": 8438,
      "nemoci": 8439,
      "skončil": 8440,
      "nejs": 8441,
      "medicí": 8442,
      "pracovník": 8443,
      "zed": 8444,
      "výcvi": 8445,
      "##šová": 8446,
      "##lovice": 8447,
      "reprezent": 8448,
      "kabely": 8449,
      "##rák": 8450,
      "##rované": 8451,
      "##cal": 8452,
      "zkrá": 8453,
      "vlastního": 8454,
      "zábě": 8455,
      "bat": 8456,
      "vůz": 8457,
      "##stická": 8458,
      "herní": 8459,
      "##nicky": 8460,
      "garáže": 8461,
      "##bus": 8462,
      "##víme": 8463,
      "virtu": 8464,
      "##cena": 8465,
      "##lový": 8466,
      "dokonale": 8467,
      "92": 8468,
      "zave": 8469,
      "používají": 8470,
      "oddí": 8471,
      "kolegy": 8472,
      "sek": 8473,
      "příru": 8474,
      "částku": 8475,
      "výpově": 8476,
      "##dela": 8477,
      "##chání": 8478,
      "ročně": 8479,
      "sluchátka": 8480,
      "130": 8481,
      "##ovacím": 8482,
      "kin": 8483,
      "##kalo": 8484,
      "nove": 8485,
      "##řena": 8486,
      "výhrad": 8487,
      "přišlo": 8488,
      "##sol": 8489,
      "##enom": 8490,
      "naklada": 8491,
      "##rd": 8492,
      "##bin": 8493,
      "přidání": 8494,
      "tisíce": 8495,
      "rubri": 8496,
      "stolu": 8497,
      "pneu": 8498,
      "bavl": 8499,
      "objev": 8500,
      "výpis": 8501,
      "notebook": 8502,
      "teplice": 8503,
      "příspěvku": 8504,
      "bezplat": 8505,
      "klimatizace": 8506,
      "skupině": 8507,
      "přečíst": 8508,
      "paliva": 8509,
      "mapy": 8510,
      "##následující": 8511,
      "bazénu": 8512,
      "případů": 8513,
      "zdravé": 8514,
      "žárov": 8515,
      "##kono": 8516,
      "vyžaduje": 8517,
      "puzz": 8518,
      "média": 8519,
      "pd": 8520,
      "zdeněk": 8521,
      "ochraně": 8522,
      "barvu": 8523,
      "hvězd": 8524,
      "odpovídající": 8525,
      "příjmení": 8526,
      "hole": 8527,
      "zisk": 8528,
      "jihlava": 8529,
      "jakého": 8530,
      "výpočet": 8531,
      "plánování": 8532,
      "##teb": 8533,
      "meziříčí": 8534,
      "požadavků": 8535,
      "obsahem": 8536,
      "kůži": 8537,
      "interiéru": 8538,
      "##jším": 8539,
      "obrázeknásledující": 8540,
      "mh": 8541,
      "81": 8542,
      "nakou": 8543,
      "astro": 8544,
      "radho": 8545,
      "škody": 8546,
      "uzná": 8547,
      "##šených": 8548,
      "formát": 8549,
      "válce": 8550,
      "budoucnosti": 8551,
      "##ičky": 8552,
      "tyč": 8553,
      "vstří": 8554,
      "##ovol": 8555,
      "hmy": 8556,
      "jmenuje": 8557,
      "##nový": 8558,
      "rozhra": 8559,
      "průkaz": 8560,
      "věda": 8561,
      "##pád": 8562,
      "pome": 8563,
      "##álem": 8564,
      "zvyšuje": 8565,
      "discip": 8566,
      "##něno": 8567,
      "eva": 8568,
      "##cio": 8569,
      "##škou": 8570,
      "ek": 8571,
      "sád": 8572,
      "mg": 8573,
      "##pev": 8574,
      "skvělá": 8575,
      "státního": 8576,
      "postavy": 8577,
      "aplikací": 8578,
      "veřejného": 8579,
      "déle": 8580,
      "zle": 8581,
      "cukru": 8582,
      "show": 8583,
      "##kovém": 8584,
      "zpracová": 8585,
      "plí": 8586,
      "kilometrů": 8587,
      "psal": 8588,
      "##kací": 8589,
      "##fun": 8590,
      "univerzity": 8591,
      "energii": 8592,
      "účasti": 8593,
      "obdi": 8594,
      "##dia": 8595,
      "obráz": 8596,
      "odkud": 8597,
      "víme": 8598,
      "##berg": 8599,
      "##ile": 8600,
      "holka": 8601,
      "utr": 8602,
      "##tér": 8603,
      "čekat": 8604,
      "nevá": 8605,
      "partne": 8606,
      "##muje": 8607,
      "##žují": 8608,
      "##daci": 8609,
      "##vým": 8610,
      "vydrží": 8611,
      "cítí": 8612,
      "efektivní": 8613,
      "využívat": 8614,
      "aktualiz": 8615,
      "taneční": 8616,
      "##ester": 8617,
      "parti": 8618,
      "dobrodružství": 8619,
      "připravit": 8620,
      "určené": 8621,
      "##metri": 8622,
      "##lují": 8623,
      "měsících": 8624,
      "pokry": 8625,
      "rozhodla": 8626,
      "##čující": 8627,
      "kras": 8628,
      "knihovny": 8629,
      "##růst": 8630,
      "vybraných": 8631,
      "##hledat": 8632,
      "sms": 8633,
      "agres": 8634,
      "uvedeno": 8635,
      "alp": 8636,
      "jediná": 8637,
      "##hodné": 8638,
      "##štěné": 8639,
      "john": 8640,
      "##jo": 8641,
      "karet": 8642,
      "technických": 8643,
      "mládeže": 8644,
      "očí": 8645,
      "plzni": 8646,
      "autobus": 8647,
      "##and": 8648,
      "##lkou": 8649,
      "pokračování": 8650,
      "intelig": 8651,
      "španěl": 8652,
      "##ovaně": 8653,
      "ela": 8654,
      "##něji": 8655,
      "kateř": 8656,
      "##ády": 8657,
      "##uju": 8658,
      "přispí": 8659,
      "regionální": 8660,
      "192": 8661,
      "pec": 8662,
      "flexi": 8663,
      "##textu": 8664,
      "zlaté": 8665,
      "týdnu": 8666,
      "zbraně": 8667,
      "##ski": 8668,
      "posouzení": 8669,
      "nikoli": 8670,
      "televizi": 8671,
      "##wo": 8672,
      "zázemí": 8673,
      "naprost": 8674,
      "##menout": 8675,
      "metoda": 8676,
      "stolní": 8677,
      "##rce": 8678,
      "war": 8679,
      "##die": 8680,
      "čele": 8681,
      "prokáz": 8682,
      "teplá": 8683,
      "##dolí": 8684,
      "moravě": 8685,
      "mikrov": 8686,
      "chirurg": 8687,
      "##ranit": 8688,
      "politika": 8689,
      "##strá": 8690,
      "klobou": 8691,
      "sekun": 8692,
      "zásil": 8693,
      "##skoslez": 8694,
      "##enku": 8695,
      "##zal": 8696,
      "klep": 8697,
      "rizika": 8698,
      "financí": 8699,
      "asoci": 8700,
      "sorti": 8701,
      "##prová": 8702,
      "kompak": 8703,
      "strategie": 8704,
      "rejstříku": 8705,
      "dodávky": 8706,
      "prefer": 8707,
      "lázeň": 8708,
      "anděl": 8709,
      "světle": 8710,
      "výsledku": 8711,
      "puzzle": 8712,
      "knihovna": 8713,
      "sno": 8714,
      "##šce": 8715,
      "pozvá": 8716,
      "triko": 8717,
      "##rních": 8718,
      "vybíráme": 8719,
      "stolek": 8720,
      "vstříc": 8721,
      "samé": 8722,
      "zajímavý": 8723,
      "brz": 8724,
      "košile": 8725,
      "způsobu": 8726,
      "výdaje": 8727,
      "popř": 8728,
      "##vest": 8729,
      "##rových": 8730,
      "budov": 8731,
      "šance": 8732,
      "82": 8733,
      "kanalizace": 8734,
      "kontej": 8735,
      "odpadu": 8736,
      "86": 8737,
      "##perk": 8738,
      "svěd": 8739,
      "hodo": 8740,
      "úspěšně": 8741,
      "##edu": 8742,
      "zážitkové": 8743,
      "##hledy": 8744,
      "moravskoslez": 8745,
      "##děte": 8746,
      "ostatními": 8747,
      "stráž": 8748,
      "ligy": 8749,
      "příznak": 8750,
      "webových": 8751,
      "návrhy": 8752,
      "děl": 8753,
      "##ženou": 8754,
      "psycholog": 8755,
      "zdo": 8756,
      "okamžiku": 8757,
      "někomu": 8758,
      "unikátní": 8759,
      "blíží": 8760,
      "sjezd": 8761,
      "zámky": 8762,
      "zbyteč": 8763,
      "##ktoru": 8764,
      "pud": 8765,
      "historické": 8766,
      "orgány": 8767,
      "vzal": 8768,
      "výuka": 8769,
      "hard": 8770,
      "stavebního": 8771,
      "kolekti": 8772,
      "dílů": 8773,
      "vstupu": 8774,
      "výrobní": 8775,
      "interiér": 8776,
      "tero": 8777,
      "mem": 8778,
      "evropských": 8779,
      "příjemný": 8780,
      "hadice": 8781,
      "adrese": 8782,
      "jihomorav": 8783,
      "způsoby": 8784,
      "hezký": 8785,
      "##lování": 8786,
      "zahradu": 8787,
      "##eld": 8788,
      "náušnice": 8789,
      "domní": 8790,
      "zrušení": 8791,
      "otro": 8792,
      "povod": 8793,
      "kulat": 8794,
      "zelí": 8795,
      "běžně": 8796,
      "##con": 8797,
      "doporučit": 8798,
      "nabíze": 8799,
      "elektrá": 8800,
      "zákazníky": 8801,
      "adam": 8802,
      "budova": 8803,
      "zástav": 8804,
      "zhor": 8805,
      "grafi": 8806,
      "půdy": 8807,
      "vzác": 8808,
      "alternati": 8809,
      "##sili": 8810,
      "tahle": 8811,
      "vym": 8812,
      "scéná": 8813,
      "##ůvod": 8814,
      "##roční": 8815,
      "vrátil": 8816,
      "homo": 8817,
      "##sport": 8818,
      "zastupitelstvo": 8819,
      "191": 8820,
      "karta": 8821,
      "dres": 8822,
      "##áka": 8823,
      "kontaktní": 8824,
      "pau": 8825,
      "meta": 8826,
      "měří": 8827,
      "vina": 8828,
      "jakékoliv": 8829,
      "Čechy": 8830,
      "desítky": 8831,
      "nie": 8832,
      "##ovatelů": 8833,
      "oblastech": 8834,
      "##gram": 8835,
      "che": 8836,
      "uvo": 8837,
      "určena": 8838,
      "##tová": 8839,
      "recenzí": 8840,
      "měnit": 8841,
      "repor": 8842,
      "cele": 8843,
      "##ární": 8844,
      "kontejner": 8845,
      "rozhodčí": 8846,
      "kompet": 8847,
      "vytr": 8848,
      "hyper": 8849,
      "pamat": 8850,
      "nejrůz": 8851,
      "pevné": 8852,
      "jit": 8853,
      "hlavních": 8854,
      "##board": 8855,
      "mladých": 8856,
      "knize": 8857,
      "obsluha": 8858,
      "zjištění": 8859,
      "Řek": 8860,
      "rozděl": 8861,
      "jdu": 8862,
      "stavě": 8863,
      "##šují": 8864,
      "délce": 8865,
      "##něny": 8866,
      "přístav": 8867,
      "##nad": 8868,
      "##tilo": 8869,
      "nechte": 8870,
      "volně": 8871,
      "namí": 8872,
      "volno": 8873,
      "##čují": 8874,
      "##šovat": 8875,
      "koleg": 8876,
      "myslel": 8877,
      "rakov": 8878,
      "divi": 8879,
      "pozna": 8880,
      "bé": 8881,
      "pracovního": 8882,
      "mých": 8883,
      "produkce": 8884,
      "koupelna": 8885,
      "ekonomické": 8886,
      "##seň": 8887,
      "##slí": 8888,
      "##ilem": 8889,
      "řádně": 8890,
      "vyhlí": 8891,
      "rat": 8892,
      "##cs": 8893,
      "##bere": 8894,
      "letošního": 8895,
      "##tisk": 8896,
      "chrání": 8897,
      "bazé": 8898,
      "vyprávě": 8899,
      "##víte": 8900,
      "studenty": 8901,
      "##anech": 8902,
      "##vená": 8903,
      "pryč": 8904,
      "roste": 8905,
      "##amat": 8906,
      "sau": 8907,
      "poslu": 8908,
      "přípravě": 8909,
      "##hev": 8910,
      "ochut": 8911,
      "91": 8912,
      "Španěl": 8913,
      "jakož": 8914,
      "dolarů": 8915,
      "normálně": 8916,
      "##encí": 8917,
      "vole": 8918,
      "##sie": 8919,
      "vsech": 8920,
      "peri": 8921,
      "##leg": 8922,
      "zato": 8923,
      "##jas": 8924,
      "ochranné": 8925,
      "nejlepších": 8926,
      "každému": 8927,
      "liš": 8928,
      "hřbit": 8929,
      "přerov": 8930,
      "přepravy": 8931,
      "##dost": 8932,
      "##rati": 8933,
      "potvrzení": 8934,
      "nece": 8935,
      "##pán": 8936,
      "doj": 8937,
      "důvodem": 8938,
      "policisté": 8939,
      "myslíte": 8940,
      "tyhle": 8941,
      "příkaz": 8942,
      "oblastí": 8943,
      "boji": 8944,
      "kladno": 8945,
      "linky": 8946,
      "patri": 8947,
      "whi": 8948,
      "regulace": 8949,
      "víkendu": 8950,
      "karo": 8951,
      "vteř": 8952,
      "šťá": 8953,
      "apo": 8954,
      "zážitek": 8955,
      "chorvat": 8956,
      "odboru": 8957,
      "##mana": 8958,
      "památky": 8959,
      "vzniká": 8960,
      "domácnost": 8961,
      "900": 8962,
      "tet": 8963,
      "jogu": 8964,
      "externí": 8965,
      "hit": 8966,
      "##jek": 8967,
      "příjmů": 8968,
      "lokalita": 8969,
      "oficiální": 8970,
      "zpří": 8971,
      "plem": 8972,
      "brigá": 8973,
      "předmětů": 8974,
      "čísel": 8975,
      "jezdit": 8976,
      "Člá": 8977,
      "nikoho": 8978,
      "stavebních": 8979,
      "inženýr": 8980,
      "psych": 8981,
      "divadelní": 8982,
      "jednoznačně": 8983,
      "83": 8984,
      "##ologie": 8985,
      "bron": 8986,
      "##břeží": 8987,
      "kles": 8988,
      "##řek": 8989,
      "navý": 8990,
      "sim": 8991,
      "odvět": 8992,
      "stovky": 8993,
      "nemáme": 8994,
      "jakoby": 8995,
      "youtube": 8996,
      "benešov": 8997,
      "získání": 8998,
      "##zalo": 8999,
      "postupu": 9000,
      "slib": 9001,
      "radhoštěm": 9002,
      "zdravím": 9003,
      "krum": 9004,
      "trouby": 9005,
      "kostela": 9006,
      "průběh": 9007,
      "libere": 9008,
      "připomíná": 9009,
      "peči": 9010,
      "bon": 9011,
      "krat": 9012,
      "pořádá": 9013,
      "dokázal": 9014,
      "neohodnotil": 9015,
      "rich": 9016,
      "jdou": 9017,
      "tová": 9018,
      "provádět": 9019,
      "škod": 9020,
      "zó": 9021,
      "bunda": 9022,
      "lup": 9023,
      "lžíce": 9024,
      "testy": 9025,
      "nízké": 9026,
      "##ruje": 9027,
      "dvacet": 9028,
      "vraž": 9029,
      "čast": 9030,
      "kompres": 9031,
      "##éře": 9032,
      "dispo": 9033,
      "výdejní": 9034,
      "projedná": 9035,
      "##něná": 9036,
      "dopředu": 9037,
      "osobnosti": 9038,
      "vztahů": 9039,
      "stavbu": 9040,
      "komplexní": 9041,
      "kvalit": 9042,
      "koupila": 9043,
      "nemocnici": 9044,
      "pozdějších": 9045,
      "##čel": 9046,
      "##řela": 9047,
      "sing": 9048,
      "nástav": 9049,
      "##átory": 9050,
      "sat": 9051,
      "vyzved": 9052,
      "##ovět": 9053,
      "aneb": 9054,
      "ohni": 9055,
      "rozumí": 9056,
      "zahrnu": 9057,
      "kompati": 9058,
      "snímky": 9059,
      "##cas": 9060,
      "##desá": 9061,
      "podru": 9062,
      "db": 9063,
      "inzerát": 9064,
      "oddě": 9065,
      "kamery": 9066,
      "pečené": 9067,
      "převzetí": 9068,
      "seve": 9069,
      "##ánem": 9070,
      "nástrojů": 9071,
      "##leni": 9072,
      "love": 9073,
      "##all": 9074,
      "zapojení": 9075,
      "blesk": 9076,
      "zůstat": 9077,
      "radnice": 9078,
      "příč": 9079,
      "nejstar": 9080,
      "povinností": 9081,
      "náplň": 9082,
      "příbu": 9083,
      "přeci": 9084,
      "##citu": 9085,
      "městem": 9086,
      "náramek": 9087,
      "fázi": 9088,
      "zlato": 9089,
      "zaví": 9090,
      "##grace": 9091,
      "tmavě": 9092,
      "stri": 9093,
      "interpr": 9094,
      "##tín": 9095,
      "##cer": 9096,
      "zaplatit": 9097,
      "spoleh": 9098,
      "##ladatel": 9099,
      "zvěd": 9100,
      "chud": 9101,
      "transp": 9102,
      "literá": 9103,
      "hosti": 9104,
      "houp": 9105,
      "cestov": 9106,
      "pis": 9107,
      "fazo": 9108,
      "##vný": 9109,
      "lese": 9110,
      "instru": 9111,
      "praní": 9112,
      "nazna": 9113,
      "frá": 9114,
      "ručně": 9115,
      "svobody": 9116,
      "##vale": 9117,
      "Člověk": 9118,
      "velet": 9119,
      "rozhodli": 9120,
      "vyvolá": 9121,
      "řeky": 9122,
      "fungovat": 9123,
      "##ovník": 9124,
      "palu": 9125,
      "motý": 9126,
      "branky": 9127,
      "obrazy": 9128,
      "družstva": 9129,
      "evid": 9130,
      "nahraz": 9131,
      "slez": 9132,
      "##odi": 9133,
      "knof": 9134,
      "fáze": 9135,
      "webové": 9136,
      "přiblí": 9137,
      "těmito": 9138,
      "##astro": 9139,
      "plastové": 9140,
      "nástě": 9141,
      "západní": 9142,
      "vyči": 9143,
      "##liště": 9144,
      "inte": 9145,
      "široké": 9146,
      "vektor": 9147,
      "proda": 9148,
      "##čily": 9149,
      "asistent": 9150,
      "##tkem": 9151,
      "přišli": 9152,
      "Čty": 9153,
      "##nkami": 9154,
      "přestá": 9155,
      "baro": 9156,
      "uvedla": 9157,
      "lokalitě": 9158,
      "klášter": 9159,
      "##tická": 9160,
      "váp": 9161,
      "##sáno": 9162,
      "čisté": 9163,
      "spotřeba": 9164,
      "prospěch": 9165,
      "trend": 9166,
      "společného": 9167,
      "zjišť": 9168,
      "##kuren": 9169,
      "nohou": 9170,
      "87": 9171,
      "koná": 9172,
      "takovém": 9173,
      "byzny": 9174,
      "myslim": 9175,
      "mudr": 9176,
      "objemu": 9177,
      "čistí": 9178,
      "##kne": 9179,
      "podrobnosti": 9180,
      "výjimkou": 9181,
      "pokračuje": 9182,
      "nejob": 9183,
      "hl": 9184,
      "součást": 9185,
      "##tací": 9186,
      "advoká": 9187,
      "zneči": 9188,
      "##jela": 9189,
      "většině": 9190,
      "humor": 9191,
      "##řovat": 9192,
      "osobnost": 9193,
      "nevadí": 9194,
      "lesní": 9195,
      "terénu": 9196,
      "nezaměst": 9197,
      "vrace": 9198,
      "dávat": 9199,
      "kaš": 9200,
      "boxy": 9201,
      "hypoté": 9202,
      "bam": 9203,
      "silný": 9204,
      "slová": 9205,
      "trpě": 9206,
      "organizaci": 9207,
      "úrovně": 9208,
      "stupňů": 9209,
      "jednoduchý": 9210,
      "sf": 9211,
      "##pádně": 9212,
      "měste": 9213,
      "vstupní": 9214,
      "ski": 9215,
      "sci": 9216,
      "zvlášt": 9217,
      "osvě": 9218,
      "archiv": 9219,
      "##lala": 9220,
      "##itní": 9221,
      "schopni": 9222,
      "zapečené": 9223,
      "taška": 9224,
      "una": 9225,
      "varianta": 9226,
      "česnek": 9227,
      "předško": 9228,
      "kněžnou": 9229,
      "schválení": 9230,
      "##ovek": 9231,
      "masem": 9232,
      "pin": 9233,
      "doplnění": 9234,
      "zabezpeč": 9235,
      "květiná": 9236,
      "##jky": 9237,
      "zasí": 9238,
      "považuje": 9239,
      "otevření": 9240,
      "počítá": 9241,
      "jakých": 9242,
      "oble": 9243,
      "radši": 9244,
      "nejni": 9245,
      "##ash": 9246,
      "stanovi": 9247,
      "##avé": 9248,
      "parlamentu": 9249,
      "##nský": 9250,
      "hasiči": 9251,
      "##čan": 9252,
      "##pii": 9253,
      "uživatelé": 9254,
      "nit": 9255,
      "plátky": 9256,
      "položka": 9257,
      "těším": 9258,
      "napište": 9259,
      "bystřice": 9260,
      "vyví": 9261,
      "zkuše": 9262,
      "ondřej": 9263,
      "shop": 9264,
      "personál": 9265,
      "teorie": 9266,
      "uherské": 9267,
      "proste": 9268,
      "vrchol": 9269,
      "starých": 9270,
      "kel": 9271,
      "android": 9272,
      "poradna": 9273,
      "##itý": 9274,
      "czech": 9275,
      "##zemní": 9276,
      "nedostatek": 9277,
      "získala": 9278,
      "turnaje": 9279,
      "ub": 9280,
      "bohem": 9281,
      "tap": 9282,
      "příspěvků": 9283,
      "síti": 9284,
      "sníma": 9285,
      "přípravek": 9286,
      "jó": 9287,
      "každopádně": 9288,
      "##tive": 9289,
      "momentálně": 9290,
      "mast": 9291,
      "hní": 9292,
      "efekt": 9293,
      "##roval": 9294,
      "mikina": 9295,
      "zadání": 9296,
      "stříbrný": 9297,
      "iČ": 9298,
      "beru": 9299,
      "##kládat": 9300,
      "##pravo": 9301,
      "stupeň": 9302,
      "stromů": 9303,
      "složky": 9304,
      "účinnosti": 9305,
      "ztráty": 9306,
      "hřišti": 9307,
      "##lená": 9308,
      "samostatné": 9309,
      "##ktem": 9310,
      "##čkový": 9311,
      "##cuje": 9312,
      "nemohou": 9313,
      "##čená": 9314,
      "měsíční": 9315,
      "##niky": 9316,
      "facebooku": 9317,
      "##desáti": 9318,
      "atraktivní": 9319,
      "dráž": 9320,
      "kočárek": 9321,
      "destinaci": 9322,
      "##kladem": 9323,
      "hrozně": 9324,
      "léčeb": 9325,
      "brát": 9326,
      "nemusíte": 9327,
      "##pag": 9328,
      "andre": 9329,
      "odmí": 9330,
      "##cia": 9331,
      "##ona": 9332,
      "fou": 9333,
      "est": 9334,
      "veter": 9335,
      "rychlostí": 9336,
      "obá": 9337,
      "##kaly": 9338,
      "opravit": 9339,
      "##držel": 9340,
      "mnohé": 9341,
      "startu": 9342,
      "očekávání": 9343,
      "úspor": 9344,
      "nezbytné": 9345,
      "mraz": 9346,
      "vydat": 9347,
      "##ící": 9348,
      "příjmy": 9349,
      "registru": 9350,
      "tehde": 9351,
      "##čených": 9352,
      "nevíte": 9353,
      "obchodů": 9354,
      "ktery": 9355,
      "konkurence": 9356,
      "omáčka": 9357,
      "bratr": 9358,
      "krátko": 9359,
      "jednalo": 9360,
      "ses": 9361,
      "krize": 9362,
      "odstranit": 9363,
      "kořen": 9364,
      "zneu": 9365,
      "indu": 9366,
      "##balu": 9367,
      "pohodlné": 9368,
      "vozidlo": 9369,
      "valaš": 9370,
      "hvězdičkové": 9371,
      "relativně": 9372,
      "penziony": 9373,
      "veletr": 9374,
      "##stál": 9375,
      "prezent": 9376,
      "noteboo": 9377,
      "hp": 9378,
      "objevil": 9379,
      "ral": 9380,
      "platba": 9381,
      "zhodno": 9382,
      "minutami": 9383,
      "zaměstnavatel": 9384,
      "nepouží": 9385,
      "veške": 9386,
      "##sce": 9387,
      "ostatně": 9388,
      "instalaci": 9389,
      "šedá": 9390,
      "boha": 9391,
      "procesoru": 9392,
      "rozhodne": 9393,
[...]
