[PAD]
[UNK]
[CLS]
[SEP]
[MASK]
!
"
#
$
%
&
'
(
)
*
+
,
-
.
/
0
1
2
3
4
5
6
7
8
9
:
;
<
=
>
?
@
[
]
^
_
`
a
b
c
d
e
f
g
h
i
j
k
l
m
n
o
p
q
r
s
t
u
v
w
x
y
z
{
}
Á
Â
Ä
Æ
É
Ê
Ë
Í
Î
Ï
Ó
Ô
Ö
Ù
Ú
Û
Ü
Ý
á
â
ä
æ
é
ê
ë
í
î
ï
ó
ô
ö
ù
ú
û
ü
ý
ÿ
Č
č
Ď
ď
Ě
ě
Ĺ
ĺ
Ľ
ľ
Ň
ň
Œ
œ
Ŕ
ŕ
Ř
ř
Š
š
Ť
ť
Ů
ů
Ÿ
Ž
ž
##d
##r
##f
##k
##l
##y
##t
##i
##s
##e
##n
##a
##c
##b
##ř
##j
##p
##v
##o
##é
##h
##á
##í
##ž
##ý
##m
##w
##č
##š
##8
##7
##3
##1
##5
##z
##u
##g
##ě
##4
##0
##2
##6
##ů
##û
##ň
##Š
##9
##Ú
##ľ
##ú
##ó
##x
##Č
##ť
##Á
##ď
##Ý
##ü
##Í
##Ž
##Ň
##Ů
##ä
##â
##Ř
##É
##q
##ö
##Ť
##ÿ
##Ë
##Ï
##ù
##î
##ê
##ŕ
##Ó
##ï
##Û
##Ě
##ĺ
##Ĺ
##Ä
##ô
##Ê
##Ö
##ë
##Î
##Ù
##Æ
##æ
##Ľ
##Ô
##Â
##Œ
##Ď
##œ
##Ü
##Ÿ
##Ŕ
##ní
##st
##ov
##ch
##en
po
##ro
##ra
na
##le
##ou
##te
##la
ne
##ce
##li
do
př
je
se
pro
##ho
##em
##ak
##in
##at
##an
##ky
##or
##ně
##ka
##de
##it
##lo
##no
##ku
##rá
st
za
to
##ed
##ko
##od
ob
##ni
##al
##sk
vy
ko
##er
##va
##et
##ci
##né
##je
##to
##el
##na
##cí
##ar
##jí
##ře
by
##ých
##ná
##ti
##ší
##po
od
ro
##ad
##lu
##ová
##ek
##mi
js
ná
##av
##ck
zá
##ení
ve
tak
##sti
mo
vý
##lá
##ru
##ter
##ové
pod
##by
##es
##il
##vě
##ří
při
##dy
pr
##tě
jak
##mě
pří
##mu
##me
že
##vo
##bo
##ví
##tu
##ez
##ob
##is
ch
##vá
re
##du
##dě
mě
##am
si
##ne
##ny
##ál
##ji
##ta
##ný
pra
##že
##ze
##ské
##as
##pra
bu
##nu
ale
ně
##ty
##da
##še
in
##lí
jed
##ma
roz
##tel
před
##dá
kter
##ční
##ova
te
##mo
sp
ho
ma
##vní
nej
##ri
ka
##ží
##ká
##nost
##nou
##ly
##tí
mi
##up
##di
##uje
##ování
li
co
##ého
spo
jsem
##rov
##ři
##ým
sou
##vi
##cho
##ém
##ím
má
##led
##kla
kon
##bu
sv
nebo
kč
##ště
dě
pře
##do
##hod
mu
vě
##vy
ji
##čí
mí
##sta
20
##ba
##ovat
##ním
jako
ni
prá
##bí
##lou
##mí
vz
kdy
##má
##ent
jsou
##zi
##ry
##ový
hod
##si
##ha
##kou
##ních
##sto
##pad
už
vá
##stav
##re
##át
##ků
##jící
##nosti
##ie
##bě
ví
##sa
##jem
##pě
##ick
ze
##ena
pou
vše
##ené
##lov
os
bo
##dí
ku
##ád
##stup
##ve
vel
bez
##žit
##hu
pos
le
##za
##tá
##če
fo
##kov
tě
##my
jen
##pe
##oru
dal
##zí
##sí
pa
kte
##klad
které
##dech
tu
ak
vo
au
##ální
##ných
##či
##ste
##pu
##kt
let
další
##eno
##ovan
bude
##kon
##vod
mů
ty
##tní
##eny
##zení
poz
##lé
##jší
##stí
##on
##ran
##ina
dí
10
cel
##prav
pot
vi
##lem
##ská
##kem
##hy
##čky
##ství
dob
##se
##řed
##ši
hla
no
zd
##lat
ten
##ená
jin
dá
##chod
##leč
##dej
##chodech
obchodech
prost
##ist
min
nad
##raz
##ovo
##iny
##ice
všech
vla
##vět
jedno
nap
##gra
de
##ově
##chá
sk
##ži
který
když
jsme
##ního
mož
##cké
##rou
##nání
aby
##ský
##ec
##hra
##oup
##vr
##ali
stav
##for
##ného
di
ru
kom
##stat
##tek
ta
nabí
bý
prodej
poku
ži
##so
dů
ry
jeho
so
byl
##rát
slu
hra
##pl
může
ško
##zna
také
an
sy
nás
##liv
té
proto
Če
op
##čet
##čka
##men
ke
není
foto
##un
my
stra
dru
ba
##lož
nep
##00
##dou
##len
##tor
##rob
tr
pá
va
##dat
##bor
##zu
sam
ja
zp
##dr
##pis
##nit
##vu
ce
mez
kra
201
##bi
pů
vod
sm
sta
společ
podle
ří
dopra
bylo
než
##ut
až
pokud
byla
##cích
fi
sto
##ati
něk
##lní
ti
##nice
##pa
##fi
první
toho
či
být
jí
##chy
##sob
přes
##hle
##ený
##log
praha
ex
##stě
##ových
##co
kaž
##sp
##vně
##ud
##lení
##ké
infor
rá
lo
##nes
prac
##šení
krá
##zd
pla
##řej
par
obchod
která
něj
##čení
##sy
##kové
##ům
pak
moh
vlast
##ani
rad
##ření
##há
19
##dní
ani
vš
##vali
ještě
tom
##um
##oval
prů
čá
hodno
##mů
##rg
##ského
stá
##spě
rod
osob
##mé
více
##lep
práce
pe
##hled
##ct
lé
obrá
ste
##ček
##teč
bar
kde
##tem
##rovnání
jeji
##zy
pov
br
den
jejich
če
sku
##ovní
##lik
kr
mezi
auto
kar
tam
##ís
##jte
##por
ur
##nění
informa
##čit
##zek
##pi
čer
pl
##itu
##iná
##nat
##chu
##ným
##vat
##cen
já
nové
živo
rych
##pr
tý
##ved
sna
su
tím
případ
doprava
##slu
##cky
##cení
mno
mal
rů
##ovi
vět
##val
asi
##vou
mar
##ských
druh
##ovou
dis
##eme
##teri
##nout
##bra
12
velmi
##čas
každ
zem
přidat
zna
bě
##chni
##be
##su
##tele
##ato
##vání
samo
##let
své
##kr
hor
##bli
nez
##měr
##im
##ing
tře
15
všechny
ted
##byt
##ané
úč
prob
čas
potře
##den
již
##hla
##ast
stan
##ito
##jed
##nutí
kvali
##del
du
ele
nabíd
##inu
##eni
ceny
##nější
proje
syst
##vý
##ují
##stra
pomo
nějak
##pí
poli
##ině
##cha
##poru
200
##ické
##jeme
##nky
tra
cm
##rů
zač
kont
rozhod
kam
sa
##ver
pan
stej
##kaz
kni
budou
pě
##lém
##ším
pi
hotel
##ga
obrázek
##ber
kli
ře
al
ostat
uži
##ory
##ového
fun
ní
des
zdra
##ady
bych
##dání
##vé
##ner
proti
for
##stá
##eb
tento
##žení
vám
star
la
ov
veli
##race
dobr
nes
koup
lid
##lad
da
##cký
ap
##hem
musí
zak
moc
##ených
##ností
dlou
nic
##ková
##vis
##teg
produ
elekt
##ců
fil
##io
##roj
##nek
zbo
##kra
porovnání
svě
plá
##lav
man
##ata
prostřed
tomu
##nika
domá
us
vyu
zahra
její
sí
cí
##py
strá
pouze
##eně
##řízení
##ném
org
protože
odp
zde
děti
něko
cena
lu
fir
##řad
##stu
##vit
##zem
##ký
změ
##ůsob
základ
pat
progra
##ene
mas
služ
##ktu
on
##rní
zboží
##kce
zamě
ar
tedy
sprá
##tra
##pět
##lan
30
dle
##šť
##št
##čně
kou
výs
##nov
##van
##ovací
uz
spolu
vů
místo
posled
vás
nik
svět
##ání
mys
met
##án
##čku
tep
##bav
##man
však
měsí
dne
##stru
##stli
roku
me
tele
vol
chy
vyso
reg
obsa
per
##sty
##nám
spor
třeba
pu
mám
dr
růz
pop
##jde
##šen
problém
roce
nám
##tr
##dla
žád
##rod
podob
zat
11
##vky
obje
##ven
kap
##ace
této
mají
lá
výrob
##znam
##ovice
něco
střed
##sko
tro
jednot
##ca
spe
oprav
##kti
sil
##děl
50
hlavní
fotogra
dost
kraj
##sky
použí
##zace
##cká
##met
##peč
neu
způsob
zku
hu
##dlo
##ležit
neby
##mov
uved
příslu
nemo
doporu
ci
fin
##ník
##chází
akti
##nů
##vatel
##žel
nech
představ
bra
##ující
##roz
##ždy
kteří
##skou
takže
poby
##ag
kan
dnes
počet
##ované
České
##ej
žá
##hlá
##zo
nedo
ostatní
dět
##kách
obla
tří
kro
vr
##prac
ved
čin
##řád
techni
##ii
pož
vyt
lí
##ily
ven
zob
zařízení
díky
##ými
město
ter
sch
##lit
och
dva
##šet
komu
byly
##bou
hodnocení
##ska
18
smlou
prof
##ovala
provo
##čá
konce
domácí
speci
informace
##inou
jste
##tech
míst
oko
plo
vždy
ev
měl
taky
snad
14
##sá
systém
těch
##rie
skup
##hrá
můžete
mít
##rt
##álně
##tegor
posky
pracovní
jo
dopl
##sku
bí
##dek
případě
##nec
at
##ctví
slov
##jení
inter
##aly
##vají
##dob
tato
##ám
##edi
ote
##lika
bud
##voj
ra
kategor
##té
##losti
##fo
##ách
materi
##jít
##zku
##ckých
chce
##lez
pri
minu
##net
přek
lze
##nem
am
kdo
zel
##he
cen
##dělá
komp
##lý
nemá
fak
hodin
zaji
##klá
##mys
pobyty
13
zv
##us
up
města
##ovnat
stát
##zor
dra
##publi
##kro
##lka
##ští
##porovnat
porovnáníporovnat
ubyt
naše
služby
nepo
##chop
##řit
##ovali
vhod
zají
použit
16
veřej
##tů
evro
kla
##lost
##sou
##čních
stro
republi
sklad
##ol
mod
##ove
nebu
##lově
##štění
vlastní
##min
určit
ga
obchodu
finan
##hov
náro
zap
25
bod
##lky
##id
dvě
ks
100
jestli
chtě
##mou
právě
##fek
##lů
uni
výro
##mav
klu
##vů
rok
##dení
ode
##vka
##jet
sport
##poč
hotely
##cit
##bil
část
##ledu
##bní
mé
##ložit
##ada
ok
postup
jeden
mat
krás
veliko
##rav
mode
##mat
poko
##eta
##zky
##fie
hrá
##lové
##pat
reali
dovo
##ned
vyp
led
##ckého
zaměst
var
otá
cent
pora
ča
dvou
jinak
##dit
nevy
výsled
soci
he
##stoup
nich
každý
##ane
podmí
##kový
nejlep
sr
rov
tř
dále
##tře
plat
##dět
##per
tři
pís
##šem
dře
ri
##drž
##tky
stu
zí
##sím
##nictví
připo
hle
##ška
##sed
dota
staveb
zatím
##rost
nový
##nan
možnost
svo
zobraz
##ému
ano
nov
poslední
prav
organi
##šit
někter
prodá
##hlí
aktu
kole
hy
##řské
pořád
součas
jan
be
dobře
větš
dokon
##nik
##šky
##enou
##cela
ban
základní
17
gra
sní
doporuč
##nici
##kání
##víc
##nými
přede
ad
což
ky
##čné
ubytování
##čer
teď
odpově
poskyt
pre
elektro
pozem
odbor
##any
##pt
podí
mm
mimo
pár
##nerg
pet
jde
##hl
##ském
byli
opravdu
tohoto
##aně
energ
části
##šší
skuteč
nejlepší
##hou
##rat
mohou
##bec
velké
tyto
##teli
potřeb
##oví
kterou
rám
umě
vlá
čt
##art
lep
dé
##les
nut
společnosti
##iti
době
náv
##emi
##arma
důvod
##ovatel
##šel
##ard
zvlá
tri
soutě
dostup
eko
zab
tady
##ke
##stau
spoj
##ge
vide
obsah
řek
umí
tla
několik
rek
možné
objed
fran
##nka
restau
##op
##til
školy
proč
##řá
ny
člově
recen
počí
akce
##tom
##hot
pravi
stud
jim
nor
##lek
cu
##ost
lidí
kontro
##šenství
dítě
##ence
##ment
##ňuje
##ine
##klady
##četně
##gu
doku
požad
nastav
##ško
max
tex
oh
situ
člá
kul
měla
příslušenství
vaše
stejně
kab
men
stále
záko
včetně
povin
##řejmě
vybra
obec
bal
sup
##děla
##fer
eu
dobrý
prostě
her
vys
##uji
myslí
toto
##kli
##vatele
km
##om
napří
fa
##ovy
cz
tis
##koliv
vzta
země
top
studi
##telu
sebe
fotografie
##ůj
sem
##vající
leto
##žní
##tka
připrav
##inky
polo
trochu
otev
ha
##rem
##her
pí
ser
##ig
ori
spí
##zdy
popis
les
##istor
##enta
zdarma
##ména
##pozi
smě
ver
jednotliv
řízení
##ps
vl
příspě
jiné
##cem
##líb
člen
zi
##lej
oblasti
během
##ická
návr
24
poji
kal
politi
zda
zdravo
nabízí
provoz
ab
sty
cho
##čního
zprá
40
histor
hotelu
##ár
sla
##spo
##nd
kur
dalších
cest
čís
vody
program
##bal
naši
##aty
##ul
##álu
Česká
##lech
##šeno
##zv
##etí
dosta
například
vytvo
závě
##čů
zji
vzdělá
navíc
##vek
vůbec
##řel
bezpeč
život
##dobí
materiál
##ujeme
dál
neza
rece
větší
##sel
neví
##eň
nemov
kategorie
or
hodně
např
##anou
motor
##lace
kolem
ochra
nejen
vši
předmě
##stech
urč
kor
##lerie
##nku
##ák
proná
tech
opět
##ický
nová
postav
##ář
##ývá
##hr
práci
##chi
děku
čty
##děj
jednodu
##žně
##ovým
disku
##vším
prostor
##lice
sko
územ
původ
blí
##níků
##vací
##sů
##hodou
možná
##gen
výbě
super
soud
tre
zákaz
##ev
proce
koší
pé
rámci
nabídky
využí
##plně
##čem
samoz
sed
##káz
dom
úda
60
rodin
##der
především
chod
##sla
##nitř
zase
něm
bohu
skladem
zví
nemovito
zprac
vých
svou
zajímav
kuchy
zpět
prez
res
ši
poč
##nomi
projekt
kultu
prostředí
kvalitní
stří
##ju
jedna
někdo
nebude
vybav
měst
produkt
##hlé
příjem
doplň
##pas
součá
##hat
##šní
##šlo
Čr
##rek
##rky
dobu
těchto
chla
##pravy
máte
psy
obě
celkem
##liš
stanov
bi
mili
hosp
obraz
máme
autor
##ana
typ
kontak
kup
21
celý
##ckou
##prá
vstup
##itel
##čil
tou
##fika
##sem
ot
##cie
pohy
zobrazit
komunika
jas
##lin
domu
květ
##emo
měli
##ických
násled
teplo
stě
22
obč
##oved
evrop
domů
skvě
##běh
##rom
kdyby
tomto
schop
smlouvy
set
nejsou
##nil
funk
můž
##hledem
internet
doma
lidé
vypad
##měř
##kres
zej
##eného
ostra
vyz
jednou
##nolog
zapo
##sad
##kup
pomocí
00
dům
zná
přístup
nikdy
##stro
##roveň
tv
muž
##go
správ
hlavně
toti
závod
##krát
zů
přidá
##pro
nyní
##prava
působ
rychle
zkušeno
##ovaný
##gi
##šti
přímo
##ely
týd
oby
ply
##kam
srovnání
tvr
##sek
svůj
výkon
##sté
prová
hr
mil
zkou
oblíb
jedná
zejména
firmy
pen
ope
důležit
##stan
příro
umo
řad
##stit
ju
dětí
##kal
tuto
##tou
recenze
svého
##čko
mam
všechno
velký
##hů
cit
##ket
ml
něme
zvý
společnost
totiž
##ledující
rodi
##alu
mon
okolí
ang
ká
víc
##obě
rela
##ér
##šek
neb
dat
##tera
sva
cy
informací
aktivit
fotoga
minist
##vám
všichni
tvo
řešení
##žství
##én
##ech
těž
krát
klí
nemě
##end
##ovém
##enci
zaměstnan
uzav
##ili
##sit
lepší
nako
začí
hry
##kovi
23
opat
praze
dnů
úspě
##ován
tva
hned
amer
váno
##átku
pěk
nav
jazy
##ia
byt
fotogalerie
leh
patří
##žky
restaurace
para
##ss
kry
##bá
ly
dobré
nemu
dodá
dám
##nce
technolog
hospod
koupit
oz
##cent
##xi
jaké
škol
prakti
##díl
pol
##álních
slou
##věd
##est
##ským
všem
##děli
##aný
určitě
věci
##ila
zas
##zeň
pozor
sice
##rum
##ron
různé
80
zákon
mnoho
naší
Čer
návště
samozřejmě
košíku
##kám
##hodno
kromě
post
##kali
výstav
souvis
##zuje
inve
právní
##ot
spotře
období
osobní
##nic
##lání
léka
stře
koru
##ft
##chom
použití
##zit
sá
celé
##kty
zvo
##átky
##spoň
##eti
##ell
služe
indi
##stva
ome
##kově
##rna
účast
##sil
##fon
mlad
největ
zápas
##žší
##koj
fot
poh
##oby
##ala
místě
##aná
##dění
letech
obce
počíta
##cím
druhé
adr
místa
cca
med
často
chví
ozna
pomoc
nikdo
pav
##čkou
hledá
červ
sc
##dce
dve
##zen
pronájem
##rch
##zá
zákona
##tivní
význam
zákla
##rání
##nické
##rně
film
##čním
##ději
##res
##lně
minut
klasi
nakonec
199
bře
prodám
##celá
tá
voj
##stal
uživatel
##ovaných
mlu
##kům
zu
nemoc
odst
profes
##vil
cha
##nak
uložit
strany
##hli
##dra
##ložení
aplika
kolo
##rak
of
##mati
zdraví
##hléd
ost
týden
roky
##ována
##bem
##ino
pova
doda
pokra
hru
uči
angli
sám
ber
jej
výraz
čtvr
součástí
##dal
zahrani
nachází
ší
the
pam
35
##žen
##zaci
##inek
nemů
##řen
buděj
##lečení
vyj
ať
profil
##ilo
mobil
zcela
##atu
jedin
##pozici
malé
kg
svých
kri
##dle
chci
metod
myslím
##cháze
koment
pení
kvů
fung
##krá
kvůli
jsi
nev
##koli
velikost
##pon
##lova
jmé
neo
knihy
dovol
ekonomi
rozhodnutí
navr
dlouho
pokrač
##něte
##pla
sví
svým
##kami
dní
bran
znam
množství
##zev
tisí
##kových
moje
##něž
adres
##jezd
hled
bav
##alo
lety
##telem
blíz
tradi
##oucí
peníze
por
##letí
uživatele
rak
##vyk
služeb
kuře
dokonce
##ovaná
##šku
hlu
přij
exist
##zní
##gy
##hnout
##ok
fy
90
cenu
##řice
systému
prove
fe
##bod
##tně
různých
en
##telné
##ktor
zájem
stavu
26
výsledky
výbor
méně
dlu
##šla
pru
spoluprá
jab
základě
##tické
##cka
tým
špat
ide
##tin
##jů
úplně
diva
sled
příprav
ovšem
komb
vozi
zároveň
28
##mp
##ten
##žné
pán
sociální
největší
území
úřad
znám
kost
pravidel
velk
sez
sho
##hi
stup
##vku
part
života
někdy
##ness
poho
##opak
bram
dny
##stvo
##jmu
vra
světa
barev
##ováním
hvě
##bili
##br
záva
člověk
zby
uží
##hé
baz
jenom
odpad
univer
##osti
video
27
dispozici
##čce
##dec
tran
##zka
##cti
seni
mohl
##ovány
##ian
##novu
polož
okres
peč
bá
osoby
##nal
občan
některé
spou
rád
tohle
byd
##ií
takové
vyrob
akci
dří
##lých
##vem
půl
ps
##hledá
##ure
pas
##tal
fyzi
požadav
##ovalo
mag
##stů
sobě
##risti
kře
bio
##kat
sal
dostupnost
večer
chu
doby
ště
##ováno
99
téma
hmo
dělat
##tuje
umož
nevím
celou
vrá
##zer
zvíř
##úč
##kré
orig
ut
tru
ca
##zni
téměř
bru
projektu
povo
boj
dv
následující
brno
papí
##nému
činnosti
pohled
29
děkuji
manžel
vyšší
##ického
rez
ge
díl
ww
vál
archi
##mysl
and
lou
dokumen
nalez
relax
půj
budějovice
bohužel
##hledu
kre
stru
##ovky
dosa
##řil
ovlá
roční
králové
elektri
přesto
přá
televi
podni
70
vhodné
tabu
##lie
zach
poté
##boru
45
##tý
aktuální
námě
##ker
kancelá
kabel
vnitř
##ďte
vzdu
poru
komi
název
komple
sle
mla
##fa
maxim
hou
##ráž
kone
##kovou
programu
##raci
www
##chozí
##méně
##xx
##orů
##strukce
budu
##aci
anti
lidi
lux
##žití
web
potom
dou
##dál
svá
##ativní
termí
vznik
##iska
gu
obsahuje
##entů
spokoj
jednání
ple
fakt
deta
velice
nevi
rekla
##níky
zakoup
ků
umístě
podpo
klid
desig
jednoho
žádné
zelen
brambor
##ince
##ety
můj
dohodou
pracov
staro
udě
oce
plán
##váme
oblečení
zaká
##řené
pev
##aných
konkré
##ioná
roman
podstat
model
##řka
směr
000
péče
vítě
záje
pom
poš
budete
znovu
zastup
heure
zt
##tit
předpo
trá
prosím
##ren
horách
průbě
##řa
souhla
funkce
##kování
bole
váš
nena
napro
psa
##pod
finanční
##ari
##bit
skon
##terie
mou
účin
##nej
zám
##slav
vlastně
odpoč
korun
##jících
##ler
délka
bezpečnost
nu
najde
minim
telefon
náhra
výběr
stavební
nějaké
vík
chvíli
##vala
výše
odpoví
##ir
okam
řekl
sub
kola
rádi
vybrat
náz
uli
třetí
Ži
potrav
##luje
##rka
##fu
##žil
dřevě
##pá
tem
potvr
##oo
udá
slav
##fin
zlo
31
naps
atd
naopak
říká
můžeme
Ško
poměr
kolik
přesně
##zovat
stojí
zb
olo
cvi
několika
##xu
##kci
dospě
prod
nedá
##řilo
upo
##tního
regist
##gan
##rk
##tace
rekon
straně
bro
gene
stand
##ín
##žené
##rojů
sobo
Čes
kama
průměr
bla
##mit
olomou
##inka
věc
přísluš
podpor
kří
ves
san
ček
způsobem
koupel
data
##zdu
kru
vliv
kat
problémy
pocit
ukon
klá
cer
ředi
##klo
polé
žen
probí
plzeň
##ější
sebou
paci
myš
rychlost
samostat
hlas
nebylo
##cou
kniha
##dil
py
předchozí
zástup
výmě
##enka
jednu
auta
dop
##dky
společen
##mus
maji
##álním
##sled
luxus
vidět
perfek
vedle
efek
vedení
muze
odpo
dělá
ram
##čeká
vývoj
nabídka
polov
##lec
účet
doplňky
##qu
32
kov
##čný
há
recep
500
##maz
hez
##ré
podla
republiky
doká
získá
kolá
svat
##dem
nového
kos
##nuje
##rý
zru
ním
red
jednoduch
##enky
smlu
##prve
paní
pozi
##nete
zájezdy
##vost
muse
##dělení
meziná
vzor
sně
viz
##kova
##idi
##zně
charak
jmen
hol
svobod
nemovitosti
nepří
nau
varian
rozdíl
##ovaly
samot
provedení
##stří
##asi
##var
řád
veš
vzdál
zdravot
##ovými
času
##ary
podmínky
##átka
##ple
norm
##lil
skří
##níci
abso
blo
nejvy
žádo
sen
mini
##logie
hav
ovo
##čin
vzni
pohyb
opti
tan
západ
zvu
##tura
málo
výko
##ckým
jednotlivých
výši
lit
jaro
nebyl
ženy
potřeby
hud
nejd
považ
tém
oči
letos
well
labem
alespoň
servis
hradec
resp
##adí
##nech
##mob
pohod
nechá
chcete
origin
upozor
##nách
sportovní
##vili
##tt
peně
vysvět
##vice
##cu
praž
##avou
příliš
zastav
##lová
níz
##eru
89
jiných
kamará
##line
reži
vyh
chal
náklady
##ením
##rovna
##řů
##war
##sf
del
mohli
##ladu
mate
zad
budeme
české
jedné
objedná
menší
##šli
proved
aktivity
sloven
##ickou
rizi
##šené
##rální
východ
##řadí
##šte
nějaký
vzhledem
##cház
##lety
situace
smr
našich
podobné
chtěl
drob
předpis
ner
stock
zahá
dub
##cy
##kového
rozsa
dětské
##itom
##skem
##níku
##ita
pode
dopravní
návrh
mlá
čist
přiz
úrov
##lín
dovolená
drž
přihlá
jiří
úko
wellness
opak
partner
schvá
obou
##čná
plast
proces
##sud
##zim
sý
##tím
dotaz
hlad
hodiny
##delní
##nkách
ag
doba
dlouhod
skupiny
světě
užiteč
pok
přev
nutné
takový
insta
organizace
zra
sti
maz
očeká
poško
úto
telefo
##huje
náš
druhý
tzv
test
rostli
##čila
##fe
ben
##lada
chrá
náklad
provozu
později
svém
lev
##ery
příspěvek
teh
stránky
ostrava
moti
##zené
##chů
##hody
překva
##xy
zmí
nemusí
nových
##ines
tisíc
odstra
titu
ceně
ušet
činnost
kop
petr
většinou
starší
##eným
##koho
přidáno
##čt
kterým
##des
zim
penzi
běž
snaží
komunikace
nád
spíše
##tko
##pře
platí
36
mora
##rávně
fan
zís
79
we
##dají
sh
zvy
porad
##pravu
velká
##rací
pomů
69
soukro
##ktivní
investi
75
kterých
spole
##inci
tlačí
om
##inami
přílo
sb
nebez
střední
číslo
nemůže
list
právo
##lku
minister
##lti
výzku
vaši
##kan
##štině
##př
mne
##telé
zlep
možnosti
jaký
##pově
##fikace
##vnější
##šil
aku
kol
prode
přitom
osoba
##vědo
získ
republika
##veřej
##kládá
konci
jméno
přem
##dím
##žený
##více
vede
balí
obchodní
##nila
cesta
nel
##myslu
hude
syn
brně
vyhlá
##ích
rozší
zav
seniory
mist
poda
uprav
zastupitel
val
##cku
trest
##leko
voda
prahy
##nami
předsed
podrob
ped
státní
zážit
slož
změny
##stava
docela
vzá
druž
moto
##tení
##enty
uvá
rovněž
pomá
vítěz
jídlo
vypl
jem
apod
kři
trhu
skoro
##inách
úspěš
mech
pamě
lan
jar
oba
žádný
##dka
rady
##ord
posu
hmot
soubor
cestu
barvy
turisti
relaxace
##enost
liber
fotografi
##poj
stí
balení
##lého
##bice
##chov
případně
lam
nejvyšší
##řím
znamená
seznam
sada
jež
##entní
aktivní
tvor
ing
uděla
každé
lokali
##alý
blízko
odpočinek
dan
sama
luxusní
zpracování
nastavení
nepři
300
zkušenosti
potřeba
sami
dav
stran
dvo
pět
mělo
##kladu
prázd
draž
daň
##áky
pouzd
Ústí
##měru
##cího
stačí
##rami
příj
##ča
win
baterie
ráda
reak
vit
##tro
profilový
##stroje
##ujete
mak
sig
naprosto
detail
##git
##ik
sd
##hor
montá
býval
##kala
bor
názor
využití
poro
##ité
tímto
pově
knihov
byty
##ton
hlou
##éru
##ckém
děla
vzpo
bou
##vence
dámské
##che
sym
##dali
hři
ilu
apart
lin
tělo
chalup
##mr
##toru
průběhu
čtyř
##ja
are
##rku
podporu
bychom
automob
brá
zprávy
ukáz
zásad
sním
vzdělávání
dvoj
stavby
55
##ster
##dila
##laci
##pisu
##žu
některých
recept
povrch
nákup
opatření
staré
ned
59
kraje
vánoční
##ůl
pokoj
33
prvním
medi
##ály
speciální
##nictvím
zh
majet
rozhodně
mlé
najdete
##mít
##ph
##lon
##spí
společně
obyvatel
pozná
jiného
##tečně
zeměděl
jiný
rozpoč
místní
čím
nevě
výu
##ovaného
##lus
sé
pal
smí
##ít
škola
har
aho
nema
energie
##pres
zemi
##díme
údaje
##kazu
čes
závis
nelze
klíč
##ity
popr
insp
dopad
prohlí
deko
2016
##inace
víkend
39
otevř
začátku
##podob
novou
celo
##kos
jistě
vybavení
podzim
##ektor
is
občas
##vejte
##oná
problem
heurece
han
náměstí
nimi
typu
dy
pardu
udělat
formu
ruce
věn
dodání
2015
gr
odvo
paramet
zdro
značky
martin
moderní
dar
vytvá
sever
čtyři
##nul
perfektní
řidi
mik
budouc
vnitřní
##sh
vybí
doz
soudu
##stické
šp
##pou
##teční
léč
##mar
potřebu
těm
širo
pad
##kých
ztrá
##cvi
vyž
scé
čo
##cko
##rostřed
##ýš
##ur
tera
##řem
cílem
dce
pomoci
počas
Ří
polévka
soutěže
##stává
49
pros
maso
mně
htt
##tila
zr
domy
##tury
##sně
##vin
zajišť
národ
prostřednictvím
poj
##ovení
září
##ung
klad
65
zlat
hračky
uva
měsíc
regu
spl
car
většina
abych
umění
##zel
##klid
zdá
##lostí
premi
##mem
tvá
oprávně
vyšet
kvalita
##vidu
2014
##vodu
vypadá
článek
podá
mikro
obra
sledu
##stil
##lík
kapa
ii
##inaci
##dala
vešker
150
ane
mohla
důvodu
mnoha
##šov
hvěz
ustan
##rech
##kur
##lor
ahoj
mnohem
tisk
prostoru
horní
##jíž
sklá
jeli
záru
barva
nově
2018
ově
důležité
došlo
pořádku
energet
nepře
jose
obvyk
pravdě
odol
skutečně
usa
práva
drá
velkou
produktu
tab
speciali
##žila
máš
výji
zla
info
někte
zdravotní
příležit
rozvoj
##čen
zahraničí
cuk
plně
##stý
tj
čem
vyhledá
sli
##cet
počasí
##elu
posti
koláč
vyzkou
##ění
současné
ole
příští
škole
olej
nemám
##telný
##ral
filmu
poprvé
##rny
pek
##ago
##přejít
kčpřejít
tolik
neboť
digit
vydá
vysoké
34
použít
aplikace
com
##gh
druhou
lod
vyjád
še
uplat
##ger
šan
našeho
podnika
hře
pon
odpověď
2013
mó
mor
pokoje
2012
situaci
hroz
karlov
dostal
##uj
##mil
takto
hro
##účast
poly
aktuali
##ovka
es
##kovice
podě
pohád
sportov
pne
používá
babi
text
původní
kalho
##ama
##dli
nabízíme
byste
kategorii
demo
bun
##adu
nesmí
materiálu
zne
##roti
nebyla
##lady
mus
slova
sklen
##ština
připomí
prý
ovliv
nem
publi
##onů
krásné
zábav
hlá
souladu
zahr
##enosti
nezá
učitel
##ic
čl
##spor
##ití
##sť
##bytek
noc
francou
kterém
qu
hot
pole
##znamu
uká
tomá
brit
musím
##sle
2017
utkání
jehož
##řství
nejde
##nali
bohat
růž
venkov
plnění
38
con
napo
##rodní
##ram
výrobce
vác
národní
století
##níka
##vení
tur
##šuje
spolupráci
douf
mysli
##áře
naj
##ivní
##vol
af
spotřebi
firma
##álního
##ledne
multi
postupně
vedoucí
##we
lyž
neod
doru
spíš
obsahu
ráno
někde
design
působí
##voje
kuchyň
stoj
cesty
sklo
##žili
dlouh
2011
užitečná
sestav
smluvní
omá
městě
##zací
doporučuji
##stitu
pc
##ňují
##čuje
hasi
pravděpodob
graf
struktu
těhot
celá
dříve
rodiny
osla
objem
kot
##kají
##jších
##hodu
radost
trén
firem
##ón
vlasy
jakou
Že
##dé
muže
opera
kterého
obu
rezer
izo
konfer
měsíce
jez
přehled
odh
mis
morav
dalším
dát
tvoří
nejvíce
##čím
veřejné
věku
pred
výroba
snadno
##kovat
policie
rý
zhot
věcí
##enými
hum
ušetří
uspo
měsíců
výstup
##měry
ulici
##kým
článku
každého
produktů
nepro
##kraj
bet
2010
apartmá
2019
##gr
musel
popu
udrž
hlí
##pětí
##čín
interi
agen
el
ředitel
42
##jní
prv
nek
tlu
str
posí
##stře
bytu
##lce
hodnoty
##bava
fotbal
mohlo
bl
teda
posledních
ran
tehdy
##štní
našem
vepř
##jak
kontakt
##dý
vyrá
had
jiho
produkty
##ves
rodiče
leg
prostředky
##xe
body
nato
pozadí
##stroj
##ovanou
far
nas
kamen
defin
možností
##drží
jedním
ochran
##lel
kó
##ika
následně
zept
##blí
##ws
sbí
kosmet
autobu
##nie
začal
salát
dosá
##olog
zrovna
výrobky
vlož
litera
##telně
šť
vědo
##dací
otázky
bri
letní
uvi
vystoup
##čeb
##bri
online
naz
##boo
zadní
pedago
##nili
polici
##hrad
##rál
napad
##jetí
raj
trou
usku
přijde
neob
technické
rychlé
##chodu
buď
vyber
turna
písem
prací
##zra
nicméně
srdce
individu
##plat
##fici
line
krém
francouz
člověka
nechce
správní
nemovitostí
malý
note
reag
objedna
nějakou
##zích
poví
sly
ideální
zveřej
daleko
centra
##běr
lož
příběh
pozemky
dveře
##ledek
##řet
pěti
seri
lépe
nechtě
klo
ih
##leb
zbra
výkonu
##čera
líbí
jich
sníd
van
hodinky
sítě
najít
##řít
přece
##žuje
##ban
měly
počtu
##ks
##vno
internetu
psycho
pořad
oto
píše
##lím
##zování
gy
podmínek
##rej
zúčast
soft
zdroj
ph
velikosti
rada
setkání
hrát
novo
##prez
kapacit
maximální
životní
přední
umožňuje
##adla
troj
dnešní
##stopad
komise
začíná
95
takhle
poziti
kdyz
elektroni
výz
##razi
náročné
založ
37
profesioná
ptá
mezinárodní
říj
skla
##rovná
technologie
jezd
šest
mail
fu
měsíci
aj
vystav
osvět
dítěte
ilustra
##něné
##pů
klub
noci
ul
přítom
ihned
malá
automat
dobrá
##hoda
##střed
kle
vím
říct
hal
##fle
důsled
im
ska
##odní
##ony
přírodní
centrum
inf
žena
přijí
posla
##enti
##ňování
poměrně
##bora
##rovat
festi
##látor
konec
domov
ruka
blu
týmu
85
##lar
##oda
jana
konzu
##dělí
##tov
##řila
listopad
ztra
chaty
díly
##chem
##řením
konečně
kuchyně
kuřecí
teor
třída
##ld
soupe
gó
subje
evi
vin
##vila
stejné
pojist
hon
##chal
##rych
stati
euro
mr
##rii
nabídku
##nos
překlady
##lati
pojištění
funguje
myšlen
hrad
chtěla
##tat
##kona
ustanovení
zákazníků
jít
lak
plánu
uv
mohu
jeliko
##ruba
bydlení
##šně
navští
strana
##ff
evropské
inform
mazlí
zaměstnanců
fá
reality
##cům
##bky
zatímco
zakoupeno
##mali
ocho
bílé
návštěvní
##žek
hel
práv
námi
prohlá
zobra
monit
zásob
zpra
králov
obslu
##hne
host
smet
dlouhodob
stroj
analý
##vace
trené
vodu
sobotu
nájem
##hlo
objekt
##říz
chem
celkové
av
konstru
Čí
zo
##aru
##skými
##nějších
go
rozhov
domác
moci
tal
stroje
trans
##ore
síť
##nt
##iden
zabez
poznám
přiroz
stříbr
obo
bílá
##kazuje
zava
stranu
formá
podobě
such
##tex
údrž
zřejmě
bodů
##car
##nová
slouží
převod
obci
nádher
##kl
mláde
atmo
spis
strateg
stávající
##hání
oblast
##leží
ona
##pen
fotografií
400
přesvěd
absol
radě
roze
nejak
slad
48
čí
##han
jejím
požá
##stři
perso
kurz
##bud
koste
##čov
##bách
##ekt
čeká
##pravě
vzpomí
zách
##ident
##str
nápad
mý
dro
wi
##onu
##kolá
sdru
univerzit
vaší
festival
děj
##stane
dětmi
##bilní
využít
střel
##ací
vztahu
##ickým
institu
kní
##dav
eli
##son
republice
##tej
##átor
##mech
divá
rou
poplat
##dlem
##ingu
zhruba
vztah
osobně
##iště
nábytek
mani
neda
oddělení
##pisy
ono
##vce
##óny
server
usnes
přeno
zajištění
##vaná
rozsahu
##kého
venkově
krou
##nové
rekonstrukce
som
prou
##neme
reprez
kurzy
##entace
##čkové
jelikož
##čej
##čili
zmi
čtení
##ovatele
okamžit
hlediska
##ňte
cvičení
vždycky
jednom
nástup
tentokrát
pohá
dem
architek
##ion
možno
##bar
spolupráce
ip
##livě
##wa
ital
##kej
jenže
soutěž
01
kočá
##ant
198
kk
odpověd
jednotlivé
##valo
zimní
deset
ostatních
##zační
vej
funkci
moder
dvěma
sedm
hlubo
rokem
lidem
##nilo
you
médi
##land
vrcho
##énu
nábo
vaz
rukou
boty
chování
díla
obrov
##klu
extra
českých
komentář
atmosf
nářadí
dostat
středo
gol
##ační
třet
hudební
##tách
oblíbené
##mer
symbo
požadavky
##vač
##deme
vůči
pavel
přátel
roli
##desát
##vůr
fon
holky
2009
##tice
##nají
##čků
ošet
školní
taková
##vot
připojení
kilo
##žas
##počet
uvedl
##sen
podobně
abychom
##dl
výt
osm
tmav
##mír
žlu
princi
hně
##žka
kapit
inten
předem
odmě
stal
úvě
##átek
romantické
##ovu
##tít
červen
orli
šed
skupina
neg
pres
vlastnosti
naho
celého
nejdří
##nicí
##jn
net
dražby
prote
##chyb
stalo
dopravy
angličt
dist
mimin
mer
44
charakteri
##tání
kari
údajů
gril
##os
##ske
bene
##včí
filt
podařilo
špi
pošt
veškeré
nis
dostane
stránkách
franti
##kční
##kvi
##teř
nejle
##čeno
pozemku
##etě
úva
##telů
kusů
trh
zapla
poch
řadu
zastá
41
##čené
neh
##plo
vyvo
smyslu
správně
##stou
pošta
řez
zábava
120
##kcí
jídel
audi
##20
fotky
obrázky
pohybu
##emoc
##nově
gen
pátek
výroby
##elí
výsledek
zrc
náhradní
slune
souvislosti
připoj
delší
vysí
ruční
obvykle
##pce
navi
zařa
##zda
##inku
přiná
ústav
alkoho
okna
las
vysa
pobyt
úrovni
sni
##žku
##nál
fakul
fre
##padech
vzduchu
ed
##lační
směrem
##kud
##šné
nedosta
##éra
##mentu
##telná
dotace
##mal
bato
police
měření
##enství
zaměř
##řili
##čnou
katast
##las
##jícím
##jedná
domlu
##avy
výrazně
##pení
##roub
klubu
uvedené
historie
pes
získat
##rátor
úřadu
dokument
##ribu
##zz
rakou
tábor
majetku
krabi
začala
vyš
svoji
43
pravda
pohledu
vych
vzájem
výška
denně
rej
zeptat
smlouva
asist
nižší
bytů
##tern
2008
státu
ostrov
##uš
dla
verze
##vých
##žovat
##dili
onemoc
styl
park
nebezpeč
ukončení
soused
nichž
přibli
ohro
Ště
demokra
snídaně
nesta
zemí
procent
kompletní
##éry
##tili
##vané
##wer
blízkosti
těla
počítač
souvise
pořá
##anis
##čkem
##kovým
##hel
automati
obuv
komentáře
##adlo
fó
##inále
hospodář
aut
vytá
drží
mapě
kapito
životě
##díte
chalupy
250
sáz
oproti
##endá
vyžad
hrom
seku
slovo
dobrov
současně
sprav
želez
vašeho
uvědo
##niční
http
vodou
repro
nadá
zpě
teprve
níž
schů
zajímavé
oboru
##zím
sdí
zahradní
pracovat
chá
končí
záj
ruká
automobil
##ionu
prodlou
##aného
##sné
##číst
chuť
char
##čková
tomáš
průvod
##pem
řá
zpo
neměl
kvality
nemají
světlo
všu
vesel
vydání
komuni
druhy
##čích
vhodný
konkrétní
návrhu
časo
start
originální
prvního
##tora
okolo
skříň
##lené
##říme
neko
bak
##námení
standar
slo
štěstí
znění
žáků
##lární
ryb
lon
##oti
lékař
naro
posou
2000
lhů
čtvrt
orgán
vodní
##áci
muži
problémů
kalendá
pás
obli
vynika
ocen
hraje
řem
ulice
##nutím
##lépe
##tifi
ochrany
josef
tajem
zdroje
předmětu
nejlépe
exper
pracovi
podání
mobilní
##ped
ochrana
obchodě
fanta
sociálních
výzkum
metrů
čtená
napsal
##mení
soko
jednoduché
##sim
inspi
prezident
události
desky
prst
komer
##hrál
zvláštní
##zemí
##ňovat
##hové
zahrada
vozidla
spoluprac
dlouhé
rodinné
odkaz
plochy
někteří
obecně
milionů
konstrukce
zvířata
uměle
##vateli
##dejte
diskuse
##rové
přání
stat
uk
lyža
vs
##řování
##razil
míru
spu
spojení
##štá
dárky
dolní
##tních
zhotovi
##pri
též
disk
budovy
fle
##lenou
nená
pozdě
druhá
noční
mladá
##rový
chi
neni
nezbyt
vodě
51
##působ
přišel
admin
napl
emi
##lis
##anu
hřiště
minimálně
bezpečnostní
##pust
zep
brambory
dopo
změna
##mně
technika
##asy
děkujeme
##vné
peněz
poste
termín
použi
##lila
##cování
windo
počítače
řadě
##stěji
šaty
##etu
ema
zvýšení
těší
venti
napětí
market
musíte
face
##vuje
nerez
##éf
mého
jablo
primá
okol
##rtu
hledáte
dot
vlády
##iz
Ča
##ink
vitam
##poz
dosud
ploch
rozum
##lovat
cd
svými
pohodl
##book
##vor
2006
##ted
##pit
dodrž
stanice
proběh
##hal
vojen
##taci
případech
doved
stůl
##ostí
nejsem
dokáže
středu
úžas
skupinu
dár
najed
nejča
##hav
dia
hledání
aspoň
bit
parametry
46
předmět
can
příprava
olomouc
##eto
mra
fanou
tradiční
vlt
nemocnice
pó
vyře
cestě
používat
karty
et
##ničky
cas
##rátit
musíme
kulturní
zpráva
každá
##stov
##dro
návod
znak
raději
předná
zved
dárek
hranice
194
##hlédnout
letoš
##čením
výš
as
bolest
dřevo
třídy
dph
##žená
použité
cibu
##nut
##dané
ofici
##ších
pozici
okamži
doktor
softwar
##bý
chtějí
pát
konkur
sezo
složit
Český
Ře
zkušenost
odborné
ret
##šená
šet
zod
žalo
##kuje
ovládání
##ght
usnesení
tat
popla
nos
##nova
umístění
naroz
každou
živ
geo
##jel
skupin
formou
##tním
promě
##aněl
zadá
##líky
disple
důvodů
masá
objektu
##zdob
podlož
špatně
moře
kus
černá
stránka
reakce
vyko
hlavy
invest
dnech
dý
##star
prospě
čet
nohy
velko
plné
##kazy
univerz
windows
gar
##stní
přičem
##zují
sdružení
příklad
##vovat
kalhoty
brzy
elegan
převá
recepty
len
##drže
slunce
##čina
vhodná
řady
iden
standard
pomalu
nen
##čkami
listopadu
příbě
##alizace
hlavním
spoustu
pravidla
##ňů
vlh
##chat
prostředků
prvky
##th
řada
student
kata
cestou
##cov
přines
řešit
##loží
čerst
akcí
existuje
plus
##nor
2007
motoru
nápo
nejprve
##bka
krásný
smysl
jejichž
##zkou
##kupu
nejmen
přičemž
předá
pochop
uher
potenci
##cházejí
kupující
prázdn
nechat
ochranu
chybí
##íme
normální
##řská
výhod
##dku
vním
chybě
romá
daně
dochází
jedine
stabili
podpora
napá
hlavu
otázku
seznamu
okru
mimořád
##isko
ovoce
lete
najednou
rodina
##jícího
vymě
kraji
ciz
václav
600
vzdělání
inze
jaká
opravy
wor
arg
##níkem
##mile
##zala
jasné
jízd
##tah
integ
hrd
##hají
pravidelně
##reg
diag
stažení
závěr
poří
##zat
##pína
oni
pozitivní
uve
rozpočtu
ble
kandi
moment
komplex
##tku
opu
56
poraden
cykli
čokolá
muset
trval
chlad
##ovacích
##ng
doprav
včera
dětem
centru
ada
webu
rekre
prakticky
členů
##kázal
všude
##lůž
jihla
nisou
##loven
skutečnosti
##logické
tes
##tejte
srp
most
bankov
mrt
péči
##nné
ša
##lových
panel
látky
minimální
loň
ms
tim
kombin
knih
výda
přez
zlín
klik
##zvem
otázka
hi
tepel
##cené
##obec
částe
##red
vědět
##šený
dveří
##lým
zahrady
47
##znak
kriti
hledat
neděli
Čt
orgá
new
dobrou
mluví
administ
##lt
zaru
imp
atra
cuket
pozemků
hodinami
adv
##mb
propa
připra
názvem
kres
it
##tami
lehce
fit
ucha
vytvořit
rozměry
takovou
nepou
praxi
potě
##vad
##ria
distribu
příspěv
##eném
zážitky
lav
##mpi
##cházet
##zce
##činy
ulož
světla
pneum
maj
pali
lito
uhlí
mana
kůže
uvnitř
hub
výběru
dneska
##pečí
manipu
poptá
černé
##tivně
##pří
##lám
##stika
udělá
oře
ušetříte
fas
tričko
povinen
sex
začne
##aku
##lací
52
##čilo
exe
##tují
##sech
kláves
omezení
osvětlení
##jích
nástroje
##stili
fer
kerami
areálu
obtí
duše
obal
rozu
neustá
japon
zada
hli
##ex
představuje
196
polštá
pondělí
odpoledne
hd
léta
##bytku
praxe
armá
vad
play
##stoupit
rozli
dalšího
desí
##čice
fotograf
montáž
54
mlý
vyme
##tečné
modrá
složení
dílo
vzniku
pěkně
poškození
##boj
##pal
pokr
micha
##ckými
nezapo
pojišť
##enční
někoho
důchod
##leh
zajistit
##pie
##zivní
obcí
letošní
##livé
##ovaným
nabídce
##ori
##znamená
##hrát
##ros
přírod
porod
##vov
reklama
výži
##čování
poved
##kosloven
žádná
dekorace
##bami
glo
dojde
pravdu
každo
##ampi
altern
pedagog
##čník
bolesti
vylou
snížení
zaměstna
##šak
##rozu
karel
orlicí
týka
gran
boles
stál
vytvoř
pracovních
odpovědi
tenis
pánské
deseti
dává
th
jestliže
městech
opo
oly
textu
výsledků
obnov
##volu
domě
##chová
jídelní
nahra
nim
němu
výjim
##žování
přívě
rejstří
opa
okra
voli
##ovač
##hlas
dodává
port
kvě
výlet
svoje
pry
předpisů
dení
podstatě
žádnou
##vést
datum
sázavou
##hledně
vez
penzion
pane
ren
záležit
##jov
spodní
učeb
64
##int
úpl
##rné
avšak
hypo
nákladů
seminá
out
##cové
##chopi
goo
rekonstru
##port
doporučení
dokumentace
##čnost
##apa
##rovod
aka
částí
měk
zauj
##inové
nijak
těhotenství
využívá
##rová
logi
kav
##ys
naleznete
##jně
stránku
neustále
kuf
hvězdi
david
poslou
dohod
vrch
jiná
##ble
těstov
úpravy
svet
minulosti
přejít
vysoce
stylu
##lách
jednotky
box
poskytuje
rajč
##jedno
brou
vyhledávání
smrti
##lal
kanceláře
refer
funkční
##nických
tebe
evropě
##enější
vrst
##jezdu
dané
##tební
skry
##lán
městské
mistrov
zástupce
každém
pun
židle
vyprá
doh
techniky
skr
účel
poklad
jasně
##kace
stará
žádost
doporučujeme
##gar
extr
##šila
dřeva
voz
##sní
televize
leží
plech
hří
růst
touto
odmít
přím
##mní
organiz
##pky
##zet
domin
láska
celém
řekla
kucha
parku
tipy
##kém
obvod
zobrazení
poznávací
##par
monitor
přináší
53
nosi
##íř
zdrojů
systémy
smu
##tory
žádosti
mnou
mateřské
abyste
oleje
##ňující
materiály
rozto
pokro
katalog
životního
chtěli
něho
vis
##lina
ukraj
exeku
zvlád
českého
hráči
um
dostupné
vyhodno
ac
nezávis
prostory
##gle
ivan
miro
pozornost
nádra
prádlo
zájmu
bur
společností
##isku
legen
podíl
zásu
profi
##mální
likvi
odliš
doprovod
poznat
základních
začít
##nět
důvě
písm
##vování
##štěstí
onemocnění
vč
hospoda
##zech
prvních
vti
rybní
##vej
kříž
##lač
petra
vítězství
vztahy
bes
##vet
koleč
materiálů
plynu
krásná
nesou
výhled
vnější
přízni
osobních
##zny
##stek
er
##icky
##ést
cíl
můžu
##stila
##ňá
milo
ham
##bře
změně
potraviny
řídí
koncert
spolehli
##nuté
čase
kuli
tane
proud
brna
mgr
slavnost
tomuto
tiská
zdi
odpovídá
##bali
##sch
kilomet
pouzdro
##ling
lad
vozí
tip
povinnost
##valy
pardubice
podnikání
bul
klou
odhad
nadále
plný
##šením
dětská
preziden
##mazán
prodeje
##tec
navrh
doufám
rež
masa
##rativní
pomáhá
května
mine
##zali
zes
vzdělávací
klient
změnu
##vách
volný
klidně
nechci
jinou
lib
druhého
místech
##atiky
hov
úřed
##řuje
##jete
okamžitě
šlo
zbav
dětský
parla
těle
##kar
spočí
##ovce
mění
##dů
hradi
modré
bů
spa
##haj
lů
přemýš
položek
poky
zased
58
záměr
regioná
krásně
nádobí
kousek
realizace
##dim
vynikající
##vého
skvělé
záleží
##mlu
netra
nutno
##bat
chceme
podpory
197
povinnosti
dospělé
zása
##ilu
anebo
##brá
##tali
##mrz
gym
šesti
bus
lip
61
zapoj
kryt
fotoapa
probíhá
log
stavba
reprodu
##aka
ježí
dvd
sexu
dos
uzavř
##vosti
kontaktu
závěre
mic
michal
##padá
##graf
dole
režimu
provádě
stane
##ič
uvol
potí
jenž
reál
tvaru
viděl
klimati
předseda
seda
podnikatel
soli
pana
frek
##dající
pokračovat
dek
starý
digitální
##ředu
ol
##terá
spol
hygi
spr
##stran
hmotnost
Škoda
jednoduše
##hone
jaku
##kyně
evropy
emo
nábožen
##hlédnutí
##get
dřevěné
označ
svíti
bel
dostala
##štěm
přibližně
muzi
air
chodí
jablonec
pozice
nebyly
kyse
##ickém
kluci
##tové
pojišťov
vyšetření
místnosti
specifikace
pravděpodobně
smlouvu
nebudou
hově
stejný
##jede
wil
boží
mel
obdob
##sila
přechod
dívka
absolu
víkendové
detek
ročník
plocha
kultur
cíle
vepřové
všeobec
rozši
těžko
bli
licen
pouzdra
##rační
##čelem
oc
války
doplně
ana
##kontro
##lený
exter
pracuje
vybud
kvalitu
povr
ilustrační
kober
náram
stupně
##nské
spousta
Šp
odbě
##dci
manu
rozvod
usb
teploty
meda
informační
##nická
nacházíte
turistika
##ývající
##náct
##sat
chut
zámek
strach
rodinného
##sc
##ody
zeď
slá
vysoko
oteví
vlák
alerg
svému
český
milu
hodnota
telefonu
zápis
schopnost
jediný
nedě
verzi
lázně
filo
divo
netradi
průmys
##aj
##ovicích
názory
rozvoje
duch
druhů
tel
2004
buďte
videa
statisti
vyberte
týdny
stoup
##hn
napsat
hokej
adresa
spá
sel
bezp
##kaza
57
##cek
##řky
##pozice
hes
ač
epi
##měst
diskuze
kostel
##chách
výrobu
##ml
děje
šéf
##zované
neře
gará
vysokou
##tion
sw
elektrické
typy
rozhodl
sor
řetě
nef
##ris
##ation
soutěží
adap
nápl
původně
pobytu
##čných
denní
mix
moz
velkých
mazlíčky
vážně
piz
uvádí
hob
magnet
dest
uskuteč
jader
##nín
vysky
tlačítko
června
negativní
poti
##lník
##moc
prodeji
směru
vysoká
nah
sbor
menu
výrobě
otevře
dostá
správné
články
plyn
##šování
tvaro
##vkou
##brat
az
výrobků
ovlada
##tla
##orit
samolep
udr
prov
voleb
hráč
skutečnost
rozměr
vychází
koncent
zbývá
##hly
sluch
nasa
sleduje
hodinu
##lejší
dvak
předlož
pobo
##myš
nejdříve
konzer
podívat
dubna
miku
blog
mart
##rali
přil
změnit
off
infra
října
pej
##mila
zodpově
nů
ohledně
zdů
uvedených
##lovou
neva
##letu
##iky
##áku
ministerstvo
podpr
těžké
loni
zítra
křesť
jeste
ako
forma
koně
##rají
šanci
týdne
##dlí
fla
strom
úter
lah
nejvý
krok
der
vodo
##ními
oznámení
přizpůsob
venku
jiným
##žeme
mohly
karlovy
stala
##dři
##mon
##cová
dod
výtvar
druhém
##žet
světové
##ilí
vláda
dala
analy
představení
museli
##liny
Žád
šířka
břez
ročníku
bed
specif
##ki
rozví
vnit
800
rozhodu
manag
nene
pozd
eviden
Čas
projektů
black
##klada
ští
funkcí
filmy
zni
čaj
uchaze
##říž
žal
síly
trošku
##nička
dobrod
jisto
##razit
říci
##stala
redak
2005
příjemné
olympi
##smě
dolů
##ovné
horší
##xxxx
zálo
veče
dokud
divadlo
ond
tašky
tlak
nesp
správy
adventní
univerzální
ukázat
kód
zŠ
##ici
šla
řemes
automaticky
mezinárod
předpoklá
památ
používání
zabezpe
úroveň
nava
minuty
kontrola
##tám
##ben
energetická
##bů
procesu
dola
##gá
majitel
studia
řádu
##blo
papír
##endu
##čo
koši
odstav
závaz
maximálně
potřebuje
fond
neroz
##voji
nahrá
limit
profesionální
spojené
jinde
úvod
výlety
natá
dobrodru
##ujte
##orem
nejméně
mnoh
česká
velkým
přispě
rodinný
##out
##žná
zahrá
##nala
##jím
##pp
##vaný
osa
##vače
jarní
chlu
potravin
označení
Ši
##mání
dvakrát
brod
bývá
vet
soustřed
posta
nejlevnější
##pání
##bel
zip
hoř
Čá
vltavou
instalace
##žením
##obchod
obr
##lením
takového
##cher
skvěle
sams
běžné
nádraží
stani
stránce
kontrolu
brý
žáci
zapeč
matem
stad
hovo
čísla
##íny
jazyk
rostlin
dodavatel
##tné
##slava
dodat
procen
##stev
fondu
eta
##inec
apartmán
dort
edit
##zena
míč
schod
##átko
stěž
vladi
ruku
1000
uniká
účelem
tun
chlap
přišla
liberec
vypo
##entu
hory
čištění
unie
silnice
pit
vámi
papri
##nicích
##strojů
jím
krev
##soby
##doby
jakmile
##tala
jména
čtvrtek
09
195
nějaká
sezó
vylep
smo
##měřice
uply
úlo
hř
kandidá
potřebné
##sové
veřejnosti
přestože
domácími
modely
musela
literatura
63
##cip
malo
všechna
zaslou
poně
##knout
jindři
##nální
šťast
##odo
id
knihu
##řských
##dilo
vyrábě
vozidel
##ův
##stoj
gre
přís
tvrdí
krité
kno
chystá
týká
##toři
služba
##vez
převz
free
studie
série
tvar
sýrem
sma
netu
##kládání
kultury
66
dostali
##slo
oken
hovězí
google
jednozna
historii
ledna
průzku
berou
##lip
tvůr
hotelů
přírody
prince
zachy
sprch
##skému
volby
pomazán
slab
##bert
zaháj
cukrov
##fil
68
vědomí
pravé
metody
klidu
posil
Či
odstranění
chvil
bůh
akadem
##zních
bazén
afri
##zený
##pec
zajiště
##čena
technologií
programy
dalšími
radu
##řitel
kterému
činností
lis
##čného
vybírá
##kální
##čině
nepod
adresu
##nický
látek
neměla
dokona
uživatelů
odes
modu
víno
planet
letiště
##islav
##booku
nejspí
barvě
integrov
individuální
##žer
##kladů
##menu
sval
##pevně
zam
trička
ara
venkovní
##ovést
jižní
postel
vzduch
zvířat
sad
jejího
nebudu
zahraniční
těsto
dez
zahradě
zakázky
mp
varianty
akumu
filtr
demon
##lic
##ale
zdob
vašich
##ovic
cestovní
##lela
využi
kapu
rozdí
užívání
novinky
třech
##ise
zasa
kterými
související
zavá
##spek
surov
##lína
termo
##nějším
databá
##třeb
stisk
bílý
věk
hodí
zpravod
boleslav
##čkách
ukazuje
komfor
přeč
přer
bři
získal
##lili
novým
preven
zapí
ohledem
nabídek
kusy
Šum
##exist
doty
koupelny
##pka
postele
hudba
##lava
##šice
léká
vzdálenosti
krajský
obor
titul
bezpečnosti
jakým
realizaci
cestování
tématu
března
šat
kočky
blá
Úřad
##chodem
##zou
chro
stres
vary
albu
dobrovol
jídla
##stky
nejmenší
##kované
dov
##rátu
marie
ohodno
veřejných
mladí
chle
##leně
##komu
pohádky
email
nejnově
hodnotu
cla
nejed
193
pohla
vyhov
výboru
pravo
lesk
robo
léči
pěkné
em
hosté
mari
smrt
otec
redu
##padlo
sledovat
marketing
74
##itá
pěkný
tudí
all
povolení
gala
banky
naštěstí
zakon
hej
nedoká
ruko
##letý
mladší
pochopi
abs
##cii
regionu
##sala
vaření
##teru
zelené
##něných
zpátky
všeho
##rovnat
cou
##šu
podi
##ráty
02
přístroje
##dám
ovoc
##žný
##mec
těles
ir
vystoupení
napi
zajišťuje
samsung
gri
neú
obyčej
##ance
příležitost
##dace
divadla
##něním
##gace
formulá
heureka
zvyk
přítel
formě
muzeum
##álky
##dov
##lii
projekty
stává
aplikaci
paměť
sun
komerční
bas
spar
kas
fotek
bob
##mění
##šovice
akor
mluvčí
malých
vlastnictví
62
novém
celkově
poskytování
##voká
##mene
neexist
##hování
180
současnosti
nakup
##ovaní
průmysl
##stin
vidí
přehrá
##oth
koho
platit
frý
sněhu
##kovy
osu
kame
prodejní
kotou
kalendář
mechani
mladé
jménem
iv
kombinaci
##kost
blan
úro
komplet
odvá
gól
zámku
úterý
narozen
zahájení
výrobek
##leté
Čs
##ujících
prodejce
čeho
tudíž
nemáte
mírně
dlouhá
##číme
ruky
závěru
stre
##žených
nejvíc
zajistí
labora
mes
příbra
##líme
##zeny
chyb
kartá
paměti
plu
##aným
##lému
mrk
investice
teplota
ali
##něn
vzhled
zůstává
kuchyni
kontra
refle
příspěvky
společné
splá
##cel
pití
nedostat
nikde
zaměstnání
počátku
vidím
schval
ohří
odpor
##nus
věde
níže
finále
přírodě
ae
žije
němž
nabíje
provozní
zbytek
vyzna
vánoce
cor
klasické
takze
vyv
##razí
hradiště
itá
tenhle
72
##kář
##entaci
flor
revi
tí
dneš
velikono
dlouhodobě
řidič
konf
lží
system
oran
here
dali
vždyť
krmi
jaroslav
bezd
zvláště
režim
lásky
modelu
vysoký
výjime
vlo
##stavě
soukrom
##tiv
víte
##zové
návrat
vle
taj
zvě
rock
barevné
matka
objeví
ohledu
provést
pono
##též
účtu
##nich
Žď
ministerstva
jičín
hráčů
##hop
cyk
##lních
prsten
##har
prohlášení
zkontro
##leno
absolv
nejbli
stři
##mout
maď
##vatelem
budeš
určité
budoucí
jediné
vrátit
##livý
několikrát
rychlosti
červené
objekti
dokonal
Čech
aniž
dlužní
ný
##lia
zastoup
vyprac
##wn
##iness
hlavou
účastníků
nedávno
koncem
##řený
Česku
##smu
témata
##ovače
##vních
starost
##žela
galerie
fajn
sedí
malou
gro
##pan
##lejte
nejčastěji
##dně
##hodě
riziko
zvíře
šel
##čany
topení
harmo
takových
kau
začali
dni
##forma
rozsah
odě
pomůže
77
zeleninou
důsledku
poradenství
bodu
##žnost
volné
komunikaci
sledování
ozdob
98
##lant
tram
kun
##mel
balíčku
##tný
##aky
##latí
##tes
jede
kombinace
představit
brzd
nařízení
dodavatele
uspořá
pohledá
##ňa
generace
pleť
zkra
netradiční
polovině
dostatečně
buch
vidi
výrobku
podez
udělal
zah
##tré
sítí
vyhrá
##denní
##matu
napí
úča
cukr
pomazánka
put
prodávající
vašem
léky
skleně
nou
##lích
##ovku
chtít
obý
mistrovství
##véd
okno
##nického
zástupci
odsou
diagnosti
##šný
činí
##lete
kurzu
##lůžkový
nevz
dani
londý
překá
nábytku
zahrad
mali
##ovacího
##au
zemích
shro
pyt
vykoná
chladi
listy
gi
magist
cyklo
zpí
ods
přenos
##jíme
kara
konektor
Úč
přet
přístroj
##dol
silnici
##noj
##dách
povrchu
##hová
místnost
##sic
horo
micro
celkový
pěst
sezná
jád
pivo
rostliny
##ůležit
rozsá
##ňky
úse
oku
programů
pohodě
vedou
rovnou
členy
pořadí
diplo
##český
koord
záme
##bová
Žá
zm
##ill
certifi
poplatek
mit
##stický
oslov
gb
##niku
vůně
kw
##tování
malí
zlepšení
osmi
plno
##sion
řeší
úprava
##ářské
rozšíření
půjde
formy
##fy
videí
##avě
narození
neznám
křesťan
73
nepříjem
projed
##struktu
Život
škoda
chat
operační
##zeno
wal
##átkem
##ickými
rodičů
##oden
nakrá
vtip
vyda
skvělý
intera
osvěd
maje
kontroly
home
business
kdysi
kosmetika
hráče
přeru
tren
vytvoření
lyžařské
výstava
koní
##nily
##nejsi
zvět
setká
smart
koncer
dých
kř
převážně
##zná
##raž
##odu
role
##řiz
mad
zmrz
wa
uzaví
saz
##morav
realiz
doporučuje
předtím
pořádně
včas
pilo
##jením
přestup
režis
trenér
dlaž
zate
byst
můžeš
chru
rož
kompon
úz
ministr
objednávky
03
##ají
##dar
mc
probě
extrém
maďar
změn
zvuk
lidmi
čín
žáky
dobí
fra
kancelář
nud
cizí
##cházející
nahoru
všemi
manažer
##telných
##ser
většinu
past
kartu
výhodou
zkušeností
podnik
iii
##tační
mŠ
směs
přichází
mapa
pořada
bere
##ceti
holči
deska
zahrnuje
platby
těstoviny
son
##razu
brat
podprs
zkrát
##zt
##áků
kontakty
legis
fanouš
##vie
vyjádření
##áty
elektř
nemohl
##stoupil
proh
politiky
ozná
dvoji
časem
##top
necha
provádí
kapacita
zabý
výdej
##mbu
zjiště
##pění
nemys
mládež
vlastním
snadné
##nkou
##rant
určení
ložnice
##fikaci
##nci
hledám
##vují
značka
poskytnutí
zátě
potre
pul
05
mobi
dynami
golf
spat
maxi
##kru
týkající
##čnosti
kláš
turi
rychlý
nechy
##telství
bateri
názoru
oblíbených
vlasů
kned
zasedání
##soci
stop
##perky
inteli
účinky
##cin
přijíma
shod
konkrétně
zákonem
zajíma
hlavního
##óza
##pice
částečně
vrací
slep
vývoje
účely
předání
žít
zjistit
správce
spotřebiče
číst
držák
Čss
lek
##řadit
wo
zoo
krása
prohlédnout
##kazují
##šná
respekt
##sal
kosti
sleva
předmětem
lat
beton
nechal
spraved
podpis
domova
lesy
nejdůležit
##ovaném
začátek
čemu
##votní
pomůcky
doporučené
zelená
elegantní
dědi
vyjad
zdravotnictví
koj
nikoliv
zásadní
dřív
hodnot
vzít
ryby
##ózy
inzer
hezky
zaměstnanci
neuvě
bre
nejnovější
figu
hlav
nalé
jes
nejdůležitější
akorát
ture
##latit
celková
##íte
##čte
pil
nastavit
člán
círk
našel
neco
pracovníků
záznam
spon
zprostřed
hydro
vystup
veřejnost
identi
dopis
souhlas
metra
uzavření
zkoušky
##láš
léto
ská
průměru
##sků
elektronické
mono
exoti
nebezpečí
překvapi
##vější
prosince
nebe
hydra
revolu
##laš
##lub
postavení
##žena
##álů
zás
fial
létě
těsně
##ženo
##padla
kem
zhlédnutí
nast
studium
wc
souboru
rem
naru
bys
##tva
dokumenty
dam
smlouvě
trvá
##nora
přípravy
týče
kaz
##chý
výstavy
vypro
nezná
upozornění
lesa
alo
rozhovor
##alování
zabývá
hudeb
##vené
prochá
školení
##nácti
přeji
chodit
dovolené
školu
inžený
standardní
pád
##cemi
zprávu
rodinu
##rke
sportu
##kor
jednak
nese
vyvá
františek
##10
juni
respek
oprava
výhody
podporuje
fron
dopravu
domácnosti
eti
##hovat
hotovo
##ceno
67
systémů
##čci
##mum
zvlášť
druhu
##řte
jeze
podmínkách
chyby
dlouhou
dohody
dž
příležitosti
roy
svátek
závodu
##ktory
nevim
obchody
hodnotí
mužů
lepi
##él
##stem
podlahy
jakub
radio
organis
##ceni
##menty
##vený
chů
anto
##vině
seh
dámská
lidské
suk
protoko
krátké
ekolog
lov
vil
zajímá
##vaci
logo
##kosti
syna
neměli
dalo
konstat
##romady
starosta
##líně
začalo
terez
pacientů
úsmě
##poví
zabezpečení
informaci
##rovi
dohromady
obaly
kněž
##ney
třídě
vína
luká
brýle
termínu
zodpověd
podniku
pracoviště
doručení
společenství
prezidenta
sedmi
vzdálenost
každoden
imu
bílém
bot
##livost
sl
rychlá
praktické
objektů
dej
úspěch
strojů
těs
týdnů
obrázku
zaved
##mina
bezdrát
stojan
oliv
##vz
finančních
noviná
nejpoz
2001
předpokládá
hlava
##plej
##ano
##žnosti
tabulky
jam
2003
podívejte
##techni
přípravky
pochyb
dáv
nástroj
předpisy
##zením
krku
vozu
##nuto
##rus
prově
kavár
bub
dozvě
organizací
schopnosti
srpna
stránek
##něna
album
ostravě
angličtině
známé
autora
komunit
filtry
výzkumu
levné
psychi
soutěži
firmě
miliar
dávno
##zie
výsledkem
propoj
zápasu
pohov
nemůžu
zatí
statu
zhotovitel
umy
odehrá
mír
oč
pozemek
omy
##násob
pará
##vidla
matrace
teku
##žitek
##bývá
##instal
smluv
tepla
spad
Žďár
kategorií
hobby
Českosloven
parkovi
lži
financování
##šena
stravování
tw
hudby
zaměstnance
kali
displej
kyt
zaš
treba
Ší
studenti
##výcar
##váním
charakter
havlí
ukaza
Žena
##nii
##jeli
sest
##mové
kamarád
gum
úprav
##čtí
##ction
##ránit
power
posledním
##rad
dovolenou
výh
mechan
využit
byť
náuš
##něný
černý
##cioná
vozy
stanovení
vodov
důraz
pozdrav
##zeni
soustav
nelí
poznámka
##jednodu
úhra
odstí
190
shr
vedením
##cený
zabí
kva
papíru
jezdí
andro
navá
jednat
##čerst
panenky
##hý
volba
##ovně
poto
##růz
novin
##ley
apple
semi
zavo
zranění
sady
službu
sme
managem
##cke
2002
jízdy
##dice
strašně
síla
matur
věřím
##pek
displeje
správa
osobu
konzul
##řady
srde
drobné
občanů
##chou
nastavitel
baby
komí
##lního
konání
prezentace
dojít
krátce
##ini
##telnost
##kát
parf
##před
##šela
inde
klíče
záruka
76
##vím
přidáme
##rního
dnem
##burg
##smus
##čká
znalost
rodině
zou
miminko
##bce
závislosti
##lák
##dor
rukavice
##grafie
samostatně
případné
izra
fitness
kouzel
žada
Čechách
spi
pláž
vést
tor
sekund
nárok
círke
obývací
sbě
jazyka
působení
dostatek
dojem
nejpozději
muzea
vrátí
##hala
##telnou
##těte
04
jednotka
rozlišení
nápoje
otv
##itou
důkaz
uprostřed
Úvod
hromad
hodinách
110
ostatním
##ith
firmu
úpravu
propo
miroslav
Ústav
##rurg
pacient
politické
postý
##koval
700
vznika
nejspíš
##řeno
ful
přípravu
rozdě
##tná
účetní
vejce
vino
gymná
##ýt
lho
software
akční
##žou
##hový
předměty
věnovat
zan
Česko
zimě
vou
schrá
dostateč
##šenou
lez
záchra
zří
občerst
##řená
##ora
gymnázi
dotazy
gale
lékaře
flo
dělají
krve
dluhy
obvině
zdůraz
vyplývá
##ša
festivalu
nejbližší
##rování
##zující
##žíme
pracovníci
nevý
vizu
chvíle
státy
vic
oceli
##vaz
určen
mluvit
##vního
učení
školství
tlaku
##nÍ
umožní
přesu
šroub
zemědělství
##cháme
jet
silné
##itě
chybu
##čným
turnaj
nepat
kultura
##tovat
140
eur
##hodnotil
faktu
##mie
stromy
nejhor
##enu
##vilo
pota
vas
jinými
infrastruktu
vyzkoušet
mléko
majetek
vu
února
##tický
##zených
nále
##dové
zje
dobro
strako
pokus
##kry
členové
hospodaření
německu
##žít
##rií
zkla
kdybych
pronájmu
jízda
##leli
baví
vlád
poradit
zázna
zkrátka
vznikla
provádění
červená
konference
##čům
aqu
osvo
radi
průvodce
##čítá
sluneční
bavlně
kupní
##šeli
náhodou
prvků
móda
rychnov
centrální
popel
studentů
lem
##ang
##ens
koncep
opě
08
##řes
##pil
71
místních
čímž
pokoji
příloha
##bek
soukromí
ocenění
un
oblíbeným
##atické
zálož
faktor
zeman
podél
sběr
rost
porušení
hů
masary
audio
půjčky
cam
##até
potřebujete
##ratu
operace
vít
dcera
zkuste
##rám
vají
motocy
domácích
průmyslu
##ach
##šili
retro
##bet
##šly
instal
##inám
##ročně
signá
##ela
Člově
160
července
nádob
těšit
přihlásit
oka
##ktů
přijetí
##nás
vlastních
prevence
gel
loso
zbyt
##kola
znalosti
společenské
milan
##cni
bundy
##lena
americké
##stvu
výsky
aktuálně
telefony
lát
samotné
ig
sněmov
rekreační
##bro
##gal
skříně
##áteční
##váte
##kaž
##meček
podeps
věří
inici
##čném
uložení
##zená
minutě
jejíž
alex
chomu
06
podzimní
##ováni
mladý
systémem
promí
doslova
restauraci
hrozí
stejnou
stěny
dlouhý
líbi
##uli
kolekce
zjistí
druhým
dvaná
hloubka
07
tabulka
problemati
uh
psát
spojených
##eněk
chra
##čený
metro
lékaři
zastupitelstva
pivov
příbram
potru
hnutí
svit
dodnes
##řeny
dosáhnout
zní
třebí
##hují
dají
schopen
úkol
výměna
88
##vitu
cro
84
slevy
##ťte
slovy
kapsy
##řský
##zn
Čssd
ki
lípa
států
zrušit
##tají
časopis
přednost
##vaných
plát
vytváří
koš
objekty
tajemství
parkování
zdr
zpravidla
##are
problému
sílu
prsa
provede
né
velkého
existují
##lených
nadě
##seda
zpravodaj
váleč
severní
kousky
##ll
##50
meziří
##gres
poněkud
požád
míry
sili
zkus
vyd
jednotek
##ovani
chor
malého
youtu
císa
bás
hlavě
způ
royal
tlou
pp
zuby
černo
##žím
britá
iphone
slan
oranž
zemřel
úklid
chyba
rekonstrukci
aro
96
výročí
řečeno
hranici
svatební
fyzické
prostějov
chceš
##alni
pokles
pražské
omlou
růstu
porodu
infek
##bří
dodal
přístupu
milá
koupil
bíl
##ždění
následujících
350
##inový
tablet
nákupu
přijít
mléka
záchran
https
příběhy
map
odběr
poslan
zeptejte
národního
##skos
orient
osud
špatné
šir
psaní
tlačítka
78
martina
nemoci
skončil
nejs
medicí
pracovník
zed
výcvi
##šová
##lovice
reprezent
kabely
##rák
##rované
##cal
zkrá
vlastního
zábě
bat
vůz
##stická
herní
##nicky
garáže
##bus
##víme
virtu
##cena
##lový
dokonale
92
zave
používají
oddí
kolegy
sek
příru
částku
výpově
##dela
##chání
ročně
sluchátka
130
##ovacím
kin
##kalo
nove
##řena
výhrad
přišlo
##sol
##enom
naklada
##rd
##bin
přidání
tisíce
rubri
stolu
pneu
bavl
objev
výpis
notebook
teplice
příspěvku
bezplat
klimatizace
skupině
přečíst
paliva
mapy
##následující
bazénu
případů
zdravé
žárov
##kono
vyžaduje
puzz
média
pd
zdeněk
ochraně
barvu
hvězd
odpovídající
příjmení
hole
zisk
jihlava
jakého
výpočet
plánování
##teb
meziříčí
požadavků
obsahem
kůži
interiéru
##jším
obrázeknásledující
mh
81
nakou
astro
radho
škody
uzná
##šených
formát
válce
budoucnosti
##ičky
tyč
vstří
##ovol
hmy
jmenuje
##nový
rozhra
průkaz
věda
##pád
pome
##álem
zvyšuje
discip
##něno
eva
##cio
##škou
ek
sád
mg
##pev
skvělá
státního
postavy
aplikací
veřejného
déle
zle
cukru
show
##kovém
zpracová
plí
kilometrů
psal
##kací
##fun
univerzity
energii
účasti
obdi
##dia
obráz
odkud
víme
##berg
##ile
holka
utr
##tér
čekat
nevá
partne
##muje
##žují
##daci
##vým
vydrží
cítí
efektivní
využívat
aktualiz
taneční
##ester
parti
dobrodružství
připravit
určené
##metri
##lují
měsících
pokry
rozhodla
##čující
kras
knihovny
##růst
vybraných
##hledat
sms
agres
uvedeno
alp
jediná
##hodné
##štěné
john
##jo
karet
technických
mládeže
očí
plzni
autobus
##and
##lkou
pokračování
intelig
španěl
##ovaně
ela
##něji
kateř
##ády
##uju
přispí
regionální
192
pec
flexi
##textu
zlaté
týdnu
zbraně
##ski
posouzení
nikoli
televizi
##wo
zázemí
naprost
##menout
metoda
stolní
##rce
war
##die
čele
prokáz
teplá
##dolí
moravě
mikrov
chirurg
##ranit
politika
##strá
klobou
sekun
zásil
##skoslez
##enku
##zal
klep
rizika
financí
asoci
sorti
##prová
kompak
strategie
rejstříku
dodávky
prefer
lázeň
anděl
světle
výsledku
puzzle
knihovna
sno
##šce
pozvá
triko
##rních
vybíráme
stolek
vstříc
samé
zajímavý
brz
košile
způsobu
výdaje
popř
##vest
##rových
budov
šance
82
kanalizace
kontej
odpadu
86
##perk
svěd
hodo
úspěšně
##edu
zážitkové
##hledy
moravskoslez
##děte
ostatními
stráž
ligy
příznak
webových
návrhy
děl
##ženou
psycholog
zdo
okamžiku
někomu
unikátní
blíží
sjezd
zámky
zbyteč
##ktoru
pud
historické
orgány
vzal
výuka
hard
stavebního
kolekti
dílů
vstupu
výrobní
interiér
tero
mem
evropských
příjemný
hadice
adrese
jihomorav
způsoby
hezký
##lování
zahradu
##eld
náušnice
domní
zrušení
otro
povod
kulat
zelí
běžně
##con
doporučit
nabíze
elektrá
zákazníky
adam
budova
zástav
zhor
grafi
půdy
vzác
alternati
##sili
tahle
vym
scéná
##ůvod
##roční
vrátil
homo
##sport
zastupitelstvo
191
karta
dres
##áka
kontaktní
pau
meta
měří
vina
jakékoliv
Čechy
desítky
nie
##ovatelů
oblastech
##gram
che
uvo
určena
##tová
recenzí
měnit
repor
cele
##ární
kontejner
rozhodčí
kompet
vytr
hyper
pamat
nejrůz
pevné
jit
hlavních
##board
mladých
knize
obsluha
zjištění
Řek
rozděl
jdu
stavě
##šují
délce
##něny
přístav
##nad
##tilo
nechte
volně
namí
volno
##čují
##šovat
koleg
myslel
rakov
divi
pozna
bé
pracovního
mých
produkce
koupelna
ekonomické
##seň
##slí
##ilem
řádně
vyhlí
rat
##cs
##bere
letošního
##tisk
chrání
bazé
vyprávě
##víte
studenty
##anech
##vená
pryč
roste
##amat
sau
poslu
přípravě
##hev
ochut
91
Španěl
jakož
dolarů
normálně
##encí
vole
##sie
vsech
peri
##leg
zato
##jas
ochranné
nejlepších
každému
liš
hřbit
přerov
přepravy
##dost
##rati
potvrzení
nece
##pán
doj
důvodem
policisté
myslíte
tyhle
příkaz
oblastí
boji
kladno
linky
patri
whi
regulace
víkendu
karo
vteř
šťá
apo
zážitek
chorvat
odboru
##mana
památky
vzniká
domácnost
900
tet
jogu
externí
hit
##jek
příjmů
lokalita
oficiální
zpří
plem
brigá
předmětů
čísel
jezdit
Člá
nikoho
stavebních
inženýr
psych
divadelní
jednoznačně
83
##ologie
bron
##břeží
kles
##řek
navý
sim
odvět
stovky
nemáme
jakoby
youtube
benešov
získání
##zalo
postupu
slib
radhoštěm
zdravím
krum
trouby
kostela
průběh
libere
připomíná
peči
bon
krat
pořádá
dokázal
neohodnotil
rich
jdou
tová
provádět
škod
zó
bunda
lup
lžíce
testy
nízké
##ruje
dvacet
vraž
čast
kompres
##éře
dispo
výdejní
projedná
##něná
dopředu
osobnosti
vztahů
stavbu
komplexní
kvalit
koupila
nemocnici
pozdějších
##čel
##řela
sing
nástav
##átory
sat
vyzved
##ovět
aneb
ohni
rozumí
zahrnu
kompati
snímky
##cas
##desá
podru
db
inzerát
oddě
kamery
pečené
převzetí
seve
##ánem
nástrojů
##leni
love
##all
zapojení
blesk
zůstat
radnice
příč
nejstar
povinností
náplň
příbu
přeci
##citu
městem
náramek
fázi
zlato
zaví
##grace
tmavě
stri
interpr
##tín
##cer
zaplatit
spoleh
##ladatel
zvěd
chud
transp
literá
hosti
houp
cestov
pis
fazo
##vný
lese
instru
praní
nazna
frá
ručně
svobody
##vale
Člověk
velet
rozhodli
vyvolá
řeky
fungovat
##ovník
palu
motý
branky
obrazy
družstva
evid
nahraz
slez
##odi
knof
fáze
webové
přiblí
těmito
##astro
plastové
nástě
západní
vyči
##liště
inte
široké
vektor
proda
##čily
asistent
##tkem
přišli
Čty
##nkami
přestá
baro
uvedla
lokalitě
klášter
##tická
váp
##sáno
čisté
spotřeba
prospěch
trend
společného
zjišť
##kuren
nohou
87
koná
takovém
byzny
myslim
mudr
objemu
čistí
##kne
podrobnosti
výjimkou
pokračuje
nejob
hl
součást
##tací
advoká
zneči
##jela
většině
humor
##řovat
osobnost
nevadí
lesní
terénu
nezaměst
vrace
dávat
kaš
boxy
hypoté
bam
silný
slová
trpě
organizaci
úrovně
stupňů
jednoduchý
sf
##pádně
měste
vstupní
ski
sci
zvlášt
osvě
archiv
##lala
##itní
schopni
zapečené
taška
una
varianta
česnek
předško
kněžnou
schválení
##ovek
masem
pin
doplnění
zabezpeč
květiná
##jky
zasí
považuje
otevření
počítá
jakých
oble
radši
nejni
##ash
stanovi
##avé
parlamentu
##nský
hasiči
##čan
##pii
uživatelé
nit
plátky
položka
těším
napište
bystřice
vyví
zkuše
ondřej
shop
personál
teorie
uherské
proste
vrchol
starých
kel
android
poradna
##itý
czech
##zemní
nedostatek
získala
turnaje
ub
bohem
tap
příspěvků
síti
sníma
přípravek
jó
každopádně
##tive
momentálně
mast
hní
efekt
##roval
mikina
zadání
stříbrný
iČ
beru
##kládat
##pravo
stupeň
stromů
složky
účinnosti
ztráty
hřišti
##lená
samostatné
##ktem
##čkový
##cuje
nemohou
##čená
měsíční
##niky
facebooku
##desáti
atraktivní
dráž
kočárek
destinaci
##kladem
hrozně
léčeb
brát
nemusíte
##pag
andre
odmí
##cia
##ona
fou
est
veter
rychlostí
obá
##kaly
opravit
##držel
mnohé
startu
očekávání
úspor
nezbytné
mraz
vydat
##ící
příjmy
registru
tehde
##čených
nevíte
obchodů
ktery
konkurence
omáčka
bratr
krátko
jednalo
ses
krize
odstranit
kořen
zneu
indu
##balu
pohodlné
vozidlo
valaš
hvězdičkové
relativně
penziony
veletr
##stál
prezent
noteboo
hp
objevil
ral
platba
zhodno
minutami
zaměstnavatel
nepouží
veške
##sce
ostatně
instalaci
šedá
boha
procesoru
rozhodne
soubory
příslušné
průmyslové
##rala
povídky
jize
##sledy
tuhle
pruž
sdílet
neček
ředitele
filmů
nemlu
sociali
hvězdy
částky
##amo
učitele
zřej
probu
obecní
##ep
náboženství
televizní
spína
přihrá
letošním
vymys
97
masi
anony
serveru
portu
naposledy
rozhodování
fix
loď
##chové
hlasování
##desátých
##vec
kohou
povlečení
pavla
oslav
##stiky
nalezeno
uplynu
vypadat
potrubí
začáteční
ježíš
##mas
významné
hezké
německé
##dly
##střel
říkal
só
koči
rozhraní
##kety
det
věnuje
znát
##stali
vyrábí
instituce
hora
rozpočet
##lement
srovná
jíz
proudu
kvalitě
optimální
fotbali
dobou
starožit
pochází
desti
dobre
rozp
batohy
pohodlí
splnění
čte
oblo
zákazník
manželství
neplati
svojí
##vel
dluží
důvody
módní
##ovny
##izon
třetím
##razili
ját
představen
hodnotě
##sive
##din
zvítě
květiny
těmi
pouh
poločas
předvá
##sadit
pel
borů
někam
nehod
investiční
liší
tvář
brus
zaklá
městského
důklad
územního
podvod
studio
vyrov
tablety
branku
rybí
znamení
minulého
schvaluje
pardub
statutá
úseku
francie
nože
lehké
##tre
exotická
##padě
řidiče
veget
stabilní
předved
##hnu
bm
##ts
evropského
nekdo
polohy
exteri
vyhra
vypu
jedinou
##síme
##soft
dáme
tříd
vsetí
zkusit
bank
ster
autem
ošetř
silně
##via
horizon
jaře
ačkoliv
lázních
splat
bývalý
určeno
orgánů
alkoholu
##figu
výšky
polí
##roděj
poradny
rovno
dívky
zablo
sum
mnohdy
hrál
odpovědnost
matky
mechanis
marek
##štiny
stavebnictví
obrazu
maminky
##dlu
úkoly
uskuteční
dosažení
karla
spokojenost
luž
##rný
uvidíme
kluky
cokoliv
pleti
dre
nabízím
dozor
##lko
neči
zůstane
##čeho
uživateli
##šeného
hoke
potíže
přímé
vytápění
##kop
strava
##ňka
napájení
dočas
dopravou
znoj
##tok
konferenční
podobný
glob
uplatnění
studiu
sleč
##rovou
hlavi
plná
lud
##zoval
dvůr
vybrané
protoze
užit
jack
necháme
##zín
lukáš
trut
překvapení
kade
postupy
ultra
teplé
parfém
položky
minulý
strakonice
banka
evropská
Žid
určitou
dosti
zrcad
detaily
policejní
rybá
vlivem
areál
##šák
miliard
překvap
závody
zima
ký
údržba
firemní
##livá
rozdělení
##eho
kroky
recenzi
známý
##last
levé
##kovací
obecné
##ík
občerstvení
##ženy
nespo
sloup
občany
junior
vaje
pisto
##ranty
jizerou
omáčkou
##lované
##ret
##vity
zbytečně
německo
##voz
uměl
akumulátor
##domí
založení
##skop
paří
neuvěři
majitele
dokumentů
formátu
nemohu
školního
zvědav
nainstal
hrub
vero
sehnat
odha
Čím
vysavač
sony
sídlem
##řez
kuku
sokolov
sestra
vařit
vladimír
##clu
94
výborný
seg
sekce
uhra
bezb
různými
##vůj
potřebuji
sak
objednat
texti
xl
příjemce
##átní
##telnosti
svato
směsi
##něk
kožené
sráž
city
##chovice
##vaj
shromá
##lníci
kontrolní
beč
##ds
kalhotky
finance
souhlasím
písek
zázv
právních
vznikl
poměru
atmosféru
##rova
hrají
fotka
písk
deb
král
##ovatelé
egy
jest
vady
nechtěl
laser
nechápu
pečení
analýza
cr
koření
nosí
uvedeny
přehrát
terén
očima
výbav
poslat
krit
nejhorší
vse
správný
tzn
obchodních
##rnou
navštívit
tvoje
krajiny
fol
chata
kámen
soupeře
toale
říkám
litoměřice
nepoda
seriálu
chomutov
##prch
oběd
letadla
malin
jiném
souvisí
mosk
##inová
dejte
příště
přílohy
čel
nějakého
trpí
učin
věděl
jisté
miliardy
##com
##play
bytové
galaxy
zabra
##lním
námit
tvůj
jednoduchá
střet
##řík
dán
dveř
Češi
odolnost
znamena
důležitá
##řského
sjed
portré
neut
uc
strop
vily
last
neumí
možný
rozlou
Úste
zjistil
kluk
úlož
zákazníka
českém
prostorách
přiví
nabídnout
kach
stvo
##čata
full
##ákem
los
poloviny
##námit
##svět
kompo
##čela
Účast
##box
civili
vedlejší
hraní
pani
##vech
údajně
klientů
snažil
ží
opra
poplatků
plav
naučit
hasič
bytě
##ózní
tloušť
souprava
clo
omlu
bis
gastro
prodloužení
výuky
##pela
poplatky
kapes
zami
uchy
chyt
##padne
##ovanými
pneumatiky
krajského
předlo
fav
kuchyňské
##rově
pokyny
##mot
středově
myšlení
komed
##tak
skládá
spolehlivost
duchovní
vstře
skó
událostí
vlasti
pris
názvu
##noru
designu
jejích
nemohla
##lické
postavit
dlužníkem
dívčí
##mazat
zřízení
aktivně
pečlivě
##nim
grilování
yor
povolání
můžou
##fikov
##tika
samozřej
##wor
budově
alternativní
podprsenka
##ami
družstvo
skvělou
místem
přehlí
93
stanoví
upřím
třemi
zjednodu
##mněl
zavě
galerii
jazyce
nefung
##ac
125
budoucnost
##ničku
mb
oži
tobě
reklamní
myšlenky
sedá
korek
přená
##form
léčba
oprávnění
##que
obchodního
dopoledne
belet
##nané
##ham
nepřed
##rovaný
##stických
##don
zápisu
výchova
##čík
jel
výpoč
hradu
poruchy
trati
narod
mimochodem
událost
snow
víš
##mann
tisku
zakáz
chemie
koali
plavky
obrany
##vari
našli
konzo
výno
##mili
##hách
boční
pokročil
daňové
válka
kok
chvilku
růžové
koncepce
##nalo
ploše
výhradně
##medi
učí
držáky
ht
miminka
křižovat
království
silikon
naším
našla
##tější
dri
##čkám
podložky
odůvod
fotoaparát
rukávem
hospodářství
##míru
ekonomika
trendy
##jecí
##rály
moderni
reklam
původu
kapali
##platek
neschop
Českého
městský
##ždě
takovým
poslal
vyho
##blíž
vlastnost
zemědělské
údolí
nátě
jih
##mez
zajímavá
ženu
plnou
značně
##řích
náležit
mnozí
tvorba
publikace
##lim
intenzivní
oblé
dokončení
sportovních
##moř
objednávku
cení
zobrazí
dětství
reha
##org
##tan
levně
nenávi
vlak
##áme
klienta
sociálně
souhlasí
agentury
nehty
kamera
sená
odvod
pokou
moři
koupi
maminka
václava
použitím
žebří
##rko
snímek
##tických
všim
štít
pěkná
koupali
got
cre
povz
rusko
analýzy
návštěva
poma
čtver
zaznamená
vším
vyslov
dovednosti
kopři
##hnou
##razila
klat
slyšet
mala
vysílání
jistotu
##šk
dřevěná
členem
teplotu
open
živoči
sůl
ord
zahraničních
kočka
##kládací
fri
otce
náhr
spal
cat
potra
překro
##cd
potiskem
##hlopří
##mín
hmotnosti
one
##ns
soupeř
normy
běh
##terapie
navště
krátký
potřebují
##liz
přiměř
zre
uklid
otázkou
argu
živnost
přátelé
dor
ryt
chvá
zn
##ličky
##tník
typů
vydal
ošetření
svaz
louky
plní
vysočina
##letou
nezaměstnan
heslo
##ovej
##ínky
údaj
nejnižší
##stického
##ovatelem
##hrady
spořitel
##vam
iso
trasy
##žích
seka
věnu
tradičně
##ere
nemuse
výkony
obavy
stoly
balíček
volného
##regist
záh
poskytnout
sklí
##chla
##loval
vodi
čest
diam
tenkrát
růžová
východní
sklep
američ
balkon
proběhne
sboru
exped
šampi
##pech
nůž
obliče
besed
##tus
pohár
vyjde
##stalo
skončila
##při
##zvlá
nálep
##skové
lodi
Švýcar
veteriná
křesla
##chův
gru
zvolit
##cech
šikov
bezprostřed
prodejně
zmen
nejoblíb
orgánu
celek
dvořá
##ls
kred
bří
pevně
neexistuje
kávy
##entační
rom
váž
doklady
jav
sky
naby
parkoviště
nere
začaly
dělal
hno
cukety
Školní
##spi
imunit
vysokých
oprávněn
školách
náhrdelní
dokumentu
##bur
objednatel
kopí
##vlá
zápase
automatické
udržet
souhr
třebíč
##dící
##rálního
směrnice
procenta
##bie
administrativní
##eticky
nedaleko
kovové
polovinu
tvorbu
pláži
strou
##ese
trag
##niny
pup
cítit
kami
učit
obe
stanovené
nošení
internetové
dělám
avi
doprová
komunikací
výborná
žalu
soudní
vyrovná
uvádě
učebnice
##ismus
propad
odběru
našim
lůž
závěs
optimali
setka
stáhnout
vyhledat
jesky
##tální
##hrade
pojmen
viděli
##sví
neobsa
razí
Čo
zajímalo
konver
##vnost
páry
chrudim
##prodej
vyhrál
beletrie
popisuje
mac
milionu
vrtu
peněžen
##alou
velkém
nezi
##matické
##cát
listů
legislati
lucie
granu
kouz
##Čr
zůstal
insol
Často
psi
nekone
##lujeme
##san
##tev
skrý
neplat
hudbu
##vanou
##fikační
##líte
##dová
##vanější
dut
uprch
sur
registrace
nejrych
klobá
##iki
soukromé
dostanete
vidění
výborné
##dních
##enice
převa
šun
dok
##ware
vce
požadované
vývoji
otázek
návštěvu
kato
neří
měři
##pak
zelený
největším
##covat
klienty
týmy
##letá
veselí
texty
skončení
zvá
základy
marké
chuti
romány
popří
##šilo
posto
novinka
duchu
pravidelné
kotle
kávu
ples
old
slavnostní
party
itálie
přin
##nejte
trvání
zákro
##nickou
svoboda
pale
vložit
modlit
lásku
volební
##řát
filozo
vysokým
##ston
výstavby
detekti
stravy
nesouhla
závi
##zil
ger
odeslání
##way
olomouci
nejdřív
prázdniny
připad
maga
##viny
výkonem
Šu
stimu
exklu
krů
hospodářské
alba
záři
potá
zařazení
##telným
##bl
ušetříš
článků
správního
tlumo
##řov
nepřá
fr
rameno
masáž
představujeme
starého
odkazy
##pele
uvařit
##stější
rty
načíst
proběhlo
zadavatel
pohybuje
ničem
porcelá
sokol
krátkodob
##lovi
##peme
spát
šli
duši
fráze
bydliště
evidence
bylin
experim
děv
tiskárny
jiřího
##tud
tebou
##adě
##ding
váz
budí
štěň
těmto
speciálně
odv
aqua
propojení
vyna
zabi
sušen
1999
jedině
blue
kb
vibra
##jat
vze
organizační
viděla
technická
##sali
hm
##ward
biolog
rána
posez
vlevo
zápasy
##clav
vyčer
překo
fólie
dřevěný
kontrole
pacienta
nam
citro
##fit
termin
##žující
plyš
maš
##vita
léčby
otevřít
vpravo
popřípadě
psů
ková
vstoupit
sob
##staly
##kum
interaktivní
neboli
slaví
snižuje
navigace
upl
sluní
nebyli
rekord
vozů
vesnice
sav
nesmysl
posledního
užívat
batoh
slovensku
občané
samotný
dětského
vyhodnocení
střešní
mém
léčbě
opravu
plány
ohře
trum
počá
##wi
koše
nedošlo
##ánku
##fal
alb
##jou
vězení
příjmu
royalty
simu
zaří
zajímavosti
zatížení
nízko
zvýšit
dostav
rumu
##zová
dostává
##mis
potraviná
##enej
230
žán
odva
bezbari
svazu
fal
pochopení
zpráv
chápu
komplika
úvazek
ventilátor
rozhovoru
mikrovl
sha
sociálního
citron
zk
řeč
##ede
znal
##rop
smy
tvé
frekvence
bližší
pum
uví
listu
kně
neplatičem
využívání
oli
proběhla
věz
expozice
##ktech
jemné
deku
střechy
garan
boje
představitel
anna
##telného
představují
prosa
zůstá
daniel
pocti
##kom
nerv
apartmány
##vacích
##valu
jíst
spod
##nutý
daří
některá
rozhodnout
olympij
##ánské
##hlu
hád
nepotřeb
uděl
domácím
běží
##škol
piva
##etické
dvaceti
##dáme
platfor
projev
květy
zatá
naf
rodinných
hosty
zlatý
kostelec
kalku
útoku
komunikační
známky
##hejte
##cená
##šující
melo
nežád
řekne
udělali
##mím
mela
Člen
trž
##ete
kdykoliv
modelů
poštovné
výborně
##mag
##stoupí
požár
americký
nelíbí
depres
##atika
##šim
svi
natolik
zásady
##ňové
bankovní
otevřené
hvězda
nahoře
##80
vice
šam
tradice
pevná
příroda
sloužit
šle
hledáme
ras
wifi
cé
nejv
stěžovatel
cigar
filoso
charakteru
##sadil
ilustrace
něčem
##bily
krmivo
##ceny
zmiň
##acích
dlouhodobé
nevyu
uvedení
zdrojem
účetnictví
drži
dobry
podně
vykou
##rkou
##láme
senior
nějakým
##enské
zavazuje
přídav
multifun
lenka
resor
nástupní
držet
ukrajin
výta
misky
vědy
vyhla
leti
patro
motiv
zákony
naděje
pánská
##kán
hodonín
katalogu
##alt
obsahovat
bakal
zaměření
středočeský
těšíme
paliv
tvorby
doklad
art
frekven
udrži
##brž
náchod
lepku
projednání
dokou
osvobo
upravit
každodenní
##cházel
Černá
Ša
pocity
vam
prohléd
##letého
##káře
##šných
brány
##plá
problemat
kontaktujte
##finále
licence
obvodu
skladu
Část
počítat
hubnutí
zapínání
rehabili
vŠ
vid
úřady
kabelky
##lance
##řily
kameny
jakém
nesku
středně
základním
věd
##xid
##ány
##čovací
##ovateli
míře
neznamená
rožnov
##eš
vyk
with
filip
pardubi
vanil
nápis
odbo
##ovému
spočívá
plach
450
půjčka
uji
##tonu
odpoled
byznys
častěji
dějiny
##láním
představí
kotel
dialog
výrobců
##enek
##gon
případy
přestav
šup
náraz
seriál
koule
hlasů
##účtování
##los
devět
iko
trénink
apli
obdrží
losos
začátkem
zdejší
tvorbě
kolín
ou
kv
erg
originál
čisti
veřejně
stojany
##cházelo
##lilo
žijí
##lom
správnou
tepl
##átu
stavebnice
arab
sledují
boh
anté
##nějšího
přesné
zasá
mým
##spon
následu
sezóny
evan
##menal
##škem
volná
lom
týdně
vybaven
městská
##stěh
závit
psí
spravedl
odvolání
budoucnu
furt
sedací
##áda
milovní
počítači
směř
reagovat
poznání
okraj
pokožku
##entem
sděli
odborných
premium
##igh
signál
palač
pacha
##čák
##čkův
bezpečné
##vadní
##leka
##rium
poři
proží
třebo
sovět
samolepky
rozhled
oběma
lidských
značek
##tur
přepravu
podaří
##can
alkohol
kampa
připravuje
pho
ponožky
izrael
službách
obsahují
informovat
návštěvníci
##pol
nejlepším
pobav
##krás
vytváření
##šíme
organiza
odpu
cup
havíř
hygien
hlasovalo
chrom
uklí
analog
##álka
##berk
skvr
ove
odpadů
más
problémem
deník
izolace
presti
kostým
německa
doposud
zájemce
trať
uvést
změní
##řenou
podmínkou
režisér
dotaci
uveřej
##ture
##ovany
##ána
##ývají
snížit
dosavadní
umělecké
skal
ked
šňů
moji
objednatele
ocit
##set
přilna
suši
podat
tvrzení
pochopitelně
aktualizace
##zar
velkoobchod
územní
dohodě
místopřed
sníh
příloze
nýbrž
bej
brání
svítí
chleba
operaci
asociace
pracují
jednor
Žádné
připraven
trénin
montážní
uspořádání
tvrd
tělocvi
brati
220
bag
kabelu
##cht
##táž
dosah
form
intel
zeleniny
jimi
zachování
##redit
kated
works
kapsa
bazar
##šeny
tehdejší
osobního
sledující
údržbu
babiš
plod
životnost
ovocem
dění
dílu
důležitý
konfigu
splně
záležitost
jednorá
těsnění
pojetí
tole
nešlo
##rické
##tily
vak
akcie
zřejmé
nerozu
upřes
stěnu
nádherné
princip
okolností
linka
##ván
bol
uzá
dokumentaci
chybět
vdě
uš
##aa
smys
ces
požární
daném
pizza
přijat
nedod
blueto
zbraní
stejná
neji
##kují
zákoníku
##cový
kapely
koz
konkuren
##ismu
šk
##inem
poslech
hus
plochu
čisto
zadávací
hliní
try
českou
sexy
pivovar
##zila
byto
zpěvá
levnější
regio
tlumi
sestry
existence
uplatnit
noviny
zbavit
textil
pásky
nebudete
socha
##lné
##meňte
serví
##dan
zac
opakovaně
diskuzi
menstru
vysvětlení
refor
popisu
##fí
autě
vítr
dávky
bluetooth
portugal
##jici
##jila
rychlejší
bom
testu
insolven
přírodních
blaho
srdí
večerní
čistě
úsil
ořechy
shopu
církve
garáž
snaha
uvede
prodlu
odpovědět
houby
##hám
komoda
##stice
##rálním
fis
útu
nymbu
identifi
ss
##zili
mytí
##zan
obzvlá
##tik
fede
snažit
maloobchod
talent
sran
databáze
získáte
##eri
##30
velikostech
gratu
##klop
husto
minulých
vyhlášky
základem
proc
karlovar
kapitola
##schop
prostře
##rním
jedená
sběra
nahlá
chlape
věcech
chovatel
tuzem
získali
josefa
##ču
sis
tabulce
udělala
zavedení
stranách
partnera
snažím
##kul
používám
##vním
témat
poloha
důstoj
tk
provi
rozdíly
oblou
poznámky
ec
motory
regene
propu
bezlep
##clusive
starších
##leného
agentura
zaz
kokos
dví
komunik
cestá
večeře
jediným
nákladní
potřebovat
minute
reflex
##kovali
##řskou
premiér
ministra
termíny
usnad
##rs
zákonů
nároky
##inů
suché
věž
expres
pomeran
masivní
hen
tit
technik
většiny
výbu
vim
rozm
váha
ovládá
ústřed
porovná
řídit
mont
přeh
nedělá
pv
##kolog
##elou
hrob
pravý
popru
modr
##áři
##mostí
záda
##jili
vitamíny
zame
tito
jesení
mouky
##ínek
tari
die
prona
##stání
násilí
sukně
##dární
##duje
pay
vyrobeno
příjemná
##ónu
##ánu
##vent
přistý
občanské
vyhot
energetické
zrych
telefonní
priorit
povinné
krásnou
vp
výrobci
zvol
prim
##mak
##slední
znáte
pramen
##hodnější
komentářů
srd
platnost
skrze
připravili
region
vodí
##door
braš
##peu
##nom
transpar
profilu
pojem
sekci
dige
herec
##cených
parce
##álové
pobřeží
ari
stanici
situací
úsek
Želez
volbách
umyva
zaps
ověřené
benz
linu
rele
recy
zakoupit
zásuvky
vojenské
vzdy
jablky
koberce
tomhle
líto
prohlásil
##wei
pohon
prodává
okruhu
##vede
##sus
špatný
stejne
rozsud
nat
management
##tán
dvoulůžkový
cílů
laborato
slovensko
##líků
sdělení
musi
pracovníky
příběhu
uvedeného
##cker
pojistné
experiment
zábra
##ya
nepřízni
testování
boku
letou
Šířka
##nající
uvaž
##pel
hokeji
vrchní
moderátor
##bírá
návratu
kateřina
oct
spolku
nebezpečné
##ráží
slevu
záměru
širší
dobrém
##zenou
svor
##nuta
odchy
desku
výslov
celku
ment
vyhraz
gor
strong
rytí
škodu
##insta
daného
nazývá
fakulty
spokojená
zaplatí
písemně
##illi
kondi
kmen
vany
palačinky
##ele
##sprá
pest
předčas
neur
hovoří
zápasů
dědictví
křeslo
vysvětluje
wol
namo
procedu
light
##cením
dílny
odstup
úspěchu
prodejny
##kátor
právního
mzdy
jist
zdě
drog
předbě
povedlo
přesa
určený
Českých
##léb
nejkrás
deti
předchozích
gal
délky
vyhlášení
##dio
trvale
##zs
nesly
ktere
porozu
odrů
strojí
komo
zájemci
cal
polštář
květin
čekal
index
uch
servisu
##žných
hejt
##cor
##slal
fantasy
automobilů
##ult
zane
fotografii
kocou
utě
take
nikomu
parametrů
sérii
ení
##zav
desítek
musíš
##zovaných
beroun
zamí
ukázal
demokracie
služební
rezervace
uvedena
##řům
kojení
div
ota
silnější
hana
##rolog
příjemně
##pagety
zábavu
cuketou
pohot
definiti
velikonoční
##ovace
trávní
každým
klávesnice
##letě
výstavba
pokaž
katastro
nejstarší
nekon
##nesl
dvojice
mostu
výchovy
ford
stranou
fungování
viet
podstatně
dětských
záření
zelenina
částka
plastová
úkolů
parlament
požadavek
##řele
přen
starosti
rýží
šu
postižením
##fii
čaroděj
kabáty
občanského
koupání
silniční
##linu
##lid
ocel
podklad
myslet
statistiky
Šť
dží
pops
##bení
ergo
modul
středisko
konstrukcí
##kin
prask
zani
říjnu
zatep
microsoft
letních
tréninku
odhal
bavit
##rná
královéhrade
zakázku
nůžky
stali
##ňová
jindřichův
##kly
varia
robert
##tnou
vylož
kad
##sová
kaše
bater
pikan
desce
modrý
spokojen
ude
vysvětlit
dráhy
uveden
skladování
##lií
zvířátka
kadeř
pala
uplne
průzkum
provedena
##líčky
havlíčkův
##ráku
##lam
servisní
minimali
##iku
pořídit
požádat
170
židov
prach
##zeným
okraji
##ida
libe
##atolog
známá
odevz
trutnov
zájmy
rovnová
matě
populární
##ovaci
prohlíže
rozporu
odvětví
plet
##rnu
##anů
sporty
bezprob
platební
##rot
gh
ct
sezony
prsty
dezer
postupem
rybář
##pečně
il
příbuz
poblíž
hmoty
bojovat
##inací
budoucna
začínají
hrů
respektive
řeči
arche
středních
##zivně
pohře
praktická
šetření
osobě
fau
zaned
firmou
vubec
stopy
rozhlas
ocení
audit
podobných
puj
hráli
vyřa
komfort
polovina
inzeráty
šperky
pracoval
kratší
##nný
##žily
##rán
literatury
výtvarné
žádostí
ačko
postava
roud
sešit
francii
snažíme
internetových
##yer
##sau
narodil
zva
poděkování
hasičů
ukaz
uvolně
steh
úst
nechala
námoř
Čel
##bla
##řiceti
pozoru
výměnu
umožňují
##rid
studií
##jíma
kritéria
miliony
nemělo
motivem
cestách
rostou
dalsi
měsíčně
viktor
##bas
elektřiny
odpovědí
uživatelem
vytvoří
uj
trhy
lednu
vyrobena
žil
specifi
cenou
##blik
prozra
Švéd
soudy
dávám
##menat
oddíl
##vědomí
pořízení
plody
přípoj
libovol
asf
malým
cast
vypla
struktura
úna
lektor
##bost
svítidla
ačkoli
##hodný
krémy
souborů
lodě
oplo
##číte
večeři
obličej
uzávě
lokality
nok
##mát
běže
akademie
##stickou
zisku
col
tempo
přítomnost
výzvy
napadlo
mazlíčci
green
připadá
tho
mojí
##tujeme
Českou
symbol
návštěvy
pozn
brněn
cukroví
koupaliště
srdci
rozvoji
##jímá
##typ
lhůtě
srovna
výdajů
##rkem
plave
##stka
##lak
zdravotním
román
krimina
hem
##hei
nádrže
pt
##noucí
vzala
reakci
oboustran
neho
posád
podot
dech
rolá
jemu
kit
těsta
seminář
podniků
##ovna
nečisto
obrat
vzájemné
##ning
Ža
čaje
prahu
scény
intenzit
řím
##lupy
mega
zko
2020
okresní
##stanou
Řec
##enec
stáří
aspek
nova
kapela
ohrožení
rychleji
Škola
hormo
komedie
ostrav
roh
talí
mj
rodinou
krej
vlastností
plot
výcho
kompli
sídlo
jasný
variant
armády
zaka
vsetín
Še
nosit
bílkov
rohlí
závisí
nemůžeme
##nko
nakupu
hostů
neplatí
##řených
dna
##bioti
sep
facebook
jahod
dlouhým
##čeny
bibli
koncept
potká
otvor
připojit
rm
silni
##stoupila
čekají
senzor
písně
promo
příznaky
nádoby
##celo
rodiči
podvo
známo
krále
prohrá
pdf
zástě
hua
##míra
##ťák
big
bmw
##das
##něného
vydává
harry
##stěte
větších
nesprá
dobrého
eco
kontextu
##štích
oblíbenýmvíce
vyřešit
##zový
českosloven
baló
vysíla
vrstvy
ústavu
současný
probíha
eri
##hlopříčka
každoročně
abstra
napsala
##ovost
##low
##tce
##11
##itím
mimořádně
blok
##pevnění
kamp
konferenci
vůle
mile
vestav
##daná
neúspě
##stvem
vegetari
organ
deva
##enského
189
přilnavost
ručníky
dražba
kruh
##áš
pokojů
mete
deví
##štejn
železniční
##dalo
##érů
blond
aplik
daný
absolutně
okolní
přita
katastru
jiní
vystří
##žilo
##ovkou
omí
nádrž
stejném
výzva
osobou
hranic
##cus
chov
překlad
rd
##látoru
návštěvě
přijdou
měsícem
podložka
##soni
tváří
veřejná
zdaleka
očekávat
##ženého
hledají
největších
křen
vybírat
propaga
##stoupení
vietna
rybníky
malování
##vati
##bis
porovnat
##šer
odborníků
zeleninu
##tičky
nepodařilo
##itých
slí
skutečné
myslela
##kými
lednice
perfektně
šíř
##lig
zře
šrou
##žnou
eng
##neho
rohu
vadí
palá
hý
chytr
##čnější
edu
nabízejí
kompen
smluvních
bolí
navzá
fré
písku
##nula
klasický
##emu
vložky
nepř
zajímavých
úsilí
vali
konstrukci
##armo
negati
##broj
sladké
svatého
dešti
bázi
ruské
nízká
čistý
##cing
mistr
##mět
vytvořen
stromu
nabídne
kroměříž
nejvýznam
##ies
pase
kabelka
vazba
vzájemně
upí
##60
semináře
odbornou
dohoda
##nia
moravy
kanali
půjčov
nepra
Štěpán
##náší
pokaždé
vyžá
##kovými
výpla
dějin
trap
zjistili
navzájem
elect
zhu
úvěr
##žá
master
kvalitního
nahradit
využívají
zastoupení
##vičky
nar
komponenty
dvanáct
##bez
##jka
rol
chemi
projektové
##hali
láh
##ráz
##kaci
kolečka
nehoda
zubní
mach
nakladatelství
ekonomiky
jihoče
mobili
soupravy
vzadu
nale
úspěšné
ranní
1989
vestavě
chráni
prostředek
bývalého
houbami
odborná
farma
mozku
poskytovatel
ža
##zeb
potenciál
krkono
červnu
výstavbu
bečvou
zkoušku
##zeného
##půj
disponuje
autoři
##yo
##gn
větším
choro
elektrický
prvo
nabi
státních
květnu
mikrofon
nafu
univerzita
hraz
přáteli
kreativní
##kot
neděle
návštěvníky
rostoucí
##deň
okruh
nejaky
odpovědnosti
kriminali
preventivní
posi
radek
patře
objevila
řa
krumlov
školky
##ye
místy
technického
##atý
dostanou
infrastruktury
jízdní
ryba
přínos
líp
##čkov
potvrdil
##ejte
##ťa
expedice
soustavy
zabal
surovin
ukáže
jemně
generální
strážní
bari
gam
úvodní
návaz
líbilo
žampi
xx
fotku
zdravý
vydě
poslane
levi
papr
nejlev
hodině
rozpu
větru
vazby
##mála
##cite
láhev
##pež
finančního
prodejnách
stavbě
historických
něhož
##nc
truhlá
struktury
##ther
##lijeme
odez
suš
snímku
synte
úvěru
trestní
vybrá
##pera
béž
vlny
stravu
##bila
daní
##řech
##činu
sbírky
spaní
poradí
začnou
považovat
nárůst
podruhé
naje
##itost
naproti
probíhat
##alne
výšce
titulu
pravou
mobilu
##odob
seřadit
mnich
obalu
útok
bezproblém
atmosféra
gyne
term
chalupa
souhlasu
aktiv
##ator
##weet
přidal
nenáro
nizo
káva
člověku
médií
##štej
vyst
časopisu
Úda
psychiat
nejenom
jazykové
sklenice
##shi
zádech
týmů
dobrovo
automobily
clov
jiz
lcd
jakékoli
##držení
vytvořte
vyměnit
zimu
přeprav
##ženým
nasazení
posezení
Řidi
adi
formulář
přilož
známe
veřejnou
##čovat
tenden
řemesla
kono
hydrauli
##isky
grand
##cházení
##čk
##vedl
def
výstavu
populace
vedl
##vačka
prostorem
odraz
likvidaci
taktéž
iniciati
krvá
zateplení
mailem
mig
zázra
pronají
stříbrné
masivu
sluš
správu
šo
uchová
vyroben
##ňovací
##měte
rudol
inspek
překon
pochopit
znaky
##ters
skóre
aero
ukázalo
blíže
ant
group
doplnit
##rol
následné
praktický
tour
##elé
děr
##sm
babičky
volných
1998
pěší
vyšetř
##stoupili
pomáhají
švéd
vesmíru
dík
sny
konat
metabo
jakoukoliv
netr
vážení
##novi
##šková
domácího
heř
chléb
mich
cyklu
přijímá
signali
##rozumi
inclusive
bali
okou
huawei
notebooky
##bové
##žte
způsobi
lar
zati
značku
oří
autorů
podpořit
vytvářet
##stvi
ověření
kulturních
lubo
váhy
teplotě
##poli
loko
obez
sdě
##tuře
omlouvám
sestavy
bezbarié
world
otví
neno
obchů
palce
rámu
principu
ambu
úvahu
konc
smetanou
rena
soudem
neop
najdeme
pořadu
zuz
##lativní
krk
seznámení
vyplývající
výfu
sklady
informati
bubli
##jíždí
báje
obrovské
napa
barto
cirku
##rí
účastníky
##vicí
pta
krokem
žádném
energií
nadměr
terapie
##eo
preci
divadle
vrstva
bary
pojiště
Černo
hračka
prohlídky
břehu
soubo
##řete
sté
posteli
dalšímu
architekto
sexuální
lhota
##kok
vypra
##jních
původního
sestava
dokázali
jeh
minutách
uvidí
kompaktní
1992
neviděl
čtyřech
diskusi
veg
miloš
dc
postýlky
obchodním
autoseda
zalo
vzbu
přemě
páte
podpisu
podobného
Čís
deníku
gps
písemné
krať
technologii
flu
koni
zastavit
opava
michael
##pg
zachrá
gla
##40
ovlivnit
evropa
využitím
amat
posud
zvuku
přízemí
speku
##člen
101
prodlení
##právní
lehký
##pala
vidíte
##turu
sušenky
nabit
vzorem
##gie
pokli
zma
pomohl
zazna
ast
##entuje
##tav
neje
profesor
##ener
vydané
nápojů
povede
spánku
zákazníci
##rovo
nedoporu
litví
kamer
urych
náhrdelník
nezna
růže
manželka
náhradu
steri
dítěti
absolutní
##čovice
cítím
##níkovi
nerov
návštěvníků
##entně
dešť
poslucha
chlapec
nestačí
nehody
hodne
holi
znalostí
nekou
barevných
počtem
##žov
podklady
vnitra
krajina
jízdu
rozva
vsi
bulhar
staví
chová
málok
vypadalo
##livosti
skut
##vkami
krabice
očkování
##tle
zlatá
##vaceti
samy
věže
##hon
krabičky
ukli
##ticky
##inné
vojtě
##žce
vládní
rozlo
včel
aukce
##hodně
poháru
bask
thaj
zastávky
##ee
##nych
sortiment
##sána
osobním
punčo
prima
zlom
pláště
##čenou
##rovice
obhaj
řetěz
##ckem
rusku
klikněte
milion
##třebí
podezření
##šťast
naci
vychut
##rovaná
comp
rozliš
##níma
celost
Životní
kopce
látka
vyhovuje
litrů
přej
platnosti
mikiny
celkového
reklamy
komory
##dový
báb
##mace
kostky
evange
##lali
##rálních
spuštění
pepř
přihlášení
vepřová
dočka
mapu
penis
##vové
doplněk
clas
pojď
##wag
##wal
make
rychlo
hnědá
##rip
##zatím
mezitím
##sice
odtud
rajčaty
##dné
způsobit
white
dodržování
best
děčín
##ička
tábora
traktor
svíčky
celkovou
blízké
exkur
pražského
plném
francouzské
##jíždě
prom
započ
used
doc
1997
bývalé
dostupný
půdě
láskou
volej
povzbu
účinek
stejným
stálo
prozatím
psČ
pohledávky
břeclav
literární
zájezd
komor
účastníci
lékařské
##bory
fyzická
hnoji
okr
kopie
##leji
##nar
##kus
grafické
##itosti
promlu
prohla
strojíren
xxxxx
pevnost
ros
kostele
##vaného
hodinou
návy
##isek
digesto
koordin
##ónů
masáže
dávají
čerpadlo
cs
úchy
wiki
panenka
slaninou
zastavení
medaile
zóny
##jit
##king
##bičky
relevan
pouhých
smlouvou
##držela
##novice
čp
kontaktovat
rep
platné
##árny
padesát
##vány
klidné
výklad
gt
##ers
nájmu
játra
srov
přiznání
rodičov
člena
rizo
cli
hlo
bydlí
takz
uspě
360
nejlevnejsi
činu
zaměstná
záslu
cim
ach
německý
vypína
radik
zakázek
##ella
##dělal
##zela
##kret
##tim
bc
lhůta
otra
dvor
schopností
průběžně
toaletní
zavaz
programem
petro
apa
nespl
##krý
obyvatelé
pojed
multifunkční
##tnice
máslo
vyplatí
léčbu
outdoor
začátečníky
##vnice
##70
exteriér
feno
zapotřebí
##šnice
náplní
životo
všeobecné
policii
italské
tábo
ochot
řešením
zajímavou
způsobil
známých
##bám
nenech
uvidíte
vydělá
transak
zločin
čerpadla
běhu
krajské
##tického
širokou
smetan
neum
vzrost
hoře
klaví
vnu
pláže
banko
pré
starou
brosk
napoj
##žeb
##obra
něčím
zub
natáčení
##kol
veterá
akcií
skle
časy
konden
ducha
podstatné
reklamace
##álek
politických
kufru
dopravě
smooth
přiby
třebová
lyže
vlaku
ruchu
ztráta
břem
vyfo
##cest
oper
fale
bil
způsobů
kapucí
judr
##lými
human
pozdravem
určeny
##stům
koupě
kvalitních
kontrol
np
##tru
prodat
přímý
##pul
skončí
pohlaví
zajímat
británie
zbraň
##pus
přirozeně
násil
dino
cra
naklá
konstan
##livou
lopat
představu
neváhejte
uvě
ateli
přijďte
znojmo
pomáhat
poštou
tanec
obývá
##niho
peter
merce
střediska
chlazení
lyžování
hospody
##vát
##jád
rajčata
pomohla
ploš
##vými
písni
koli
významu
závodní
nechybí
šedé
letecké
zřiz
vé
##jního
prí
suchý
mexi
špená
nástro
##daní
dobrým
jistý
klaus
studijní
##neku
stiskněte
potěší
bos
předsí
zác
poděbra
vyrobit
paříž
750
##ouště
zlata
barvách
osobám
učitelé
tiskové
ohra
Černý
brusel
výhledem
james
flash
vyjádřit
##bs
kvalifikace
leo
zavr
fire
##toku
##dom
##žď
působil
lásce
zbývající
vylu
ztrát
lodí
##lonu
##sudek
uvedený
##vid
sezónu
nejedná
odešel
zesil
přihla
vcelku
chovat
poloze
dopu
spolek
fondů
detailní
metal
##slov
technický
běžných
kanál
nebyt
nemohli
stejného
nestalo
synd
jezera
rozhodující
školním
spotřeby
nakráj
hlavne
ep
center
king
životem
ruska
##žkou
kancelářské
invali
věřit
##bral
spokojeni
žluté
příklady
říkají
lahve
##hraje
cukrá
ivo
personální
240
rozman
zaregist
##hři
##zujeme
##šeně
guláš
##anka
nákupní
neobvyk
sú
vzpomínky
zdravotních
podporovat
##znamena
ktor
účinnost
mělník
mobily
zařízením
trasa
králí
sej
##rvá
loňského
dotá
zaslouží
obrázků
##kle
##ňák
výměře
uspoko
myčky
##što
kovový
reaguje
ukládá
faktory
bílou
přidejte
rajčat
##rážky
popí
radosti
složek
sektoru
vývar
severo
senátu
televiz
interpret
stole
požáru
##bon
disky
podlé
úraz
přečet
miluje
ck
dílčí
##nná
poděkovat
vychy
##nechá
potřebujeme
pila
přípravku
dete
zůstala
pneumati
drah
usmí
cross
app
bavlna
##valit
mokru
severu
perspek
přezkou
ohně
jeví
závodů
krmení
ovzdu
##nutá
zaměstnanec
danou
jazyky
##hol
souroz
ohlá
##dni
##mona
arch
##nese
vodních
skladby
draho
##uer
lok
pouzi
paříži
zeleně
podstav
naplán
odesí
bílého
ustanov
oblíbený
bad
nastup
stačilo
úžasné
důchodu
zadavatele
noh
nápady
menších
Ští
eroti
manžela
důležitou
receptu
vysavače
přítomnosti
time
rakousku
wh
##hopu
ovocné
zákazníkům
##tálu
poskytovatele
ventil
##hůru
postupovat
pevný
lokomo
##chest
pravdi
barcelo
diky
##lovaných
frýd
##řany
rs
##ologické
##stri
vyhrát
##graci
motivy
dome
podráž
buchta
dospělých
poplatku
bonus
hnědé
pyž
dámy
uzavřené
vzhůru
karv
techniku
šik
bývají
##pet
střih
leas
zátěž
kapacity
značce
obrovský
stanovených
dělník
kotouče
nejpro
žalobce
hodit
konečné
zásah
provozování
souvisejících
##barev
pelhři
nejčastější
1990
třikrát
dodržovat
smrtí
následujícím
##psal
procesů
akvá
##rejme
##sklad
stála
buňky
##níme
tématem
vlastníků
symp
jízdě
postoj
Úklid
záběr
hradci
odvez
##řeným
přizná
lhůty
##čové
večera
urcite
##vak
realizovat
fakulta
Řím
změnou
hrnek
mov
plateb
##lovým
polá
vývo
##timet
rychlou
diváků
##tero
korup
nejoblíbenější
březnu
úpravě
##ych
trvat
symboli
průhled
bezpečně
trop
fanoušky
minimum
klíčové
garsoni
drát
kvan
přijmout
##cími
velikostí
zbytky
##tníky
dd
věři
přepra
trvalo
rizoto
potřeboval
oslavy
nutnosti
panelu
přivez
odkazu
nejsme
představenstva
tekut
užití
vesmír
délku
##hněte
manže
siru
komisi
neobsahuje
nemůžete
nízkou
nepřet
rodičům
turnov
bojí
projevuje
následky
##lum
nefunguje
plánuje
středoče
uvolnění
plzeňský
nož
pracovišti
bosch
troubě
Ček
zaměstnavatele
podílu
tuňá
vrácení
důkladně
##chala
samotného
státech
uši
půlno
stání
sponzor
jableč
stanovena
kamna
alexan
##ujícím
bezpečí
registraci
##žehl
medu
obsahující
##cle
odběra
partnery
plzně
hed
pozů
##šova
nutná
spotřebitel
št
zapojit
kino
nakládání
plen
nápoj
odpověděl
svědčí
myslíš
výprodej
prohlídka
dokoupit
pedi
turistické
navzd
tt
basket
vlhkosti
zvěř
neodpoví
dostupná
seznámit
přípust
spisovatel
vyškov
dvojnásob
##čová
velik
amerických
češtině
subjekty
zánět
dup
samosprá
církev
spla
Článek
závazky
octav
současného
duchov
hladiny
chůze
poloh
dubnu
##áá
kaka
kruhu
michaela
setr
průměrné
islám
vzru
ču
závěrečné
jihomoravský
navzdory
svatba
distribuce
##roni
drti
existenci
uč
makro
specifické
haly
učitelka
přenes
##bání
##unda
faktury
zopak
vymezení
nemovitost
havířov
##heň
##počátku
##stím
stadionu
objevují
oborů
##organi
##tujte
plic
párty
cle
displeji
jednodušší
kámo
společný
dělníci
investic
kompatibilní
has
opotřeb
angličtina
mezinárodních
scho
asp
vítá
nejvyššího
Čsn
zamít
chránit
zbytečné
##lux
odsá
smoothie
záznamy
panu
veronika
moravou
Újezd
vypadají
odborníci
přirozené
kráde
honza
hrací
růži
polopen
sjedno
parkovací
významných
tres
přep
spotřebu
grilu
nezas
vánočních
dceru
##21
kojene
kamene
donu
##era
svítidlo
zaží
zve
pošty
implem
Čez
prosinci
přečtěte
poskytují
příčinou
ovzduší
tepelné
silnic
vezme
řekli
doporučená
##měři
##sli
pejska
##těs
##bc
##tne
classic
male
nedovo
pohodlně
vyro
věděli
dveřmi
organismu
ekologické
richard
dnešního
interní
čtr
##áček
vyrovnan
vrcholu
sadu
kolobě
horké
nezvlá
muselo
brzo
##šíte
##žních
koncentrace
úpravou
dostalo
vyřízení
františka
odpady
posy
prvek
##stění
prochází
##luk
dotací
##rim
vidíme
zabránit
út
zapůj
ramen
dominan
spě
##anými
##deb
svobodu
neli
skryta
mt
předsedy
##ložíme
poradce
dluho
mozna
umělé
rado
příkladem
##lh
záležitosti
diváci
sněž
zeptal
dovnitř
výsad
podobu
mailová
##zist
##char
##měl
rozhoduje
##gs
mince
dorost
bezpečnostních
##mezí
Úp
výstavbě
zemní
baterií
čerpa
prosim
živé
krom
detektivky
přístrojů
bohaté
dela
ladislav
pravá
Řez
wat
objevuje
nacházejí
##meni
1991
premiéra
útva
následuje
##advaceti
##ovec
hlášení
zpřístup
likvidace
navýšení
barok
oboha
vyšlo
posílení
tabule
hlasy
##inout
kralupy
##ich
informačních
architektura
silná
##rin
##kovaný
vypí
masky
rejstřík
dýně
prachu
značné
kamarády
použijte
zamys
lék
nabíjení
odolné
solární
styku
volbou
bát
sezna
topo
vrat
panora
virtuální
nález
##buje
procesy
zně
pasivní
podniky
případu
patent
##zání
##dam
nemyslím
abe
odjezd
##sl
ange
jdi
institucí
lokální
karos
hrnce
pádem
stanovisko
nerezové
divadel
rukama
píseň
##álí
páne
##oni
pizzu
roztomi
ovlivňuje
##anem
vyrobené
cestující
odděl
dobří
Šaty
působit
polsku
vzdá
life
anglicky
příslušného
##řeně
##ap
mimi
minutu
otě
kapitán
zdravotnické
biskup
tváře
##ake
phili
založena
zkušební
volks
snažili
##rokar
žáka
kanceláři
##šeni
londýně
uvedená
děkuju
končet
volání
jednotlivými
neposlední
slovní
objednání
##izo
přija
cem
buněk
smartp
filmové
bránit
kroužek
odpočí
obory
zlepšit
##dlech
frýdek
rámec
##ňujeme
mří
koň
sportovního
písničky
bramborové
skli
alar
jater
kupovat
zápor
okamžik
zabývat
zhotovitele
rozvá
##líku
##infek
nějakých
##lechu
rozhodnutím
valent
extrémně
spokojený
záznamů
prin
##konstru
sol
nájemce
drahé
čerstvé
míra
oficiálně
oblíbená
subjektů
zástupců
##asu
##aném
mlýn
zjistila
nejzná
pedagogi
zachoval
kec
sraz
neustál
pojišťovny
stereo
říkala
šleha
výrazné
vytvořil
amatér
obětí
primární
##žal
vydali
střele
sýr
chutí
brokoli
písmen
viny
opatrně
lig
vese
číslem
malém
squ
ojed
vznikají
dovolit
kurzů
##lavi
Ženy
otevřel
vli
rozvody
karviná
##tiku
dokonalé
patnáct
klatovy
ident
nejznámě
dol
zata
naplně
staveni
##chozím
##kupy
##úhel
upev
květá
americká
sále
finančně
##redi
##oři
odměny
talíř
##drželi
pracovním
##nym
užít
dodávka
možných
rozpoz
stanovit
položku
mezinárodního
signálu
hrudní
křídla
podobná
čtenáře
ostravy
ukra
##stein
itálii
výuku
myši
##gue
počítačové
odhod
konkrétních
zpočátku
blb
##moci
měkké
shromáždění
dopravních
##komunika
knížka
##nést
nepatří
nechali
frank
mikuláš
##čnice
lidu
##ovatelné
dražší
trestu
##eze
rumun
zastavě
rozk
zadarmo
krevní
##cházela
nerat
charakteristika
chan
najevo
psala
sezoně
vyrobeny
##šejí
ksČ
markéta
##mani
herce
##vači
patrně
kaple
přelož
subjekt
Žiž
mk
příštím
bakteri
##kas
přechodu
parádní
připravené
armáda
podep
šlech
media
projít
Šperky
##mám
principy
vyskytuje
určená
##zovaný
globální
restaurací
lepsi
##vační
černém
##žije
mozek
centimet
zásadně
vyšel
účelu
##vte
##šeným
##fá
klec
pix
odo
kategoriích
##kejte
dálnice
##zátor
##sticky
podmínkami
##vový
určitých
stěna
slovenské
kina
vyšších
##90
jahoda
cerna
knedlíky
##éma
celosvět
prior
příjezd
medvěd
poznatky
##tos
přívěsek
odchodu
##sková
##inálu
podporou
oční
sotva
vlivu
##cenou
metodou
široký
lesů
kampaň
přepína
německého
lau
uspořád
##pku
redakce
##dru
cyklus
##velo
##kovaná
kávov
nano
pěstování
##káři
přejeme
sebev
kongres
jdeme
trápí
prodávají
reprezentace
upozornit
lidského
výživa
psychologie
zaslat
ztrácí
školou
ado
anga
česneku
třiná
baru
laska
tká
reagoval
připomínky
##tely
dopadlo
ergonomi
významně
focení
sympat
vznikne
snadná
##ase
výkres
prud
##ms
partnerem
##tis
prezentaci
údržby
minulém
letenky
ivana
veškerá
touží
památek
roudnice
snídani
105
fren
spoluž
neče
vyšetřování
přízniv
koko
md
rozkládací
##lio
věty
##kovo
##měsí
uta
##žiště
úřední
adresy
politiku
ostrově
##kove
bloku
očekává
lehká
partnerství
##rách
říkat
náladu
##turisti
manuální
##měrně
přelo
fanoušci
kompletně
dozvíte
##žného
peka
nepřetr
hrou
nemusel
prk
herci
##stej
office
mole
vybavena
kočárky
utí
send
pomal
##over
dělala
vodovod
nizozem
chři
agro
projevy
ránu
Špi
nevidím
elektroinsta
nex
##šle
letu
real
výšku
polštáře
červený
karne
##kázat
stylové
vůli
##rodi
studené
dovedností
nešťast
andě
přednášky
žele
trase
takřka
králík
##adit
but
jiř
profesní
toleran
operátor
znova
##nict
předpově
šampioná
příčiny
nechtěla
zbroj
jogurt
autorem
##vostí
základního
přebal
vnímání
farmá
mediální
nymburk
##rála
samozřejmostí
nebudeme
##lující
##xí
##mera
beze
loňském
##gin
rozpočt
book
vie
suroviny
##řeli
definice
sz
právním
nakrájíme
nepoved
konkurenci
insc
knihovně
světových
mobilhei
místek
sál
novými
chemické
totéž
příslušných
##tickou
transpor
hore
zkouška
##pond
pikantní
##kající
dřevěných
##daly
zdálo
##novým
určitý
austrá
hybri
bramborová
poskytne
dno
##držet
willi
koro
esp
srpnu
prvni
vedla
jasno
výstupy
vybudování
najdou
srozumi
##nihy
kouření
##rich
cook
motorem
včer
ojedině
stávajících
nomin
koukám
bosk
částech
nebav
povahy
volkswag
séri
spre
jindy
oheň
obhá
scre
atle
nádherný
zvýšené
geni
blansko
##šín
babička
zvýhod
mateřská
street
otevřených
značení
nalézt
ohla
koktej
zaplacení
chtělo
svátky
běžný
konvice
cheb
ther
zábavy
hlásí
pobí
oves
úkolem
rozvíjet
jejímž
##chám
posun
stah
odměnu
nemocí
cestovního
kope
##nin
Žádost
samostatný
devíti
výskyt
nažehl
podává
sná
hat
rozmezí
půd
jedinečné
úsměvem
ré
zatepl
montáže
coby
právem
kolen
chře
##xie
americe
##hující
kalendáře
revit
brankář
členství
červenou
##max
vydavatel
slabší
nevyhov
sádrokar
epiz
rozes
##lici
##ous
##dica
##iss
podezřel
evropský
##wood
těžký
lob
linku
##stop
pero
kuchař
##vná
zvolen
##field
##éé
dohled
bož
sedačky
přenosu
##léze
výlu
součin
team
korálky
konzultace
grafika
##livých
různá
únoru
hostu
zpracovat
rf
##vič
vylé
místního
##žším
vztahuje
kladi
##pedie
tereza
1995
členských
elektrických
máma
založit
společných
nežádoucí
zatim
certi
##ventu
kroku
parado
vyboj
srb
relaxační
roš
procesor
stupni
rozmí
zájm
##ňany
akt
kapitoly
##sia
poštovní
vyplně
##žnější
potah
pádu
volit
back
plastový
matri
cibuli
gau
kolena
reproduktor
##krat
vzniklé
připravena
přinese
schůze
návodu
lavice
pier
útě
lázní
neome
kartou
nadace
jmenov
sar
bohatý
personá
chutná
rybářské
parc
##lujte
domaž
Šumperk
##dne
vyšla
vyvinu
##balit
zrcadlo
životu
##voří
##bia
provedeno
##láno
zednické
##ňoval
##vkový
dobrých
běl
nepřetržit
kapitál
hyunda
přívod
porno
1500
inscena
podlah
zapis
portfo
kroužky
nutně
prázdnin
reproduktory
##etika
slyšel
lístky
absolven
akcích
ios
laborator
posléze
skříňka
osobností
úc
##cc
vyvr
večí
tyče
128
zdravá
dp
##večer
jevi
stanislav
tuku
zvyšování
příslušný
##šily
##nb
správná
karban
publik
##konce
zásahu
zdravotního
tradici
kým
popra
pistole
prachy
kontin
kulturního
míří
místosta
not
formuláře
##procent
barvou
čepice
pánové
emoce
plnit
stár
##ping
garsoniery
nejste
staly
dámský
klepněte
eshop
úsp
menš
##deli
sezóně
sbírka
naviga
##ňuji
##ánek
hovor
poez
podpoře
pokle
správě
liberci
papíry
krátkým
postavu
##tage
nosiče
sektor
##máhá
alebo
##novou
nezapomeňte
##zte
von
nebojte
ová
##tující
rus
##vodech
dělo
steak
jihočeský
vyprávění
umístěn
oliver
##bku
hele
táta
##videl
##ille
zabud
zodpovědnost
dopadne
zůstávají
nesti
mara
lampy
##jmy
102
rally
odolný
průměrná
magistrát
umístit
sateli
učitelů
Černé
očích
úvodu
##ralo
nutnost
ukázka
##odí
##něnou
##back
mořské
obleč
čerpání
portrét
pokutu
představi
zapal
okrese
telefonicky
vybral
vnitřních
konektory
rozv
aukro
lékařů
##ráže
podpisem
dieta
lékárna
##tic
tek
argum
nedostatky
diet
##nostní
pohlednice
vani
zdvi
aroma
oldři
dekorativní
plastu
příloh
maska
plavání
záv
nechod
vládě
pur
jídle
##ovské
svaly
vědci
tesco
tich
přispívá
##lout
ticho
ony
naplno
xxx
dívat
vědí
uvědomit
##inkami
sec
legenda
kví
myšlenka
doo
vidli
vložení
sušení
zmat
asij
sezonu
##ish
abstrakt
nervy
##ym
pati
fili
lidská
opi
třicet
výhodné
##luji
##ponden
##kován
vana
##enský
##zne
libo
##anty
dokonalý
##stojí
výstři
starosty
chodi
hníz
canon
holu
leda
holt
nesed
amerického
nedostateč
navštívili
veci
nemam
##vinut
jara
hyundai
hrady
líbit
kolektiv
pokrý
kraťasy
variantu
nakupovat
##zimu
předeps
napojení
povrchem
černou
budi
úkon
Čtyř
pochy
míče
##agu
naději
skan
příležitostí
klasická
1996
sezení
mhd
hmyzu
třetího
málem
archite
nein
##kládají
##žeh
adidas
roho
demonstra
poci
konflik
vřele
barevný
politici
sedlo
cíli
významnou
bankomat
naučné
úrovní
##háme
excel
udržení
don
drů
třiceti
##zdrav
kate
majitelé
jean
kluka
lize
proslu
stresu
##žad
toa
inspirace
protokol
peu
plan
otevřeno
island
shi
##láky
##alová
volan
příno
##átorů
##stevní
##razilo
příslušní
softwaru
high
dekuji
manipulace
řezy
narozeniny
polyester
podpat
zvuky
přeprava
připravil
pstru
smi
ordinace
špenátem
display
průzkumu
knížky
jaroslava
čtvrtletí
rozsudku
mila
kore
současná
procházka
hlub
gold
skú
šká
##caj
česky
##níkům
svetr
haj
ala
nejrůznější
vyloučení
pojišťovna
krem
letadlo
neru
zhotov
zbě
prostran
##gramu
rýže
vídeň
předchozím
změnil
láhve
nejkrásnější
puber
##aticky
umět
lepidlo
##lička
neurčit
##ujícího
mládí
benzí
stojící
koloto
besky
ero
krtek
develo
medvě
přátelství
sazby
šach
kuličky
Údaje
poskytovat
##cne
kous
obránce
kazdy
dodatek
jedenáct
nezmě
tvary
robu
rizik
##štěný
nabízené
aspon
nechtějí
mzd
vyma
podívej
sklení
věděla
havá
trubky
stížnosti
postupů
katka
umístěna
obcích
modi
kolektivní
dělí
pohádka
vstupné
ukazují
textilní
chystám
spořitelny
porost
cool
antibioti
##omi
austra
tot
nošené
pozorování
způsobuje
stínu
kontrolou
pola
složité
##ational
světového
##landu
soutěžní
##lníků
lužnicí
##meny
levan
duševní
zubů
snu
blat
oso
usd
odvola
pokožky
olejem
##ló
nevěděl
vodop
svis
kukuři
orientace
##nuli
navazuje
sídli
splňuje
zvolte
šablo
procház
##avá
##pali
českým
klíčová
medví
našt
kartáč
inteligentní
kapitole
kužel
inzerce
moravské
výběrem
výměny
personali
odvoz
sdílení
##prů
vyhod
uchazeče
##bech
přítele
##metr
vysavačům
zhodnocení
##bilita
Šťast
linux
balk
ker
obří
vajíčka
kryty
ferra
##háně
oceně
týmem
brož
lampa
přihlášky
desek
##isté
toner
pruh
nemáš
gastronomi
##mrtí
družstev
stavět
##run
vlhkost
žlutá
gener
místním
tomáše
pohl
našimi
stížnost
konfli
pojmy
zájmů
moderních
##cházeli
vysu
týdnem
papírové
ion
vyhláška
špin
některý
gymnázia
metují
přistup
vola
pasu
valašské
důsledky
překladatel
porucha
předchozího
ráme
výhra
prevenci
díle
hale
nabíječky
výhodu
důvěry
##žoval
dětskou
samotná
Žáci
potvrzuje
hodnotit
máslem
proběhl
holly
vrstev
záchraná
otevírací
prostranství
trenéra
vteřin
nedíl
ovládat
rozpou
plaká
##dele
prej
nemusím
azy
nan
čili
certifiká
sděl
vstupenky
výchozí
astronomi
intern
kvet
shora
rozpad
kc
veřejný
zařazen
spolupracovat
rozvr
kh
pomohou
fotografování
bělo
prádla
cyklost
vzhledu
pacienty
oddílu
spekt
hladké
##lami
lidové
věr
zapomně
##jížď
poptávka
soustředění
zastře
základu
antonín
letad
oznámil
notebooku
příplatek
hluboké
volbu
vypnutí
starožitnosti
##štice
termostat
kočárku
hlídat
kyseliny
abys
sco
kapky
dil
zkoušel
doplňuje
prošel
elektronických
efektivně
evidenci
##dosti
produkci
##čtější
nedi
nepochyb
mf
burg
skupinou
množstvím
run
konzult
manipulaci
dostupných
školce
javor
drs
maximum
vchod
baterii
budování
letišti
otáz
music
##pto
##vička
vyučování
zabrá
ult
##cat
užívá
115
##štát
bow
uchycení
situacích
vzniklo
dcery
dálkové
sněmovny
peuge
envi
déšť
muj
proprac
problematiku
poukaz
##tík
dělali
kotouč
běžná
kovů
mobilheimy
zvládne
dílem
skleněné
jedu
##čící
bezú
jakožto
holand
politice
nejm
granule
spoje
muzeu
naplnění
##šejte
bry
prozkou
jedince
dospí
schodiště
cyklostez
poo
3000
řadou
dl
##leta
acti
souboj
předpoklady
karbanátky
##dkou
dokladů
sedět
##ačky
výbornou
Ústecký
ust
ledv
parfémy
fyzicky
zápa
koupí
pražském
hap
sele
lidech
aktivita
fasády
dosahuje
jádro
klen
věnoval
snímků
hodina
obličeje
optimi
pokuty
přemí
##stíme
uherský
##tery
záliv
##vic
příštího
vyhý
vaším
koupím
##rub
nokia
úspěšný
ojet
otře
speciálních
##leny
1993
převodu
1945
##zovala
schody
hrano
typické
obrátit
drůbe
volkswagen
snažila
linie
vnitřního
žák
adaptér
ulo
##vzd
redukce
ohrom
zveřejnění
aa
kůň
doplňků
trump
věříme
informoval
dud
původním
damske
zabav
spravedlnosti
anato
bt
civil
Řízení
renault
jeřá
alu
snowboard
motorku
efekti
záně
jon
vysokoškol
legislativní
ekonomie
postižení
panely
##cionální
dnešním
##štěn
diagn
poráž
umi
koberec
nažehlovací
tesa
vrátila
fungují
cibule
buda
muzikan
pomoct
vůní
stříbrná
popsat
západu
skaut
nesná
jihu
jj
prodejci
##nuti
smích
##ave
významný
židli
obyvatelstva
řas
vědecké
revize
lampi
pern
nájemní
projevu
pečený
nástra
difer
financ
##sin
oxi
##čkovou
##zdra
městy
##22
milé
##vkové
polévky
pohř
prodávat
bonu
elektrotechni
dvora
pelhřimov
rádio
kvalitou
dárkové
považuji
zásoby
ds
pozdější
non
ato
rekor
desát
ipad
automobilu
tvrdé
architektury
seš
element
paradox
podoby
ubrou
vrta
##nuty
snahu
nesmírně
příjezdu
sociálním
schránky
disciplí
musejí
úžasný
zaručuje
zúčastnili
pvc
##dis
závěry
zvládnout
##daný
tox
brzdy
Žádný
vysvětlil
žádá
použity
zmoc
##evrop
ore
čtvrté
opakování
záruční
stanic
##fr
přinesl
koby
holčička
podlaha
navrhuje
nalep
jazz
kampaně
psací
vul
moderním
svěží
##finan
##mezánem
profese
obil
##zovaná
vele
##plet
pěsti
pozvání
kterej
blondý
pohledem
zapamat
##nových
vyšším
současných
##oviště
ničemu
##ess
pochod
##lét
dítětem
lokomoti
##hlý
prave
heb
##zovali
##kev
muff
vyhnout
upřímně
vašemu
tlakem
vozík
1994
seniorů
##ceně
##aki
sídla
různě
vykon
trvalé
nabídkou
městských
ima
británii
uklíze
##stero
výher
spojuje
kamarádi
přeje
skladě
klem
##čské
logicky
voucher
vesnici
##buji
otvory
moravskoslezský
pirát
dálnici
téhle
sklada
bytových
svatbu
panem
##fan
referenční
jednotku
neboj
zastávka
185
ložiska
operačního
##radi
obuvi
namísto
koncerty
společní
agresivní
meru
materiálem
##jdete
levne
neuro
přístro
zachová
ahojky
mobilních
##formace
náplně
zmíněné
zmír
bejt
čekala
podal
obyvatele
pokročilé
napájecí
ovládací
##dávanější
červenci
léků
motorů
nábyt
zastavil
##mátor
váhu
teoret
risk
victor
ritu
špatná
celých
nadšení
rakousko
ostrova
pobočky
bydle
##mách
inkou
##šou
exekuce
188
diváky
abece
vw
metr
kub
vietnam
většího
ideálně
klienti
obklady
slovan
##pisů
dostatečné
pozornosti
##čat
vrtá
obsazení
problematice
auten
##nát
aktualizováno
góly
srdečně
##óz
skutečností
poza
útočník
podrobné
down
kuchařka
minerály
aktivi
zohled
##ovede
atlas
vyrazit
odpadních
zesí
olomoucký
objednávka
nejmlad
napříč
vypořá
mysl
svatý
požadujeme
držení
odchod
handica
##něme
neuved
tělesné
balík
ultraz
termínem
odmítá
děláme
kleště
zkoušek
podlaží
dolož
občanům
respond
nejprodávanější
pečivo
znázor
dn
##enců
chrastí
latin
fotbalové
mladi
##arů
obecního
elektronika
vyva
pohostin
kamarádka
domluvit
sra
fat
silou
svaté
kores
transfer
sparta
##řejí
splátky
core
vyuč
kostí
mercedes
clovek
zdravotně
nice
kdykoli
##jdou
neplatné
cenné
nejú
krabička
##šan
##pila
ledu
turnaji
motivace
pěšky
bradav
##tiky
korál
jejímu
avoká
odznak
kluby
radostí
Ředi
rudolf
dovoz
podzimu
mějte
pásma
cc
necí
nohu
##hony
obrazovky
aktivitu
křišť
zdůvod
pras
novoroz
##sexu
podnikatele
výrobních
shroma
princezna
prázdné
výcvik
rozhla
tweet
##ovanému
dávku
rodu
reálné
panny
##meme
světová
podkladů
trojúhel
vybrali
píšu
##nutých
brzdové
obsad
zaměřením
progres
nikam
##chopí
nom
mark
cis
instalat
##číně
##slavice
dotazu
inje
tyrky
puk
##gg
odej
##jímav
pečovatel
otevřená
náhle
těžce
názorů
dokola
splnit
##stilo
##mitu
electro
##kladech
košil
cenové
patrné
##odol
tisíci
vyjedná
ameriky
celoroční
Číně
koť
##ceného
##hosp
ic
papou
leasing
bazény
předeš
kladen
dohodu
scéně
kouzlo
##ovský
nedodr
##mán
550
frýdlant
akredit
##oviny
určuje
probíhají
havel
uzavřena
##list
něž
spolehlivě
##chejte
ři
postře
cin
včela
tav
poskytnuté
zadat
takovej
postavil
piško
alza
krytí
šper
##zec
starat
závodě
##želi
národním
nalezených
antikonce
##dáno
pohybovat
všemu
zlíně
##vaným
##naté
úplné
udržovat
telekomunika
předpokladu
zařízeních
útoční
toku
brusle
světlá
představil
neprav
west
věcné
##anti
kroků
podávání
sáčky
egyp
uce
zú
##amin
objednateli
myslive
devá
##čeného
řidiči
obýváku
náhled
vojáci
##líkem
užitečné
pásek
potř
osy
klade
vyná
specialista
dj
boho
národních
šunkou
zaměřené
ray
aleš
výdrž
pronajíma
##sány
blogu
počkat
absor
společenských
minerální
jednodenní
sin
135
zachránit
##čího
poštov
ochutná
synch
odstoupení
hc
ik
žel
nedílnou
bavlněný
ztratil
úsměv
nejrůznějších
pozitivně
nosnost
semí
vážné
boxer
obtížné
přidané
překvapivě
infekce
skot
slušně
oběti
ramena
rc
časopisy
krizi
pána
##000
kanad
ukázky
##sklá
dimen
protokolu
lor
##bují
deště
jir
svalů
ukázala
lego
záznamu
umožňující
kil
kotlety
filtra
slovin
procvi
tar
vegan
mni
##čína
stolky
##fou
geor
aktuálních
některým
otevřený
dele
krásy
vypada
přesný
rt
neme
mrzí
kombinací
dramat
stol
náleží
řetí
robot
administrati
##měrech
mechanické
milost
roláda
##dním
jezí
levandu
titulky
nata
tok
vyplá
krouž
cokoli
zvra
anglického
jakýkoliv
nest
bezbariérový
podrobně
kod
domé
dm
řídící
zpravodajství
planety
ever
noži
jazyků
autoriz
dokladu
odmítl
kardi
objevit
stavy
exkluzivní
páté
proble
dies
násob
clou
##řují
milý
lg
označit
něčeho
zen
##jízd
zuzana
plakát
##dační
stadion
kapitálu
scénář
##stiku
zapad
##vátní
záchod
##25
##sche
nákupy
ženou
otáček
vlna
píse
platném
sváře
dosáhl
kolej
skříňky
vyloženě
rozmar
přesvědčit
membrá
objas
horské
pravidlo
tvůrci
šé
international
angličtiny
pozvánka
čtenáři
intu
technicky
nohav
výroční
předpokládám
uznání
muffiny
##dorf
norem
nedokáže
usil
skrýt
sídlí
##niká
kabin
přesnost
Čtvr
hřebí
kolech
deodo
zajišťují
záležitostí
ovladače
europe
alena
žalud
lac
vyúčtování
sdělil
svědomí
Úvodní
tvoři
přednáška
mzda
váží
##alizaci
běžného
tez
krvi
odstavce
drama
žlá
##isty
##týká
dospělí
křeh
čtyřmi
odblo
týdnech
provozovatel
výskytu
zaj
##pov
tvořit
hraček
určených
natura
krůtí
chovu
ule
nejvhodnější
mČ
forem
orientační
##vola
##pové
revoluce
desk
poslanec
pověst
novostav
vládu
smetaně
strukturu
symboly
tkan
over
doubra
získává
autorka
vyta
jahodami
krvácení
provozních
ama
portálu
149
vyčí
##konu
ukládání
##bilo
emu
pořiz
##deji
papriky
krásných
provádíme
designem
domem
jablon
obdržel
##etiky
prace
koruny
akcioná
##nis
ředitelka
##nechat
budape
hala
##fikací
##tíme
vytvořili
##ffe
##krov
deštní
pokusy
odejít
katastrální
výhru
Česka
víně
komá
##vani
norma
odvolací
##mos
kontrolovat
němci
rozpor
časové
ultrazvu
názvy
morava
##chova
moj
příchu
##use
zakázá
opakovat
ulic
kufr
ústní
zaslání
jinému
nechám
##ara
##hneme
voň
mandá
doprovodu
pračky
##jice
šíření
pamětní
##řová
dílků
hlasit
vyspě
respektovat
slavi
stěn
drobných
expan
láka
managementu
104
##mily
kysel
##elů
zkusil
zneuží
##růsta
třetiny
bah
výbava
zúčastnit
obřad
vydala
vodního
ukazatel
účinné
186
dog
Čokolá
prachat
statutární
písní
kafe
sekret
česko
##čtu
zásobník
mistrů
nevybrat
##ncem
##ortky
jubi
kd
pokračoval
náru
pomohlo
vitamí
ekologie
hliník
##ouští
prvot
##čkat
##ádu
spek
dotazní
dlouhých
jistá
##enám
keramika
podpů
přehra
650
blbost
obchodování
odstraňování
sati
neměly
kout
wolf
kolega
##lejí
představa
vzestup
nico
nepříjemné
vav
našemu
získané
betonu
uživatelům
složitější
mul
vojáků
koupelně
odci
četl
ztrátu
house
##myslně
##day
##ball
klientům
náhrada
litvínov
ktera
kritérií
soudce
jer
ochranou
poruch
průměrný
bambu
čísle
smazat
četla
106
pochopil
kompetence
zvi
působnosti
převez
##čkovi
##skak
čepi
nezisk
metru
zaměřuje
ingredi
##vém
ruči
kolikrát
sjedná
##měrné
obrábě
slavnosti
##ední
danie
kalou
pustit
miska
bavor
Číslo
kanceláří
chorob
filtru
vila
299
##trol
výkonný
slunci
##pade
##stickým
kak
zobrazený
##čeni
pražský
zakladatel
fc
meli
dostaly
posoudit
mobile
osvědčení
vypoví
úhlu
terénní
změnám
právnické
cedu
##peci
střídav
držel
němčině
pěny
panto
úmrtí
párkrát
##érem
##ado
jisk
fazole
výstupu
tie
count
##zr
mluvil
beach
jitka
ošetřovatel
německá
výměně
##lníky
##ces
pato
jaksi
elektrárny
holení
nadstan
bytového
portál
chilli
smů
důkazy
anglie
pavou
předložit
inovat
snů
skutečný
##ketu
moč
##nickým
rozšířit
obdiv
tého
věta
pilot
daňového
školních
realitní
vín
##šeň
přerušení
komfortní
hospit
nezapomenu
deka
účastní
Čína
krista
líst
mimořádné
##idy
nob
##nulo
nejh
příjemnou
thu
##moder
upra
##cova
prase
pods
fanoušků
##pci
podílí
chudá
svoj
ken
pojede
zprávě
snídaní
zdán
mísy
matice
reklamu
instan
vodoznak
##pané
##ínka
znamenat
plochou
držím
víry
přístupem
másla
william
hostý
neprod
archeolog
uzavřít
fac
hrdina
primárně
regály
##téry
konal
pražská
desetiletí
evropskou
těžší
strachu
rovině
ostro
sluníčko
zlínský
vzali
mv
potla
nahrad
zvýraz
kuchyní
krátkou
sportovce
orchest
zálohy
monika
que
kory
nepu
##řeném
lym
namá
silnou
přijel
320
##zuji
nejsil
pada
podo
karl
ocelové
soupeři
vaku
hand
matematika
stor
zapnutí
jablka
##bici
bezprostředně
##mark
otevírá
okouz
mailu
##mej
tuňákem
karneval
investo
pedagogické
zkusím
posuzování
elektrická
lavi
tabletu
záruky
chodím
ulicích
rozměrů
centrem
službě
alergie
sobota
ency
hané
##škod
velvy
přemýšlet
nálepky
předních
jednost
obrazovce
slovenska
duba
pytle
##árna
##haly
exp
vec
štěňata
##mentace
investovat
regulátor
mlýnek
schopna
hrála
chlapci
helmy
popro
způsobené
výstavě
halu
hrade
rozsudek
vyhráli
stříbro
jane
značkou
prosp
záku
hejtman
receptů
presne
členské
##nkám
vlaky
vzděla
milí
vv
komerčních
turbo
slavkov
ohřev
##tri
osi
sod
řadí
club
závislost
pořádání
černobí
okolních
táboře
lehátka
podobnou
##tří
pospí
experi
wash
sestři
překoná
certifikát
klesá
vari
##syst
##kel
vyrovnání
Řešení
schwar
papež
výnos
leta
pravdou
magazín
limo
pep
jm
nespokoj
pohledy
obran
##padku
odpolední
tiš
vyn
##ftu
nepřátel
scéna
dokázala
člověkem
spotřební
důvěru
##row
##rovým
proměn
##mazání
jedeme
polska
##čítání
obdé
hlodav
lež
důležitých
##cionali
##štního
dopravního
vzory
náhrady
pasá
světový
takovy
zaprac
vlakem
sper
přizpůsobit
návštěv
vůni
pacienti
kořeny
hlasu
multimedi
jednatel
nutri
##bírat
mamin
duo
##pos
polopenze
Žlu
from
vhodnou
výnosy
skládací
bitva
kapacitou
upozorňuje
stěhování
uvedenou
rozez
přírodově
##rit
prášek
prody
všeobecně
johan
##zak
pódi
znečištění
vzdělávacích
sklu
osn
ekonomických
zapalování
##jev
Úřadu
samozrejme
tón
volá
endo
bylinky
this
individuálně
hokejové
##zrak
123
sebevraž
chlapce
různo
konala
liberecký
přived
okolnosti
210
yorku
honor
identifikace
bila
patnácti
liga
zveme
##anky
helena
psem
odpovídat
postižené
penzionu
atrakce
jisti
nezbývá
##poziční
mld
fenomé
úvěrů
##nel
suchá
listiny
herečka
internetový
ledvin
peni
##cil
prvé
vylepšit
kníže
diplom
kovu
požadavku
povědomí
kapsi
vyhle
##idu
představy
nemění
subjektu
rubriky
děde
pily
směsí
výzvu
odleh
inspiraci
##jeť
bodem
košík
##vár
inci
jediného
ústavní
kování
požadovat
hoj
kupujících
##řeného
dlouhodobý
pohoda
##not
##bru
kabát
Řidič
##iv
založil
bang
stín
zříz
vzp
chri
jídelníčku
cizích
##začních
nesmě
zpe
londýn
gymna
poc
mex
Čin
plaz
litomyš
žákům
vašim
straši
odůvodnění
omáčce
navij
otázce
##inali
##zdvi
koncertu
splatnosti
##cute
barevná
výslovně
poměry
komody
zařadit
hil
##silo
trek
upozornil
##eso
čalou
celým
chodu
nala
nádherná
vyrazili
kódu
brašny
dílna
argument
nehodě
##avý
atp
podprsenky
dvanácti
head
poklesu
srdeční
obav
udržuje
lite
přip
##mý
hluku
pamatu
textů
indie
##one
jakéhokoliv
součásti
##zl
urban
fru
bábovka
redaktor
říše
##inova
##klí
zúčastnilo
vlivy
sud
nevidí
vlákna
zále
právu
následek
ferrari
##ong
##ózu
svitavy
kristu
dana
kalor
salo
komunikovat
zoufal
prstů
regionech
rukojeť
uzam
rozhodovat
rozsáhlé
svetry
live
nejra
dodala
cenově
5000
##něným
tvarohem
tílka
cap
nejake
zapomenout
zklid
##zory
objektivní
##lostech
##12
utek
přinést
sŠ
##ide
tržní
faktorů
lipník
žárovky
nastal
cítil
apartment
##skách
pevnou
hřbitov
tah
##řící
dekla
výhoda
vytisk
reflexní
nepotře
rozpočtové
lenovo
podporují
##érou
poslanci
may
dluh
kapacitu
##ality
##vena
běloru
##íí
rozdá
vznikly
karoser
naří
280
kapra
nazý
zahájením
hřeb
musim
úvahy
odborného
##níček
neve
programování
vzpomíná
vosk
vejci
znamenalo
buf
sucho
analýzu
Červen
sedla
mah
##vlast
loka
umístěny
kvalitně
zachovat
jinam
drobnosti
sedl
veľ
státním
úhradu
kapr
##hnete
čtvrti
##plň
dovolání
spin
doplnil
tas
bezdrátové
hmyz
vodor
mistra
stačit
špí
dosavad
pojďme
popsal
nudle
shromažď
##spěš
##vová
jirka
environ
lekce
Červená
prohlídku
přesun
nedostatku
zoom
##skej
hz
zkontrolovat
manželem
přežít
matěj
ambulan
tituly
čokoládou
posed
protá
výuce
významným
jednomu
krátká
##ováky
výchov
pít
##ankov
vybaveny
odlož
banán
koupele
primátor
nb
##zilo
##nového
jemný
nenápad
veselé
link
sety
zachra
hygiena
zobrazuje
předat
kleno
návrhů
odved
autobusu
hledal
feli
světem
tup
din
omezit
příšer
nechcete
Účet
náma
pořadatel
tenisky
chytré
sve
remí
##oba
sestup
tej
jeskyně
Články
zvýšenou
extrali
napína
vnitřním
limity
konzervy
deky
edice
vymýš
vyvě
brigáda
zahrát
inovativní
nastoupil
republiku
závěrem
libu
terapeu
včere
žup
hodnotou
blbě
přiznat
zdeňka
vsechno
pig
##zii
řece
logické
109
mot
ich
zábradlí
návaznosti
integrace
problematiky
příručka
používané
odměna
královéhradecký
kamenice
proro
zprostředkování
payu
##host
intele
stavebním
nedokázal
nezů
bezplatné
##šroub
pravděpodobnost
nástupu
bramborem
vyprodání
legendární
klasika
poklá
##chvat
##myšlení
jedni
##kú
##lící
použita
sken
generaci
hloubky
džíny
Čtyři
datové
ženské
poprav
cist
mü
mame
##gel
##kův
##mentální
##jme
energy
##15
nasy
velkými
podr
##kama
slušné
evangeli
##ovanější
technikou
technickou
108
autí
přispět
sedlá
uživatelské
kanálu
konkrétního
vrátili
užívateli
podlahu
tapety
hřeben
##inger
##ola
##nald
paprice
zrekonstru
rozdělit
vídni
bojím
ovladač
kompro
nejza
albrech
##ůvě
vyjádřil
podrobný
##žník
dale
vizuální
adrena
sas
kyta
odborníky
společná
ubytovací
pánev
oleji
octavia
orientaci
zabít
varování
quart
domek
okresního
komod
koalice
road
##jen
twit
solidní
skály
použil
krémem
exkurze
přehrávání
vzorek
prachatice
kosmetické
hluk
průmyslových
šrouby
databázi
soukromých
komisí
jezde
hluboká
napíše
vond
##dního
nafukovací
end
perspekti
měřením
ďá
zaklada
zjevně
střecha
##litou
doporučil
pórkem
stavitel
vnímá
##rover
překrá
##mt
poled
tramvaj
dab
nějakém
indikátor
##jové
impul
vsechny
bezdě
masážní
prezidentem
vyjadřuje
testů
spokojenosti
účes
intenzivně
tís
zelenou
modulu
renes
výtva
zelím
trez
veškerou
175
geometri
##tář
folie
zakry
##metrie
neoprávně
maklé
svát
##zp
uspokoj
komplikace
spolupracuje
destinace
emisí
věšák
vystud
bělá
gab
word
karvin
vlaj
vlas
187
zdát
definitivně
děláte
zavěšení
provedené
mrkev
report
##kovaných
oti
akutní
podzem
schválila
##hlých
umožnit
žadatele
časově
brigády
rud
rukávy
partnerů
hlídání
rozložení
návrhem
vyžádání
vd
nepomo
##ryně
kolegové
egypt
kvalifikov
##pínací
##vim
##štěním
##krt
pastel
odsu
##žeš
evolu
vyří
pravém
zařad
##leze
inovace
zvláštního
nohama
princezny
ax
připravila
účastník
lamin
imi
bavlněné
zvýší
společnou
zro
zasu
##45
francouzský
dlažby
hladinu
trefil
místností
monitoru
##zes
slit
polsko
vets
##fak
používáme
obranu
1200
miluju
easy
##det
urb
valné
znaků
##mují
uděleno
vyti
klasickou
##metru
nevidi
##nímu
hotové
##leným
##meň
uhradit
rag
pohyby
přesil
bohatství
xp
víři
rybníka
pěve
nenašel
##knu
připraveno
veletrhu
ose
pouť
obrovskou
bloky
vrati
##řicet
kaza
vysokého
ozbroj
##35
##pix
navrhl
##vných
zaujme
brána
syndrom
##tkou
hořá
##af
game
verti
podávat
hudebních
nikon
požadavkům
plnohodno
##enkou
jezero
##motor
##rozá
přepravní
teplou
informuje
aplikovat
záhad
dostávají
perman
investor
výběrové
##álku
rop
pytel
##licích
tvarů
maleb
koza
filosofie
tarif
skončilo
hezká
potřebných
závazků
navrá
výjimky
##vajících
původních
poslouchat
kvas
day
archivu
zpomal
potvrdit
ate
kotní
parmezánem
##vami
předkládá
reaguji
potoka
##hm
hran
##pson
autobusem
potřebovala
přivá
prota
odka
vzorků
ničím
vložka
zadali
otrokovice
vyplňte
kyslí
týdenní
##picky
olomouce
kvalifikaci
národa
##jícími
dyna
nadšen
##inter
kariéru
stanoviště
světlomet
##tain
##mala
mikrofo
##slavi
kuřecím
zloděj
přežití
upřed
domluvě
nejisto
ostru
brunt
šortky
halenka
listí
dk
zlepšuje
tvarohový
country
arci
využijte
opí
vyhro
kyti
neděla
fyzických
tratí
solá
opravd
kamenné
zdravotnických
požádal
droger
naučí
maturitní
nedaří
vojtěch
postará
usi
##fix
kavárna
připraveni
lich
mz
pyrami
invent
výstupní
cílové
pravdy
chev
proká
uzavřel
nul
řízky
rozhovory
nedojde
skalní
##icí
náskok
vydáno
sobotní
kreati
##grafické
juli
motorky
ropy
chlebí
##áru
semifinále
vyhrála
tváři
iČo
##zovou
uzavírá
inzerátů
odporu
objevily
časté
##kupe
patřil
##účel
pozorovat
starém
alg
seznámí
hrabě
##cra
odlišné
##hlou
kříže
prodejem
vstupy
##zdí
hluboko
soudního
##říte
patři
univerzitě
zkontrolujte
čtenářů
mariná
##tam
trestního
objednávce
tuhá
vzorku
příčin
how
příštích
sprcha
##tar
překladu
vracet
léčení
##kujte
prémi
putování
nejrychlejší
půdní
nečas
hrnec
začínající
did
jaromír
litu
ced
##etami
sledovala
##lovaný
změnila
souhrn
nevhod
bruntál
výpověď
výkup
##ňový
přišly
překážky
upevnění
parní
nehle
anan
##štejnem
##zvané
naslou
finální
ai
aktuality
nevíme
novák
bezdo
prek
liké
kopřivnice
síle
##kační
ničeho
pracovně
úspěchy
zavřít
předchů
terasa
##žité
dražbě
sporu
##jádrový
doch
udělení
ideálním
Římě
zakončení
joh
ostří
##ako
veterinární
nimiž
vystoupí
tělových
krimin
##zova
chodby
klempí
service
člu
trasu
agent
snižování
odborný
strav
ponor
hrách
brankáře
nachy
přesvědčení
vychlad
podzemní
podkrov
úřadů
raket
čistá
černého
vnímat
klasických
##chají
osvobození
cosi
brig
polep
amaz
protest
cizin
šťastný
vlastník
jádra
hedvá
poslechu
doplňkové
odpočinku
##úto
##nica
projektech
minulé
budějovicích
##opat
##brala
vypráví
občanská
##ezu
moleku
někým
aha
třídění
steriliz
basi
##city
žlut
kapitali
městu
označením
bižu
vyskytují
štá
##most
výpočetní
##mál
obvyklé
obnova
divit
##štěná
horním
##aso
patra
medaili
kulturu
odle
kuchyňská
##hnul
neuvěřitelně
nereag
levá
prokaza
lékařem
označuje
lepším
registr
vzoru
saf
odli
kytaru
téhož
háj
anglické
reziden
andrej
německých
dobru
dokáží
libor
##lův
přezdí
opatr
snaze
##stic
slavia
zadejte
pardubický
dozví
ježíše
populá
úhlopříčka
dřívější
spánek
399
tělesa
dostupnosti
##dán
pejsek
zamýš
flexibilní
kapo
##enách
náměstek
##hs
nin
111
html
##tela
hody
dovola
##pin
režie
aré
hotovosti
počáteční
hnus
vzniknout
##káme
opustit
tvoření
##sity
zkušeb
třídní
##růstá
color
poškozené
považují
zaznamena
předsedou
otvorů
metodu
ris
mraky
setkat
##dělo
květináče
selhání
##lily
obnovu
ochranný
sankce
kliknutím
položit
##cos
spojit
dávka
nebankov
šancí
chotě
nezaměstnanosti
stabilitu
relativní
spojky
prostěj
pohledávek
rozsví
spotřeb
##raly
krajině
dote
vstři
gynekolog
chladiče
gymnázium
hloup
ptám
nedělní
sakra
heli
marián
zlik
gly
destičky
##ings
bible
holo
tacho
trávy
fb
únor
Řem
Šár
moravská
akcept
peklo
##centrum
vajec
jezer
rozbor
napě
zóna
##mentem
pik
pomůcek
turistů
##power
##hera
malíř
##rník
neratovice
pražských
pořádek
ej
##genní
##mor
chlapi
nestojí
zrcadla
švýcar
turisty
##racích
dostanu
gig
tvrdit
rozpo
fórum
##itivní
rybník
integrované
strouhan
úrazu
##služ
předkr
unes
čínské
zpravoda
fro
vyvola
pozad
vaně
quartz
skrývá
přátele
přicházejí
##pace
sound
pilu
srdcem
zájezdu
kouč
kolí
akry
záběry
vypnout
konzole
úhel
plánů
podílet
skrz
medicína
spolé
znale
muslim
operací
příp
ustav
jizer
vrchla
vymá
pečená
léčit
volant
konzerv
klíčových
odpovída
##átů
svatby
taxi
členům
domácností
růžový
fakta
trouba
trvan
každej
právními
žadatel
noze
policaj
limoná
koe
plechu
jindřich
ochranná
##šelo
trium
ostr
necelých
napsáno
pic
světlé
labu
##hlédl
nepravidel
zápasech
vzápětí
##títe
##jíždět
rovná
gott
pracující
květen
jev
ostře
##vance
čtu
pásy
long
belg
speed
novince
##zován
dary
ověřit
fantazie
obzvláště
komunál
##48
##kyni
supermar
autobusy
důležitým
odebrat
vstupem
##kre
svr
chole
efekty
matematiky
##líka
poezie
kopi
rány
kohout
evidentně
svítil
zvětšení
vysou
kapaliny
##dex
střechu
ledě
měřít
návody
zpracováním
izolační
##pole
úle
washing
videu
vyrost
telefonů
skryté
dvoře
dělení
103
dopady
rakovník
##ovin
peugeot
siem
slovem
krabici
víceméně
studii
rozumím
Číny
obnovení
##dge
adé
ušetřit
lahví
líbil
výpočtu
zábavné
maria
dodateč
trzích
strategii
##honu
##stry
ass
zbar
šta
podka
tloušťka
dobra
pomocníci
mosa
##cé
##novat
krist
nenáročné
##ford
fotbalisté
##99
příslušenstvím
založen
ruský
posel
##amer
mýdlo
spoluhrá
alfa
pokynů
ami
toyo
dáma
poptávky
všestran
##knutí
nechybě
kroup
úřadem
##hoz
##nau
made
anglický
různým
vyznačuje
fotoaparáty
lidský
filozof
provedl
účinku
pracovníka
odehrává
##šnou
církevní
podší
soubě
hrn
##stitut
##ovská
bílých
bomb
státě
připu
dinosau
procedury
kladně
čekání
milovníky
tunel
teplot
##ovnice
##covou
množ
tragé
světel
vyrazil
##pun
marmel
enzy
##vař
##lána
cestovat
ghz
studovat
učinit
ef
zakoupení
třídu
následujícího
široká
galan
trampo
kupujícího
nemocen
dolu
paul
jihových
sepa
##well
slabé
Čet
dávkování
expo
##islava
fialová
reakcí
stávajícího
počítačů
výběrového
potápě
paro
místopředsed
vyrovnat
pánve
coz
lady
nádech
kyseli
budd
##šším
spart
Řada
rozhodnuto
verzí
##grační
zasla
##isí
pavilo
dezinfek
zapar
rezervaci
milují
vyhří
bratisla
vybrala
##psat
stylem
upřednost
srážek
zadávání
tp
půjčku
personálu
Šed
předpisu
miss
hladina
životopis
pruty
##sur
místopředseda
zázvor
novinkou
nm
jasná
Štěpá
připou
dobírka
zmá
##ďa
nenechá
zemědělských
znají
datu
schéma
prdel
trestné
pravomoc
radim
divize
kád
výtě
rozloučení
medailo
jedinečný
tvůrčí
##ejmen
stoprocent
##rr
nízký
kabe
odchází
ponechá
chrám
hun
##berta
neumím
odolná
##tví
tichý
pracovnice
nenapadlo
nemožné
podtr
zasvě
epo
##řátí
nejas
nepřes
minerá
vyžadují
##itého
anglii
pokut
dlažba
ořech
ujít
odra
třpy
vítejte
obnovi
strý
službou
nějakej
sortimentu
komora
britské
garant
udělám
nuda
realita
zpevně
řasy
elektronická
##šného
kys
Čín
##telka
historický
##kovala
volejbal
výživy
druhých
##kří
cuketa
setu
##vald
aud
kamaráda
pouště
spolupracovní
slušný
odvahu
zázvorem
##ždí
skrom
ochla
angaž
krmiva
andrea
projeví
neku
digestoře
klobouk
konkrétním
lišty
celoži
organizátor
bojovní
světu
břicha
pohovka
okraje
##rovaných
nefun
vedoucího
davida
uvedeným
alter
rozmarý
spir
musely
teoreticky
stranami
##vna
##átem
společenská
beneš
cti
ft
výcviku
špagety
platbu
přelomu
sliz
požaduje
aran
dramati
výjezd
myší
spousty
spra
halenky
mše
absence
náramky
čemuž
instalatér
anonym
vyší
vyzkoušejte
vor
edi
národů
navštívil
deto
obrazů
nejraději
##řeje
počty
ozdoby
bílým
plov
tuk
nárů
nedal
zárukou
světlem
##jním
těšín
hradě
poslanecké
##eli
odpovídají
plamen
otěhot
##děné
souhlasit
jménu
##idů
##lný
##ůr
nezapla
skalice
vize
připraveny
pásmu
##itele
##sklu
plášť
nenechte
##novy
modrou
spoření
navy
adek
kid
Širo
staveniště
mim
##niště
hudbou
vyrobený
lístek
katoli
týkají
zavla
chtel
promít
polohu
prova
atlan
control
bouř
##emy
original
rekrea
navic
tm
499
naprav
trávení
postrá
zjistíte
jídlem
##praved
vložte
mise
mláď
Šla
##boar
barokní
dekorační
přírodního
happy
dodatku
přepí
procházky
luka
zemana
draka
přiděl
výjimečně
nádvoří
##ader
kombinovat
krásu
##stanu
##lera
##rátory
##zováno
york
pekne
posíláme
zpěv
Červené
polovi
melou
pse
náhod
zákoník
půdu
trů
mhz
schová
nenabí
peněženka
přijeli
holčičku
nalezené
zadrž
exekutor
Čechů
zábře
předškolní
volí
aspekty
dramatu
tělem
podrobnější
dire
navždy
víru
kristý
##ovanost
líčení
respondentů
odkazují
výstra
umyvadlo
diab
polní
tlumočení
slečna
výče
##sne
maličko
##ovského
přiřa
oké
##mož
výletu
##řín
extrémní
historicky
nechut
perní
nápisem
antiper
##lovka
touha
úkli
cidli
noha
##stur
známého
ráj
svěde
sebevědomí
čokolády
textem
zmrzlina
doktorka
brněnské
mandle
postři
zablokovali
mati
##23
vaky
konkurenceschop
##rejte
1968
faktura
narazil
transfor
jídelny
zeptala
bakalář
##ite
přehá
potisk
sandál
prosadit
stávají
klima
##menut
expor
##entací
uchazeč
přesko
zaříz
image
##nickém
doplňující
eshopu
##uješ
##zových
kultuře
parta
deodoranty
deprese
treska
pojistného
roztr
okresu
historického
zdat
výzdob
chrániče
sit
debat
sanit
vzkaz
sledovaní
udržování
nastart
přinesla
borůvkový
košíčky
ohodnoťte
musli
zimních
420
věra
bare
nemocných
oslavu
vítěze
debu
relevantní
organismus
bodě
papi
tax
menším
čeští
obchodník
lisa
george
prohlédněte
povodí
blíž
##livým
houpa
rozhledna
dochá
philips
drogy
zdí
pravě
##sor
zapomí
úniku
##zám
hip
šíře
spojka
##hlížet
##enie
nedostane
##vac
cukrem
##ěl
institut
antiperspi
vydržet
##slou
##jšího
bruselu
studentům
##mice
sešli
fondy
předsti
čočky
pardubicích
originálu
modra
velikonoce
jednoducho
sirup
period
jednostran
fox
instalační
Čtk
##cim
##gusta
novému
následovat
korej
zajištěno
hodnoceno
vrstvu
kontaktů
parcele
##jezdy
rapi
ochota
obdivu
##gl
encyklo
sestavě
obsluze
zez
##nemo
přile
průchod
překonat
bratři
prok
##kovicích
ukry
##chlad
osma
nezlo
osušky
zázrak
františ
##win
krav
duben
kn
plánované
vyrábět
soustředit
vysko
oborech
dílen
oběť
zbožím
zátěže
##čítat
daniela
tradičních
vybere
olou
##pravdy
dusí
podáváme
asfal
námitky
řed
hesla
chlou
turné
##13
##zely
fry
potý
předložení
##rátora
kolečkách
odně
výrobou
poslání
##čníku
půda
##servis
oslavou
tlačítkem
převzal
nepochybně
harmono
připravený
jakosti
peká
potenciální
hromady
mladého
fotbalu
knoflíky
přijede
krajů
nejmladší
case
Úklidové
žebříčku
stovek
nejsla
postoje
pronik
občanský
popular
##sile
nejlepšího
hrubé
pozastav
dorty
česnekem
placky
nehro
podlahové
transport
kredit
##gene
těhotná
##keta
nepova
nahradni
##dují
krva
##může
ztu
dekor
tribu
prodam
minulost
konek
##nutou
reference
peru
vag
předpokládat
##bude
rozšiř
inspekce
glu
##áno
záhy
vysti
přípravků
##pomí
##rných
usnesením
bratra
beseda
skok
benzín
dobrovolně
bolo
čtvere
##bala
nt
moderního
rošt
samostatná
závěsné
129
fli
betlém
magi
hodinek
pěknou
pradě
krajin
dozvědět
260
pozmě
takovéto
dag
nabytí
spustit
##enějších
##sea
utrpení
mezinárodním
vesta
##rovky
oblí
nepřítom
absolvent
slevou
vypracování
silvest
požeh
klasifikace
zásuvka
mohel
wel
brej
citu
depo
advent
páru
##dent
kusu
rozbit
dvířka
uvědom
##vni
vysokém
opas
##lex
nestan
zka
nevo
vyhotovení
##nují
lt
přítelem
hradí
expert
přesvědčen
neleg
fotoaparátu
zacházení
vraždy
sprej
##ras
##čna
##orum
fotce
vláken
přijal
soudru
veliká
obojí
jor
vězeň
časopisů
ptáci
líbila
evo
rozvíjí
uzi
luha
fará
nejvýše
těžká
vinohrady
zatě
Červený
cykloturisti
Číst
hero
##nář
##žního
lil
##dává
stream
platných
zazně
##tvr
##dnutí
obdobně
##vedení
pozdra
ujed
volnočas
vtipné
Šte
štítek
ruch
veselý
potřebám
stale
protisklu
slavné
proz
odnes
vyčistit
marně
kovová
ort
poznam
##řizování
propag
háčky
unii
Řekl
##work
konflikt
závodech
medit
kulturním
vykonávat
chodníku
##žene
ukončit
chodil
koefici
samet
upou
leden
ignor
designé
využil
rolí
marketingu
tvrdě
změnách
zásadě
Čist
frekvenci
zelených
hodnotíte
motorka
nevhodné
165
pololetí
koukal
##dovat
kdybychom
rekonstrukcí
moud
radní
opotřebení
rokyc
nástěnné
bezkon
sochy
pernštejnem
kulatý
sprchy
odví
zákonné
kemp
zazpí
bakterie
fulltextu
##letní
regul
kufry
zajištěna
mariánské
##leň
magistrátu
dřevin
zbytku
octem
sportovním
vrchlabí
odborník
##vaji
zabývající
chova
touch
trpas
##zovány
nedostal
moza
##cových
strojírenství
celkovém
tržby
dráha
yo
panství
##zene
privati
osobami
záchranné
pex
##cis
##jan
##aktivní
podepis
kontinu
vyberete
povrchové
##vín
zůstalo
chráněné
Šumavě
##čkova
##káním
vedlo
band
regi
silve
neznámý
##bran
##eda
##žovací
důležitější
nocleh
##ovatelný
volném
daňových
obtě
gumy
stezka
železni
nekdy
oxid
##ovÁ
politická
ředitelem
staci
obrana
regál
argent
elimin
politiků
podmá
povla
##toto
##park
##zelo
vyvolat
figurky
##mm
propagace
míň
příchodu
dovez
státem
chlapa
hrádek
vrb
##chen
183
páteře
arte
recepce
##ňovice
autoba
architekt
reu
solí
dostatečný
řeknu
bral
##heim
odníma
úzce
kl
novy
##náním
císař
konstrukční
##plní
restaurant
obyčejné
dezerty
teploměr
##nostech
naměř
příběhů
etapa
tyg
##matických
pochlu
peř
Úspě
kytar
jeseník
směny
##lají
hodlá
vozíky
bb
senát
bola
sítích
diesel
funkčnost
zapá
delat
shá
##zována
cítila
ních
najděte
##iemi
meg
chrastítka
ublí
sdh
úvěry
Časo
metry
závady
sul
stropní
amd
tmavé
kapli
zdaně
##ire
odezvy
píšeš
sranda
##anční
podíváme
dobrej
##livého
pohybují
ib
kormi
klubů
stručný
osolíme
přetrvá
##lismus
tance
technologické
zaměstnancům
seno
vší
prop
##vána
diskut
budovu
jednoduchou
otevírání
kdybyste
jezdím
vloni
bab
regulaci
fakultě
107
112
zastupitelstvu
cru
vlastníka
potřebnou
oranžová
zpoždění
kuřá
představila
podno
kliky
neto
podíval
rozšiřte
##běhl
poni
nevrá
##ear
alpine
provozovatele
kameru
##16
dvořák
užili
monitory
zvláštních
##iler
290
ikony
prot
přístře
klobásou
jemnou
hostýnem
##esa
koukat
matemat
vpředu
zády
##přidat
tlačítek
veřejno
##nína
vhodných
obyt
pneumatik
mleté
doopravdy
##dic
převed
pstruh
##lenka
slaný
ukazatele
##iva
modernizace
mau
pivní
##kostí
##álech
stejných
berá
dotek
##logii
cry
dospělosti
##sson
##vp
jedny
hurá
##cházím
krajkou
panorama
dová
místostaro
chel
##chnout
plastových
vyslech
chrámu
poznal
orgas
samotnou
ts
krmí
polotov
rezig
přečtení
podobným
dávek
##čno
##view
žhav
##stie
zklamání
slovník
##nda
získávání
náležitosti
handicap
převodem
##čkových
mrtvých
podvozek
sníží
náročnější
vejde
úde
fyzikální
intelektu
nepochop
zápě
živý
zaměřit
masové
penal
gumi
celostátní
##neš
jídelna
##pkem
vybudovat
mnohokrát
omalová
naklo
věznice
bílkovin
způsobilosti
velitel
indo
vrata
##ses
##vuli
procento
zlomen
mostě
docí
##lot
západo
centimetrů
zastupitelé
garáží
úh
155
hradce
alobalu
nejpo
malými
vedené
##reag
villa
mastur
zpěvačka
dorazí
##cházejících
hrajeme
neudělá
studá
kubí
psychické
vyplnit
emise
hrany
opel
lapa
tiše
objektiv
santa
přiznal
příchod
synchroni
démo
##round
Šat
##gem
třináct
balónem
este
osudu
odstart
hlin
##řovací
##rty
žalobky
východu
145
jirá
hrani
hostující
samolepka
kosmetiky
##mix
##rují
koloni
nade
##kva
pauš
##idní
shrnutí
březen
eliška
aktuálním
problematika
příto
nakupujte
##bre
analyti
spali
##love
vývojem
zev
dokážou
podpatku
chlor
vycházet
##loví
obsta
114
pásmo
mléčné
michala
motely
dopoled
maro
týkajících
nezji
celebr
nejúspěš
jednotlivým
rest
seznamy
celi
vran
key
##chari
komunikacích
nejlepsi
postaven
##ologii
přidě
hygienické
audiok
elektrického
stárnutí
poradně
zahaj
omezené
kalifor
rakouska
phdr
mužstvo
pokusu
##padl
efektiv
##edo
gir
##sé
středního
jedničku
břicho
silu
používáte
potravy
##hlíží
třinec
matku
mram
závěsy
bránu
uveďte
úkony
závazek
asus
nároku
prodávajícího
##rková
inteligence
čekali
##sona
informacemi
##stily
ostré
louce
##ghá
krajských
defi
blázni
fyzio
##pej
##vkách
točí
subjektivní
suver
nepla
kynuté
vlákno
##kyní
narodila
bohuzel
založené
pracovala
profily
gólman
akva
stroji
poskytujeme
bomba
lum
veřejném
prosk
Českém
perfor
symbolem
##grafii
vyvrcho
věnována
bezvad
zlatou
kameni
úspěchů
princ
přelou
nejrychleji
##konal
rádia
##kčních
domažlice
talíře
zahrád
pásu
dun
miroslava
xia
mouku
##oný
formální
standardně
miluji
##antů
obrovská
vymazat
lepidla
měni
odpru
konstatovat
nhl
daňový
mužem
brandý
Špagety
leze
narozenin
kolektivu
##hodil
orgánem
##kovic
stěně
spojená
dařilo
otcem
amster
kvuli
luci
##áním
voní
šéfa
umělec
vyvinut
probíhala
týnec
odk
##ope
vytvářejí
##děly
vyjmen
derby
lesních
interiérů
obklop
přijímat
starově
##árně
skate
vaříme
realizací
kravat
střechou
parale
karlových
tatínek
životy
ženská
dozorčí
schválen
řídi
mly
hlavice
##žným
dlouhodobého
třeboň
pravého
bakalářské
##gor
spál
účastníka
používejte
boleslavi
dodávek
přibý
ikdy
270
upravuje
válku
připomenout
sendvič
thomas
##bak
třeš
podnět
##test
##tění
if
##ix
chemických
syr
natož
##eton
zásilky
##fé
konceptu
citlivé
sn
##cz
zabraňuje
italská
médiích
pověsti
závažné
kariéry
vklad
medicíny
##jelo
civilizace
králi
branek
scénu
disney
neov
tratě
nero
zajímají
elektroinstalace
palác
dózy
finančním
jakými
##ovane
wood
záběru
vysy
prem
favor
rozehrá
159
náročná
ročníků
judi
potu
cizince
produkti
folk
praktických
týn
tahu
motocyk
žijící
nezajímá
step
jela
zavřeno
nejspíše
radnici
nakres
rádce
bavlny
jesen
robustní
zvýšil
politik
barbora
zor
##ceným
ceník
usly
##buju
fé
##vného
nezdá
pohra
##čeným
obecná
pohodlný
##hyb
obyčejný
pravděpodobností
borovice
organizá
disko
mona
##vením
##obraz
sezóna
přinášíme
tl
jablko
tóny
politickou
seděl
nepochopi
skoda
##jeti
vztazích
##bej
základny
mýdla
##cich
cigaret
celodenní
hůř
citr
službami
praví
komunální
nane
seznámil
afriky
janovice
popo
neskutečně
použije
sobotka
přestane
dokaz
zastaví
##žto
##sey
dodavatelů
ace
obočí
pomocné
zločiny
větve
##gro
##bility
##gol
vlivů
ložnici
podnikatelské
příbor
Čelá
průkazu
rostlina
terori
zapomněl
oděvy
schůzi
zaost
karavan
##rove
raz
oš
tužky
víra
jum
plněné
voděodol
prostěra
pošle
trojice
ekonomicky
kočár
hromada
rev
koleji
##bina
##magnet
ovlivňují
lehčí
dána
silver
##kucha
cidlinou
prázdninách
ptal
vem
závodníků
schránka
##atku
##24
iva
beta
mechanismus
##hro
napodob
vyhlíd
rose
omezen
pomohli
jemná
jazykem
ludví
argumenty
smut
srpen
fiat
vitamín
##čty
nejvýznamnější
žer
##cházely
export
##lowe
chodila
dočasně
pouhé
dráze
##ňovala
bazal
Československa
kvalitním
##ovosti
snahy
##age
plovoucí
explo
poslouží
dite
logem
ochu
visa
zimním
seme
laky
##vačky
interpreta
pronaj
vůdce
schu
##zemi
chaloup
povlak
ksČm
pořadatelé
ovláda
##our
ovocný
plátně
##kovače
získávejte
vlastníkem
majiteli
palackého
výkonnost
legendy
zásobování
samu
skvělým
Šam
tašti
kuř
valentý
hruška
kabelů
napiš
tlumiče
čtyřko
##uk
jezdil
pilí
automatický
pochopí
obnovy
##maci
partneři
africe
prokázat
##sr
##štěných
registrovat
mála
polysty
rozko
zpěvák
tamní
baj
veliké
antiperspiranty
poranění
vykres
##eniny
dáno
zaujal
zaujala
point
koupeno
tuším
říkali
##zoru
##inech
nekde
vinařství
##chne
kalhot
recykla
vhodným
jezdce
podoba
speciálním
zadek
vstá
rap
souřad
##amu
fem
kulti
chatu
výrazný
koupili
cihel
nedalo
víken
pálení
nost
slzy
zjištěno
východě
erotické
jedinců
obojek
určitá
louny
agresi
havari
přistýlkou
bankovnictví
##západ
ekonomický
sídliště
udělají
fus
domnívám
##vete
obháj
##nane
##letým
nevin
otest
narozeninám
relé
nedostup
dvacát
##systém
florbal
##zovací
nádor
veliký
##ovina
kú
hrne
stopa
obzvlášť
prošla
##tíky
zmizel
přednosti
přírodu
inva
půlnoci
přestal
keramické
##pili
uchazečů
vlad
Účin
kamarádky
motýl
kopu
čistou
uplynutí
žu
##turou
nakupování
jednotlivá
beat
prsou
zážitků
cely
##vadla
zůstaly
vizit
konzist
letí
vypadal
vražda
legíny
##mocí
zájemců
letý
nechceme
##produ
působi
desít
zakázáno
ráje
diagnostika
věkové
houpací
náprav
identifikační
##pne
pochvá
trávě
vever
1948
zau
zhub
standardy
vinu
##átoru
neoby
hlasovat
dívek
neztra
rebar
119
ohodnocení
pruhy
výpovědi
zuba
##Žp
dodatečné
hloub
zásilka
##táže
náročný
svědectví
##želo
stanoveny
##tl
##zového
válec
smyslem
reportáž
frenštát
elektronický
zažil
informačního
##rujte
stanoviska
dnešních
životních
hut
zástěra
semily
pronásled
mikulá
##čební
she
Školení
favorit
abstraktní
třem
kalkula
vyzkoušeli
usp
zuŠ
přichy
předvo
pekla
dvoup
compu
čistící
##adil
vzorky
dorazil
meteo
sester
vytvořila
sterilizátory
##far
neobje
fyzickou
dopravce
##brali
knižní
nabíječka
šití
příspěvková
tvůrce
trestného
neprodleně
neodpovídá
neurčitou
pk
poznatků
dně
##inus
pravděpodobné
baterky
miniatu
zkoumání
algorit
##ration
přechází
šampionátu
pohovky
zpětně
##rne
##ovanie
stručně
učině
ledvinky
domeček
masí
odpov
láká
##isi
mikulov
titulů
razítko
##isa
závazné
iz
neber
dostan
hrnky
děvčata
tag
výrobcem
##tova
##stci
vinným
nesouhlasí
Šen
next
deli
honda
##itým
vyhotov
eb
##dardní
nastane
rezervovat
nastrou
##less
připravujeme
##počt
prarodi
plemen
fm
úložným
provozuje
nejznámější
##udo
upgra
##18
snadnou
mobilům
pánvi
##olu
novinek
pokor
##19
syno
přikrý
nejzajímav
stabil
##ons
šum
ženě
úspory
afghá
útoky
amp
sledujte
půjčovna
předávání
vib
##daných
sazba
češtiny
účty
rokytnice
ekonomická
vazbu
##teče
sedačka
abra
svahu
zakot
##ken
jakési
spolehlivý
ananas
předním
natě
knedlíčky
zamyšlení
##atikou
vylepšení
vyjít
oznámila
usklad
povolen
knížku
mužstva
usí
nalezeny
##věk
##lačních
nosu
sedadla
vyč
zprovo
pohan
##raj
tras
nebi
vztek
##stik
kruhy
bohatě
##alis
asie
dikt
soupis
Živo
nahlásit
mol
ukrajině
jezdci
komiks
petržel
manželkou
fotbalový
obnovit
přeju
prvkem
pŘ
ekvi
dodavateli
siemens
naprostém
žampiony
sjednan
zpochyb
ké
nezle
##lata
pečiva
##ins
grant
přijet
zmínil
blesku
střelu
složka
nejdra
displejem
vzdálené
##šků
zadlu
rovné
##enia
pack
##cita
pokojí
##inění
zájmem
křesťanství
stavbou
teplotní
##šie
muzik
pustil
##sis
fialové
hlasem
považován
autobusové
málokdo
##peut
kombinované
smíchov
heřman
##ira
##rex
vku
úlohu
vypr
porozumění
zdánlivě
jedinečnou
sluší
betonové
##cují
řidičů
prestižní
##venční
guma
##óze
kamínky
říkáte
trpělivost
provedeny
startovací
daly
zmizí
průmyslová
monitoring
litomyšl
dik
brazil
ozvu
napadá
skončit
zůstanou
smutné
uděláme
vat
voják
povolena
prsu
##rio
orto
bytový
správním
nejjednodu
##kovacích
stisknutím
pěna
dobách
zkres
počátkem
rozhlasu
postaví
průjezd
oranžové
##hoří
##lovky
svědky
barvi
kompresor
xiaomi
placení
připravují
pořiďte
bill
žalob
mraven
výztu
rozvadě
pokojích
napr
odstín
##šské
partie
mpx
##mické
keď
tvrdý
horá
sedi
##páž
##26
##jez
sprchový
##átkách
cos
neup
sáček
##naje
labe
optim
vlastními
rav
ah
váze
říjen
ovce
cestujících
##drem
##bank
výhře
dolních
ztrátě
prosíme
hdp
import
diamant
kuba
nejvyšším
nejzajímavější
anim
manaže
lesklá
##romadě
##elle
Úplně
proveden
vyzvednutí
zvláštním
závěrečná
kondici
praci
##váš
hop
přijímání
výchovu
nemocné
zodpoví
krevních
gp
lahev
předpoklad
nevěděla
##lovy
##mořské
baž
nemi
statku
rum
##vaje
ženám
penzijní
svitavou
bezdomov
povídání
majitelů
fóru
rubrika
půli
správci
nejmoder
##matolog
vyztu
majetkem
negativně
změnilo
boxu
drogerie
nosti
demokracii
cookies
žádat
bolestí
nepromo
čela
vyži
pojistka
vsa
##fs
diferenci
nabízet
##ric
##stát
řádku
svateb
ochrá
kamerou
charakteristiky
##fort
bezpečný
prázdný
##hající
japonské
Žam
běžnou
vysá
velky
##čoval
prosinec
šestnáct
nejdel
podpě
aristo
##čníky
uměleckých
pečeme
dosaženo
enter
využili
krb
hraně
uhel
zdroji
vesty
cyklistické
bože
##boy
dočká
limitu
mladík
polské
ya
prysky
nastává
##počtu
euroz
vzdělávacího
upravené
spory
samostatnou
vodovodní
doplní
napoví
rezerv
druhému
izolované
všiml
##šnost
novely
obvinění
žehli
památku
prague
##dily
všet
mike
kláštera
modro
nasá
typicky
cur
závad
tiskárna
čip
oblíbenou
naprostá
galanterie
dobe
křup
zlikvid
adrenalin
##dlení
jehli
spouště
plyne
pivovaru
main
##vaní
##ply
praxí
liška
synem
okně
umělců
katastrof
motorových
běžném
zvyklí
rozměru
zvracení
záruku
současnou
##point
klára
brzdou
moravský
zón
##cla
monte
robin
předví
nezáleží
manželé
opeč
didak
that
was
cham
zlína
balíčky
boskovice
nasad
mary
paroub
tráví
schůzky
statutárního
##činí
##sig
potíží
schém
obru
pozemních
hw
udela
teleskop
##řejte
soutěžích
klip
působící
inti
mému
bezes
ráz
záclo
homosexu
žlou
zemře
race
##letky
mej
petrovice
učitelky
##iera
doktora
good
převodovka
popisem
benátky
svazku
komenského
bojuje
##cuji
roka
uvažovat
kojenecké
místu
##cast
deskou
##telské
nd
divné
pokrytí
odráží
průto
zahu
řazení
jímž
nocí
klinické
psali
##chyně
přítelkyně
hovořit
výk
půjdu
myšlenku
šedý
nebýt
klouby
žaludku
vintage
obloze
označil
nebezpečných
zho
střeše
dával
manipulační
brazí
kandidát
chr
nácvi
##tap
uší
poznáte
jedou
skvrny
chápe
##bilitu
ptáků
smetany
lidskou
##14
čokoláda
padá
zahy
##ree
pm
umožně
manuál
cvičit
šířku
pozic
nabídl
novela
vytí
cet
dáte
třetina
gil
vychová
jezdec
mobilního
skand
teorii
##dii
veškerých
ministerstvem
##33
radka
jaderné
hlubší
severozá
reuters
uplně
prapor
##anie
otevřela
rozchod
kukuřice
příspěvěk
najet
regulační
terasu
##ting
mrazu
lince
celkových
kině
dálku
trávu
konstatoval
evropu
hrdiny
míček
čtenář
raw
ref
volbě
životním
třetině
posiluje
koordinátor
pohřeb
dopisy
uzdrav
slabý
sekundy
navrhnout
ruská
vápen
veškerý
pelí
##pony
lůžek
vzpomínám
morální
ploché
porce
nahrávání
jac
##hazuje
protivní
největšího
##17
##ript
##šlá
pokusil
sdělit
krytu
překlá
##ming
##vici
asy
standardu
rozdílu
díry
##naci
koupíte
snímače
představitelé
cp
příkon
pevnosti
modelá
fasád
ohodnotil
čtvrtý
##toch
##mava
nákupem
##bio
ekonomického
sušené
food
neutrální
##ica
ministerstvu
putin
odeslat
velvysla
zahrnují
116
kartě
##ónem
misto
antio
hrálo
izolovaných
rk
věřte
##stné
tělu
satelitní
nebezpečný
hostivař
motol
##četl
měřítku
nevěří
příplat
teroristi
asistence
sběru
látku
vpřed
999
zmínit
pocet
zvukové
závitky
otvoru
vrstvou
ora
problé
jakuba
dlouhodobou
reklamaci
magazí
zapečená
nejsi
kůží
domech
118
premiéru
zavolat
projektem
deleg
jeru
mladou
úžasná
bilan
tenké
nepů
rozvíje
letadel
chladící
transparentní
temno
nenu
určitého
značkové
rozděli
indikace
schopný
znemo
zapamatovat
lokalit
otevřena
detailů
vzdal
mok
spotřebitele
worksho
trvalý
kanálů
mur
malířské
radí
fontá
připoji
luce
libi
dosáhla
zasy
špatnou
kamenů
opalování
thr
normali
dagmar
sladkosti
##bulu
opustil
zorgani
takove
olomouckého
hliníku
utra
niek
##adva
investičních
čerstvě
podkladu
vystavení
hřeji
pyro
zápěstí
teoretické
ploty
kloubů
##odě
náhradních
palivo
soc
vertikální
sestavit
##áni
balo
kožní
pera
##ladit
plynů
etapy
pokuta
neuvěřitel
umístěné
pirá
nepoško
rozhodlo
polštářek
##éle
hardware
nádherně
jednáním
podstaty
##bot
úkor
ohň
poutní
přístupné
svíčka
platy
380
jake
##arem
žádným
namont
přirozenou
utrpě
doufáme
žádného
dodavatelem
poškrá
natr
matkou
obsluhu
spektrum
vyříz
litoměři
buň
nástrojem
špatného
##reo
##jedou
trub
##enda
háček
divoké
##icke
přestat
screen
##ovci
sálu
obchůdek
narazí
získaných
záchranu
hrátky
amazon
##ceu
svařování
nevyžad
##zít
pokladny
spontán
distribuční
##čete
##vab
přinejmen
strojní
staletí
nejtě
ocas
převlá
134
fres
pozvol
nastavitelná
##28
úlohy
chápat
nosič
podlaze
bedři
vstoupil
posilování
těhotné
zdravého
##kojení
komisa
skupinách
poraďte
politický
nač
##kující
transakce
##žností
num
##berry
harmoni
nadr
##jíte
stejno
##rač
vrtání
hruš
řádné
vyprav
temat
##stánu
##řovice
něčemu
objevili
luk
kopec
##lává
##itativní
Štern
stk
výpůj
pokládá
děsi
vaří
navod
překvapilo
stoupá
sluncem
totální
chybějící
hur
odblokovat
victoria
jablečný
colle
##lát
kudy
literatuře
Ústavní
imit
západě
podmínkám
##telit
##hnutí
##žád
##27
tendenci
radou
maty
resort
nespeci
degusta
##ánů
rýž
bydžov
139
##itární
setkal
tradicí
stanovuje
přetí
bohatá
zvládli
přírodou
manager
elektromob
devat
stanu
moduly
##rik
postavena
spojovací
nainstalovat
inzerováno
##atky
ús
přinejmenším
poločase
úhrady
##sho
##ium
padesáti
střela
vladimíra
photo
otevřenou
vášni
dt
peněžní
platný
písmeno
dum
výkaz
nepočí
dešťové
kroko
dodatečně
tetování
##balem
zaměřena
pseudo
poselství
zásobníku
prudce
kšil
csc
Čov
kvar
##liná
pátrání
##hion
problémům
zaslal
kroužku
konfliktu
zatra
arno
sádrokarto
sofi
onen
skladeb
##pište
##grafi
matou
konfigurace
eg
hlavními
čáry
exekuci
propust
##ect
hrní
##rig
poděbrady
ubo
##ět
andělé
sestavení
mši
bukov
režii
pantofle
vnitro
lec
##eco
zákazníkovi
návrhá
těleso
potvrdila
příko
hojně
nejdéle
##atá
pohybem
závislé
určí
vybavené
dráhu
meč
pochut
promi
nac
porodnice
lomnice
copak
barvami
záměrem
samotě
stylový
austrálie
rozlišením
jakýsi
rukáv
tajné
jakýchkoliv
##lového
krabičce
odvolacího
Údrž
čehož
kempu
slané
fen
navšti
konso
záchvat
škrá
přivo
dvojí
navržen
přirozený
odesla
novější
##lite
##stre
voličů
kožeš
klávesnici
řezání
časový
rozměrech
##valech
přemýšlím
vyvíjí
news
splní
neuvěřitelné
autodo
buk
vhodného
majitelem
koláče
##rantů
left
plynové
elektronicky
objevovat
pamatuji
##zzar
vetsi
lh
tvrdil
##rážka
##láci
zaob
Říčany
obj
zákoně
##mák
##cino
janu
kapel
některými
směřuje
ustanovením
pozemní
alice
osí
podná
tišnov
verni
toxi
oznámit
tipů
bazaru
zahájena
opačném
vyrobená
##lovaná
hallowe
reli
koutem
##kyse
rehabilitace
pracovali
pouz
estet
zasko
záloh
střihu
malinko
suchou
koleno
neposky
rec
lžička
rn
##ťáky
cyklisty
dozvěděl
nike
##ňské
lovu
kupte
silnicích
##akr
bývalých
diskutovat
proudem
##ath
hart
obálky
ubrousky
poptávku
##kována
pomeranč
dee
omez
tymi
pracuji
##pků
sýrová
připraví
pohádek
skoři
výtah
jakkoliv
nepůjde
chý
hnědý
levém
##ania
nádoba
zven
ingredience
##itelné
krátkodobé
džung
rade
nakoupit
pokrmy
##fity
snahou
340
asfalt
vložíme
reci
vyloučit
naučil
srst
Šéf
béžová
švest
křem
lázeňské
zábavní
shar
dodací
##bag
vedoucích
opakované
tyčinky
##naly
kolečko
##zovaného
##ína
##lezi
výstavní
víko
povinná
institutu
miliónů
kopci
sara
steaky
kp
zavede
zápla
Čnb
brun
nezávislé
##dera
stíny
emb
totálně
pál
##líček
##nutého
pitné
pomocní
lysá
návě
antik
roztok
##nářské
xd
nemohlo
choroby
vyka
dospěl
hold
##lít
vyčerpá
neposlal
158
albi
zeměpis
patrik
##hře
##stěhoval
karviné
atribu
zajít
účastnit
obecný
přiblížit
rokycany
zpu
bohatou
matu
vyučující
přístavu
možnostech
dýní
##fen
použitých
devatená
vezmu
přehrávač
silvestrov
##plast
hmota
zblí
královské
lout
románu
aerob
nechtěli
schází
330
padne
textové
zákazu
##inkem
kelím
koruna
pračka
chodili
dýchání
říši
vynalož
dodávku
##qui
vlk
záměrně
bance
moskvě
ander
motocykl
krm
vínem
politického
slyšela
daných
spojů
dým
zaují
##iner
oznám
##wan
střelou
kutná
osv
ledové
strávil
vycvi
pozdní
##diště
obklad
toyota
strojek
podněty
půjček
gumové
##vnou
Žižkov
tvaroh
zkvalit
tma
prostředku
domovní
pocitu
##jer
úkolu
eventu
##čností
zákrok
127
podkategor
usmě
kachna
##natý
penisu
stahování
##ril
##ab
stropu
zajímavostí
koleje
kdekoliv
publikum
regionálních
svazek
mamka
staršího
atrakti
srn
kapsle
navržena
vymyslet
světelné
##čnými
##táme
domluva
ných
správného
přál
poučení
návštěvníkům
husky
zblízka
páska
nájemné
suvený
činy
strážníci
chlumec
trvalého
krásného
atmosféře
středověku
vydr
novináři
neřeší
tref
loga
4000
klasického
vidíš
Čisti
teplý
##vate
predstav
berlíně
rohy
nevyz
lepšího
prodejna
doporučila
těhu
účastí
pravidly
hyd
slovenský
postupuje
zaměstnanosti
brala
space
sazka
plasty
chutné
##press
Čd
omylem
stopách
vyú
chřestem
hledali
hůře
tatra
Židle
##tuji
will
inženýrské
laboratorní
přítomné
lednici
divu
pište
zápisy
pevných
##lismu
předplat
##hospod
režiséra
litr
volantem
shoda
nedosá
kocour
austral
obdobné
konkurenční
závěsná
dřev
stezky
viditelné
iro
výkonů
osudy
kala
prijde
kontrast
karoserie
##ovkách
kolegyně
jednotlivce
nejsilnější
##anová
muš
Živnost
zaměstnane
nezastav
vyše
soukromý
mříž
hostům
pardubic
kopii
samý
land
potřebuju
potřebný
sušice
vrchu
servery
stálé
časů
červených
dostatečnou
##akes
vlastnostmi
##odů
fabia
##danou
oříšky
##29
##enská
sea
územním
##itch
jihlavy
nečistoty
malej
zahájil
najdu
osamě
##kame
čtrnáct
štěně
spolehlivé
##letých
policistů
sněmovně
##tecne
filmový
mount
##řitelné
zeleň
bohumín
výrok
lokalitu
účt
##anci
rome
transparent
zimy
jídlu
provozovat
##zeli
štaf
pohodu
uskutečnil
meruň
Útě
##load
liberce
levou
dcerou
pension
osmnáct
měÚ
aktualizaci
sezón
železa
##pnout
omáček
navštěv
rýma
psychicky
inspir
##ženými
##chl
nápově
##zity
šéfkucha
půdory
ego
dozvěděli
your
vernisá
##měs
odstoupit
grafiky
vsu
mantin
promícháme
integrovaný
dostaneme
spadá
nádrží
připravíme
pátku
těžkých
pekel
odehrál
recepci
smyslupl
šetří
vychá
tobo
prosper
nenalez
regionů
vhodně
cont
sev
odráž
udrží
##alita
##nen
opil
zůstali
##brání
tofu
nečekaně
okurky
centr
vaři
tabá
hardwar
úřadě
navázat
uskutečně
uhli
priority
##inují
##ála
ředitelství
propagan
179
souvislost
kožená
vále
390
básně
koresponden
emul
čelní
zkušený
obžal
rozvo
##gramů
stability
nehrozí
dohledu
##aví
mŠmt
nedokážu
uje
zvolil
probo
zasta
kyber
kanály
důkazem
podnikatelé
doro
pomocná
schopná
sledoval
poskytované
věš
vyg
čekám
léčivé
mysliv
kouk
vezměte
tin
##jú
poslanců
připravovat
právník
##lenu
##nům
milovat
chytrý
##čuji
nekvali
panenku
přidám
nedůvě
nadčas
coo
force
rámeček
linek
budem
jedinci
převy
porodní
nerad
zakázka
obsluhy
provozem
náznak
píšete
korid
sněhové
novotný
##nace
##pes
##mes
night
přímou
důchodce
zajetí
stahu
ležící
zažít
##tum
##enému
konalo
zabil
dostání
větví
vizi
zaúto
rezervy
překvapením
dozoru
karto
oprávněné
vysvěd
zvítězil
gely
espres
bay
vozíku
licenci
obytné
zkoušce
stacioná
květináč
##key
úzké
alf
roků
pokrmů
nastavitelné
vzducho
kalibra
rády
děkan
obrace
barbie
beau
medailonky
uchop
vkus
rukávů
##ving
paka
zapé
kariéra
krystal
university
horská
nestane
##burku
doraz
žvý
olejů
uvedeném
developer
tuků
uto
myšlenek
##účt
rozvodu
vypořádání
##lock
soudů
krycí
městskou
podnikatelů
komik
paměťové
subst
spustí
Čištění
cenných
##ánky
postižených
odešla
dluhu
soutěžící
světovou
##glu
náboje
konečný
pustí
nedochází
cl
albert
dvb
výdě
věcného
zahájeno
porcelán
zabij
dozadu
nemuseli
##nera
odmítnout
##istů
kulaté
hodný
polička
status
##inových
kouř
znásil
poledne
semen
příznivé
zášt
strávit
##anta
přidává
mask
šťávy
vzduchem
hráčům
spoluob
čeli
měšť
matek
stěžovatele
francouzská
umělá
nalezení
##dáním
stanoven
utvá
ostruž
topi
zák
udělejte
otci
level
pachatel
absolvoval
veganské
##66
##of
podzimních
stehna
zhas
žili
##líci
stopáž
lovo
stromeček
poslala
vada
lázeňský
silným
##media
piv
zari
kt
procházku
##rn
přípravou
nutí
##berku
vyprodáno
137
mýto
obývacího
použitý
horu
pohotovost
nepomu
sazeb
cizinců
známka
opravá
eston
nafo
decent
zade
lůžka
hrdin
nekuřá
navštivte
typem
nižších
laboratoře
zákono
přívěsky
augu
##fc
##tahuje
nábřeží
paml
perifer
kazety
##ett
soustru
výkladu
podepsat
leona
prvňá
houba
ostrovy
lesích
##štěna
178
zúčastnil
##bes
zvýšená
gang
vrát
zivot
elektronickou
##havé
předě
informovala
existovat
podvečer
rozmno
nevypadá
zvolili
##začního
kÚ
závaží
##station
jóga
fí
složku
motivaci
vedly
expozici
mir
karam
hliníkové
variabilní
muzu
hrubý
##leky
jiny
housle
přesněji
opav
##hvě
##nostmi
##hotel
dance
převodovky
bundu
kapesní
kim
hamburg
naděj
joe
výzkumné
údaji
japonsku
##stají
nepřijde
vedoucím
optimalizace
částic
podíleli
akumulátory
paráda
##lity
##drý
snímač
chvili
objednatelem
##jíždění
trhů
skutečnou
pohybové
sparty
odpadní
mladších
ligu
vedli
##něni
java
herních
mladist
komunity
dvojčata
##harmo
upře
odpoved
nabývá
prostředím
apošto
major
obsá
zákonodá
trav
berlín
basketbal
pravidelných
astronomické
vektorové
zipem
sprchové
kula
nejčt
šíří
##vrat
papírů
styk
inzerátu
připravte
krnov
křiž
detailu
hudbě
ruského
těsné
absolvování
potok
bytost
soukromého
490
##mir
reprezentaci
předložky
nepromoka
##psy
lepšímu
rozinkami
tradičním
provedením
písemnou
##ctva
secret
krásném
užijte
Čl
bezva
pošlete
instalovat
rent
defen
staří
reálně
##sich
nebaví
slibuje
mokré
zóně
reformy
účinků
pexeso
kloub
domo
christi
tanga
úplný
spokojena
nástrahy
##šeném
##naj
příbory
kytary
##ier
##mluvy
drátě
##ovák
lab
významná
korunu
řeka
obdélní
účinností
ujednání
laj
jeruzal
bývalá
ušlech
hudebního
typický
rot
truhlářství
##byteč
ověř
Úhlopříčka
zavádě
vyplnění
svobodné
zvyšují
neš
exce
historií
##ničce
elektrickou
pripade
Říká
jun
zazní
chirurgické
##totož
písma
turecku
hospů
pový
##háčky
fóra
kostýmy
vyply
##ville
startov
ojeté
ein
vzdálený
##hradu
hodil
lahů
##érie
##phi
osad
##ceň
wester
##deje
bižuterie
středním
lipo
troja
nouzi
nesna
##kané
##řim
studenta
kreslení
hlodavce
nezkla
ei
opozice
truhlí
slepice
flex
skladba
ptát
křenem
minerálů
##chvá
přístroji
kvalifi
kopy
venkova
běžet
klesa
českými
opravě
oznam
semena
nevol
reálném
##škov
svátku
federace
##iser
jenomže
převzít
koncepci
formule
ice
vk
vítězem
rukojeti
souhlasem
zásada
dorazili
##nerová
varu
rychlostní
nepamat
producent
meze
bytosti
ff
kupodi
samotném
lajky
propagaci
##šany
menstruaci
zé
faktorem
předvedl
hdmi
upu
Čelákovice
##rané
napsali
svač
útul
##pím
začínáme
sbírku
fototap
penize
dějinách
inflace
kupodivu
pomozte
spínače
amino
koupelen
pová
hospodářských
příchozí
příslušným
páteř
encyklopedie
kmito
každých
broušení
jistou
posledni
atmosféry
##boř
korpo
dnu
nejdražší
sekačky
vnitrost
zpětné
##rův
romana
obraně
##škové
vyvolává
klávesy
blues
střídání
provedených
přímého
bál
##derní
bydlet
interval
##rád
slabo
léčebné
severových
nezkou
úklidu
lehátko
volat
prožit
##škách
slavnostně
majo
podkroví
##ádě
probou
zrušil
kdybys
##pool
žárovek
kavárny
dvoulůž
proužky
ohňost
věnují
Úprava
stříbra
pokrok
přidala
trestný
place
houbách
intra
účetních
nálada
navazující
vycházejí
satelit
##náty
písmena
nezapomí
Členové
atom
pocí
domku
tkáně
nastavitelný
genet
anotace
spínač
klavír
bratří
houb
reper
komponent
zhotovení
##mosti
grafu
spoluvlast
kytice
tepelně
začínám
pleny
velkému
popruhy
litru
nejná
prohlídce
krajem
jablek
nehra
pomocník
##vne
hypotéky
tmy
najdeš
uhraz
rozšířenou
##ťáci
kvá
uvedením
slavný
proté
skryt
oslava
##44
menstruace
Špat
výrostci
neviděla
obtížně
současném
požadovanou
konají
vzpomínka
styli
potkal
wen
little
##zub
##nyho
drive
rýži
##terapeu
výraznou
vklady
duší
koncov
seat
požadovaný
##gos
water
kontrover
xs
krásným
detske
legislativy
scénáře
podílel
krátkém
vybavením
tepelná
pravidelný
##gener
##vla
isla
##eko
##col
překvapí
Čepice
budoucího
pohodlná
mráz
##měrný
nastat
zdar
vypadala
záběrů
850
autosedačky
nechtělo
ptáky
lv
vidlice
rozved
lm
letá
auti
kolegů
stejnoj
tvého
##bička
urbani
důsledkem
mozzar
obmě
omítky
domky
montáži
podepsal
spojena
kostičky
inkas
potřebami
severozápad
zpoma
účinně
surf
měny
konzervativní
citlivost
zvědavá
ruší
způsobí
regenerace
doplňkem
nejtěžší
jihozápad
##čníků
stavem
tmě
posudku
vybavenost
mosty
nouze
nemal
rakety
jahody
bezesporu
distribuci
vyzvednout
textury
##ostech
grily
lokalitách
usu
stojánek
vegetarián
more
##střelil
nemusela
ekvival
##bera
karolína
vlastne
##hen
občanství
denního
nedot
poličky
cpu
##rovy
gabrie
##link
rozho
zakys
opery
seřa
zajišťování
implementace
regionálního
mysleli
britský
gramů
dvojici
##louho
stíha
##ort
kopa
umělecká
bohosluž
nejroz
prostup
##gers
hospodářská
xxl
zdobí
poker
##damu
placi
kyselina
##šů
##vajícím
koktejl
dodáváme
##tkami
levný
neočeká
skutečného
##sení
vídně
živnosti
přitaž
elem
letov
vyjadř
vstřelil
sýry
vsku
spalování
přesnou
smíšené
julie
ztratila
bada
##vizi
dodržení
##bale
soustředě
magister
bohy
zvykem
lišit
pochybnosti
akné
stříka
cole
##ptý
účtů
aktuálního
moct
historická
brambo
dokázat
ikona
sauna
zlé
dálky
##ářů
třetích
tať
tů
terá
přestala
nízkým
omega
kusku
známek
nastavte
endu
stejnojmen
##arda
pravým
nevadilo
117
nebankovní
označené
##entální
představte
sobe
brown
výstupů
##tolog
kašt
poříz
přilep
husit
pedagoga
##hně
individuálních
čistého
##bol
hrušky
tepláky
náročnosti
##berou
exo
##organ
známým
##vadž
##paný
misi
karlovarský
pátý
##dnout
dosáhne
piercing
přilé
##akar
neřekl
bezprostřední
zahradou
care
vysvědčení
nezávisle
upozorněte
automatická
míchání
##děný
bek
přírodním
spád
spolujezd
dobrovolných
supr
diskrim
městečko
nímž
store
##ovatelná
tisková
Ústřed
zahrál
vítězů
nálezy
senátor
překlada
zadních
nejčtenější
segment
základnu
umělci
věnovali
nepotřebuje
##ckrát
navo
##sný
prohlašuje
úspěchem
rozpis
optický
spac
##šík
udelat
rozšiřuje
silničního
ostu
hasičské
výtvarní
diety
kovových
##fone
drak
ostravicí
nera
zlatých
vykaz
přepo
výsledcích
srovnat
##pkou
kovo
odborně
##inovou
zpívá
kandidátů
gd
problémech
##bul
originálním
##text
hrůza
jehně
posudek
žádoucí
potřebná
ovu
zmíněných
němuž
##lkách
konfron
smícháme
neštěstí
životnosti
##děje
manželů
ekonomickou
patřit
následovala
totali
krejčí
palec
hrnci
šar
kontejnery
multimediální
via
dobírku
nick
chodov
stodo
spada
vysta
rodinná
jal
stoji
##vemi
získají
hladký
zapnout
někdejší
##řízené
sloužící
motocykly
nivou
onemocněním
poplatní
##peria
vytě
pojmu
chevron
jine
dresu
148
štu
metodika
saka
fotor
pokec
aktivních
##rající
neuděla
kočku
Švýcarsko
pokračovala
sekundární
nejdelší
stanoveno
omalovánky
dohodly
lůžko
nájemného
splňovat
nečistot
ochotni
přednášek
přílohou
##anější
##vzdor
revoluční
šílen
lesem
##ition
hromadné
efektu
výroku
bohemia
dáre
jad
antivi
pozemcích
hloupo
gur
##etta
potěšení
sklípkem
vyraz
##asonic
##ouch
rolety
##vačů
marka
zlatého
##píše
podsed
vskutku
uzna
zběsile
ztrátou
progn
rychlého
vychytá
výpo
dílčích
vyskyt
##ovič
hdd
169
##ající
dovede
ochotný
shu
oděv
prsteny
zaznamenal
holčičky
holku
vyzdvi
##eností
vykonává
##rez
hemo
některou
nejhez
podmínka
přímým
kré
elektřina
nikola
##onem
větu
královna
nátěr
dual
dotazů
##malo
poněvadž
zpracovává
prezentovat
společenský
předváno
##sii
absolvovat
amerika
povrchovou
hyster
pohody
neal
brigád
podrobněji
vitamin
členění
měkký
bala
rozšířené
nepoz
filtrace
nak
ox
seba
neprac
uloženy
postavili
mrá
odmítnutí
fakultní
duel
vévod
holešovice
videokli
reperto
jednotlivců
dostačující
zvolené
všudy
tunelu
paradoxně
třetinu
otočil
zrak
kalorií
tažné
##ura
##šovací
##zší
czk
jihlavě
posílit
balkonem
revoluci
sukni
litov
němec
alternativy
odkou
slavie
počítačem
nestí
povahu
premié
koncertů
změnami
never
napomáhá
jedovat
jmenuješ
správních
##inační
unifor
##cl
nutný
manželky
##ňovali
##lány
ns
##cinu
obecním
nahradí
era
straš
jevy
nárůstu
job
neobyčej
uznat
hong
terasou
pečeně
táhne
ventily
kada
fakturu
čerstvého
popruh
mísa
##až
##chlazení
výstřel
vytrva
daná
zpracovatel
písmo
##neni
páteční
zmínku
zbytečného
lyží
francouzského
některého
výchově
inspektor
červenec
sušičky
docházet
prostřední
evaku
jílové
vánoc
##oucích
##čkového
kousků
##mysly
zániku
jakousi
napáje
##rian
##riu
činit
insolvenční
předměstí
páně
vegas
rozmaz
##mato
soužití
doleva
overal
jung
horizont
zemřela
plynov
sauny
kvantit
pohromadě
přímém
havla
##telnými
vsichni
šampon
##genu
běhat
koček
##jedu
xbox
klasicky
nepředstav
##stku
lékařství
trénovat
stola
fk
bella
##ózou
naučná
##bry
chlum
samou
##nková
lepí
sloužil
##nostem
smartphone
poradku
branka
vypůj
přemys
příčinu
jaky
pěstou
dotazník
řízením
farmaceu
případných
měkká
učiteli
komplexu
novodob
##ňových
referendu
zajímavým
##rátorů
městečka
držitel
low
absur
sklon
nábytkem
řeku
sklou
##woodu
marketingové
došla
neuspě
začnu
chytil
bazary
##house
staroměst
jakkoli
hill
kvalitativní
kristus
zvyšovat
slat
ventilu
nástavce
smůlu
pergo
##enc
pochval
obál
113
zavraž
projektová
piráti
##ženi
interiérové
Španělsku
##nĚ
šetřit
svatá
meziročně
pracujeme
péčí
##mněla
rakoviny
##mele
stánku
##strojí
##torů
povy
hranolky
odnětí
krasne
špet
##sání
půvab
úpra
ron
kyslíku
vanou
označen
dbát
linii
##níte
klimatu
oplá
bratislava
sca
považována
klece
uživatelská
vyzkoušel
přijali
třídách
fischer
slot
babiše
zpříjem
telefonem
##jd
##ule
přesou
krevety
prepa
##íš
jízdních
aktivitách
##nesla
svícen
cigarety
částkou
budoucích
edward
tiskáren
vzácné
##ovanosti
vladislav
hzs
povinni
oslabení
##bed
děláš
poříčí
takoví
semínka
zaměřen
punčochy
##47
krajinu
saint
hlučín
nepříliš
výběry
ušetřete
znevý
tvrdo
zvládá
zkusila
Šim
tábory
zezadu
fungovalo
chodník
##leman
##vesti
náboj
kavárně
##licit
##pti
magnetické
kast
spotřebičů
##enní
##řezy
omyl
chlo
odkladu
přílohu
tank
kostce
moči
středočeského
alarm
int
fronty
podko
workshop
nepri
##mii
insolvenčního
jevů
rovnice
##koku
##stící
vygrun
sezona
přebalu
##račních
##řina
ventilátory
vsem
sušáky
určitým
nedávné
díval
slovenská
dohledem
##tava
##65
##adi
dlužníka
elektroniky
zásahy
závazku
into
dceři
fyzik
diver
valivý
šťastná
otáčky
ležet
potřebovali
informacím
vážený
##ury
##ded
dokonalá
##livní
studoval
##lerová
##hlení
plynule
myčka
životnímu
ochranných
neskuteč
##išti
vygruntujte
##rálně
střetu
Řecko
garden
herceg
zavést
##bach
zalé
latex
lana
tlakové
ministryně
závislá
špičky
##lišti
přečt
soustava
šok
pojmem
ukončil
plánem
odstavci
biologie
nápisy
122
133
##čeně
polystyren
použito
##ziva
##dílné
dušená
samém
tabulku
zvěře
ankety
kdežto
loňské
průjem
poctivě
drahý
stany
nahrát
senioři
vesměs
průs
důkazů
probíhající
harra
vládou
došel
clanek
titulní
geolog
nesmr
antibiotika
##čujeme
yama
střeva
hlídka
zelenině
škálu
žaluzie
ohý
Šest
fast
dárkem
chodbě
##bín
domově
hloubě
výstaviště
nezby
báseň
celej
obálka
poznávání
sestavu
potřetí
spisu
##árních
##apu
ether
neumož
ikon
povrchová
gramot
netop
knihkupe
měřit
peří
prát
##kovaného
prohra
Žádná
pravomoci
provin
##řeni
nahrazuje
lidstvo
dotý
havárie
scan
jednotli
ústřední
přitá
rp
dokonalou
letním
benefity
spravedlnost
vzděláním
účastníkům
##linou
##gas
účelům
terasy
##gnit
chůzi
koordinace
chemiká
##haus
chatě
zašle
##ávání
ston
oknem
obcas
obyvatelstvo
ztvár
##stici
acer
##ráky
odsávání
horizontální
nasek
##stone
generálního
posílám
fotit
Účastníci
broumov
##vených
Údržba
##boxu
mlhov
neděl
##katu
vyžád
začlen
schopné
takzvané
poznamenal
zbozi
vydavatelství
xeno
špičkové
doplňují
jmenovat
##hledal
terapii
neschopnosti
Šlo
základna
zavádění
posílat
zpr
renom
frankfu
velkolep
samotným
policií
rozdělí
konto
souboji
spoustou
vystupuje
##dium
emocí
překročení
##dri
dosahu
zdali
britská
restu
vědom
dechu
horních
provedli
##dami
dochu
obleky
plenky
neprů
podpa
##stán
rekreace
objektivy
nízkých
maminku
lesnictví
pořádný
samostatnost
záběh
korpus
žlutý
##louvá
ohlé
zdobení
sprchou
vylí
obávám
cnc
závěrečný
neuvědo
záli
mimozem
prodal
nesla
marta
disků
větrání
nylon
kombi
povrchy
projekce
nastoupit
pokyn
vnějších
kreditní
chovají
hůl
##uu
zdůraznil
fly
dominik
odtr
elektrickým
##hry
parky
nezvyk
čtrnácti
##kovány
##řizuje
humpo
janem
léčí
potkat
##kovač
nevíš
slon
##cového
pink
hadi
spolec
ceníku
poradil
pasta
##manu
přilá
udi
fel
osamo
vybavený
párů
rozmys
pece
plzeňského
hvězdou
střeš
patizo
potreb
abou
příčina
jednorázové
magdal
pobočka
architektonické
zkontrolujeme
neres
mnohých
napsané
nemusíme
úspo
nimž
nea
obalů
turistických
sklop
úhradě
výhodnější
vůd
odkazem
generací
předkrmů
##gera
##zita
posádky
ráf
990
sliv
ramínka
rozdílné
společenského
internetového
nezákon
##fem
peněženky
televizních
vyha
mínění
##kana
čtené
organizátoři
výraznější
porsche
primátora
sýrii
advokátní
inkoust
povrchů
ike
posuzovat
přečetl
hodnotící
růží
zdravě
lyso
uskutečnit
hluboce
speciality
nevěřím
přítomných
##lac
manž
úmysl
prášky
pohlí
##vným
ochutnat
mateřskou
vypořád
elektromagnet
##itz
vynik
hodnotilo
##hráli
detektor
petrem
kovy
Čaj
okamžité
flora
ptačí
event
televizor
materiální
tc
otevřete
prose
samostatných
poloviční
vyššího
know
vegetariány
tréninky
demokratické
tú
leč
##49
charitativní
zno
kritické
brzdový
dětském
praktickou
neset
východo
spočívající
panelů
nepomůže
##litu
kristýna
intenzity
pospíšil
##ejme
##áte
zaplatil
čekalo
krémová
opakuje
nejkrat
nepoužívejte
případnou
býti
vytvořené
##peli
hořči
identifikaci
módy
vydra
schválit
nevěsta
projednávání
nejakou
pokusí
testovací
mané
gan
lepení
##ňov
dokončit
snadný
orlických
upravovat
kritika
##rista
rysy
parcely
napřed
zemědělská
##tačky
odstavec
vápna
Čtená
uleh
janou
studijních
kytara
vodotěs
příčky
##žec
prvotří
ochoten
balzá
tachov
všeli
##lačního
prvotní
nedokon
monitorování
rozdělena
##chan
##lkami
gender
##film
polar
těžkou
poslali
přebí
vyrazí
začneme
zábavná
prošli
nepí
zvukem
oplocení
sáčku
zajištěn
caj
sibi
chelsea
dosáhli
vrah
realitu
dio
##žbě
kabelové
poznala
bystři
zamy
##vnění
převést
##skal
červeným
kalendářní
detoxi
roztoku
postelí
spách
nahlas
patřila
poka
loty
##chel
buchty
signály
výva
koncip
horního
##raku
škr
spár
##force
who
knihoven
skončili
##žívá
prohráli
bitvy
##onech
tráva
památkové
legrace
oslab
##dička
strategické
antikoncepce
##lun
brožu
bombard
metodiky
get
##čané
zlá
##dos
spam
varech
Španělsko
cykloturistiku
informu
expedi
jakoukoli
tímhle
botan
přesvědči
##mex
začnete
pomys
nejzá
aukci
##čou
navštíví
svý
vzdát
neon
samice
přínosem
diskoté
blázen
##mont
anest
Žal
sema
svrch
mnichov
anonymní
schůzku
trochou
vníma
ikdyž
##cií
stateč
frag
zin
lidstva
ostři
##české
nab
##tost
žijeme
kódy
ondra
čtyřicet
posunout
madrid
začínal
hokejisté
bin
triky
##wy
vytáhl
výživu
opavě
##tina
prameny
##rnější
koncentraci
průměrem
kamarádů
proj
moudro
očekáváme
##linka
shopů
##talo
vio
tesla
##ráním
ulov
zastupuje
trvala
##drži
husa
tuky
učinil
čarodějnice
ubytovacích
jakýkoli
##šoval
##deo
hrudníku
marin
zkoušet
vyzval
přijímací
nebojí
Čtěte
prahou
volvo
zapl
černých
padla
inspirovat
##pilo
vepřového
postu
francouzštině
nálady
indii
protec
zmrzliny
vyznamená
termínů
špal
sjezdu
městském
videt
##rusy
živočichů
koutek
skleněná
prstý
projet
front
##hodnou
zapečený
pasti
počínaje
hluboký
nebrání
zmínka
předsedkyně
polévku
licencí
neznámé
článkem
nálezu
košili
lezení
lp
vypá
zobrazeno
naivní
fn
zaměřený
nerozumím
Št
panasonic
definovat
květů
žalobkyně
satu
bilance
##illa
předpokladem
zabýval
svobodě
pašti
konzum
netuším
serg
jezu
bezdrátová
farmy
mrazi
##esla
fyziky
neuvá
žádných
náročnost
příslušnými
běžky
##šník
úpadku
možnou
##cur
navržené
##zard
připomněl
##čníci
chorvatsku
příspěvkové
sledovaly
style
##četla
##znění
vynu
niko
sešlo
úspěšná
mandl
energetických
osobne
nejoblíbenějších
nabíjecí
##mic
primo
inscenace
zhoršení
##dií
mírné
pomysl
opé
nesk
##fob
jimiž
jejími
##pustné
iq
##vující
pochlubit
topné
conce
hoří
naprosté
přijme
industri
ničí
poštu
orchestr
píší
zdanění
jednoduchým
dohodnout
neži
schodech
##fest
statistické
přepá
postran
uvidím
půlku
rubrice
uchazeči
družiny
ekonomiku
fila
nejjednodušší
##části
zpětnou
zprostředk
arm
omít
výpad
vojenských
posílá
vstupenek
rozbal
mizer
knihkupectví
Čerst
faj
objednal
##75
koope
prospěšné
vstupuje
banner
chladič
fair
takovému
plyšový
hranicích
mid
živí
parametr
jednotce
nedoved
devadesátých
ava
##něném
basic
parkovišti
klobouky
oldřich
otisk
vozovky
ztě
sněžkou
dream
atent
odd
přát
hous
mateřských
zničit
fungující
vločky
jehly
džu
budějovic
##tol
##akti
nečekal
funkcioná
feny
##skok
##mart
ukrajiny
gramo
zájemcům
spony
uložené
rozumné
planá
prohlou
nima
levý
sved
vyjednávání
vejcem
čtvrtfinále
nahá
cv
patolog
podříz
zákonu
zámkem
electrolux
manželku
jednoduchých
chytře
plakáty
důchodců
neom
skutečná
iráku
dřevěnou
literaturu
flét
provizor
##mund
zajimav
dočkat
holešov
zdvoj
vazbě
napadení
rozvodů
choreo
bambus
odsa
##měsíční
rifle
paprsky
##venou
vlajka
126
cizím
pac
obilí
nemocný
neode
propla
náboženské
##avky
přesá
svin
nestá
květák
křišťál
kempy
činů
struktuře
sloučen
konstrukt
vozidlem
zkoumá
Šárka
kratoch
kráska
ia
svalové
podzemních
##manžel
1938
pouští
minulostí
spořitelna
ilust
církvi
plněním
stěže
přehledu
revitalizace
yu
účinný
bik
přípojky
bazénem
##lery
rever
bowling
udává
přímá
celní
uvědomí
šedesát
přihléd
vhodnější
ochotně
prvně
straven
bug
schwarzen
výměnou
komplikací
odhalení
drzak
publikaci
blon
cloud
čtěte
ferdin
poločasu
síd
odstíny
##rl
##sná
##ison
kuchyňský
##ovolně
nesrovna
vsak
lilek
devi
oddech
porazil
bouřky
produktem
##nani
komunikačních
chovatelské
čerpat
odstraňuje
nezač
fantazii
registrační
adéla
vegeta
zapůjčení
ztratí
##erem
##minut
Šumava
příslušnou
hnojiva
##matický
předního
jedinec
uvědomil
loket
uskutečnila
farnosti
inu
zlepšování
story
zákazníkem
hodnotil
středisku
dohodli
dokazuje
opon
##hd
výsu
zajímavější
sudo
dorazila
předsíně
tramvaje
##xo
příznivci
##ges
váza
umím
odpočinout
pedagogických
křižovatky
digital
protektor
oblastní
důrazem
vlou
dáváme
##cam
namal
##mia
helma
oblečením
orna
##lánu
kapi
sedáku
##tosti
zom
kompetencí
žánru
zabere
proudění
##cks
výpravy
přebor
nebudeš
předloží
obědě
lymf
##žmo
brankou
mosaz
double
kuchaři
schválilo
přikry
působností
včerejší
##ňu
křižovatce
obličeji
##fl
bezchyb
řádek
známou
pravidelná
přípustné
nahlédnout
##rec
řešil
těstí
evropském
hněd
veselá
správným
ud
miloše
mladým
gabriela
karlín
zachytit
hell
holub
stopu
stanou
rodič
magazínu
lžičky
mizí
metropoli
first
zareag
teple
zabýváme
víceúčel
předpokladů
##tickým
tyčí
digitálních
lišta
obtíže
pach
sekaná
požádá
dramaturg
mincí
zástupcem
nespor
grey
lékárny
slev
řetězce
bodech
způsobilost
špa
firmám
bike
zapomenut
elektřinu
instalací
rovin
Švýcarsku
systé
pevného
komína
dojmy
##zovanou
stáli
##ckému
obviněný
##áž
amo
##boly
kariéře
směrech
##anov
zanechá
skel
plastů
kryšto
dominantní
nástroji
synovi
eura
zleva
vydávání
nerozumí
rob
249
inhi
zaho
##pík
problematikou
stvoření
holí
united
nevšim
##škrou
soukromá
topením
délkou
vadu
typo
arti
palubě
dveřích
vojenského
brzda
blízkém
168
way
panna
samotných
upla
epidem
azu
rozumět
šer
##salo
pocházejí
vodovodu
jídelníček
břemene
1950
##vih
Úžas
nee
pamatuju
prostředkem
odta
koupelnu
hin
kočičí
##vacího
řádky
call
##netem
rukávu
##kovu
uložena
jemuž
##kováno
božího
jízdenky
##ňovou
flip
indoné
##ničkou
vep
rekvali
kritiky
čerstvý
mezd
ohroz
příjemného
ruštině
nezmění
##nú
designové
##líp
##čitý
stíhání
konzultaci
přene
hostí
existující
##flex
domluvy
rafin
přestávce
spojen
delu
lanškrou
kladivo
dokončena
dlouhodobá
snížil
slyší
trenéři
dark
spojeny
rezervu
konečná
eden
kteri
Čeká
prodejcem
povětr
sandály
mikrofony
nebytových
zvýšila
teroris
spolky
oceníte
##nosná
##rok
praktického
kupujícímu
pružná
obdar
věcem
smutný
vystři
republic
rozpty
##zejí
rošty
nástavec
iniciativy
elektronického
nesouvis
nemusíš
skrip
nalož
klánovice
zpev
jednotné
tát
pomůžeme
volbami
zrcadlem
velke
svěř
vázá
##tropo
poslance
##terapii
šátek
chodce
kašel
obraťte
čerpá
pokusit
##stock
jaz
tabuli
nápadů
animace
nebere
učební
kontrolka
##psání
vakcí
rozlož
##kátory
pšeni
nerezová
duelu
turecko
nesedí
jasnou
das
dluhopisů
středoškol
výprava
dít
živin
současnost
zisky
šesté
active
vyza
kozy
promyš
cenách
přeprac
nevš
dřevostav
paláce
konopí
přípravné
publici
objednávek
##sz
orchi
nekolik
vstřebá
břež
Čáslav
mrtvé
veden
kinem
jihlav
dur
##hoval
psychologické
lyžích
polštině
php
varns
tvrdá
##lod
půjčit
optické
##antní
##sák
##nitelné
jelen
kadaň
##elekt
hladině
šků
prodloužená
notá
##sten
##ctvo
Švej
základními
dovolte
cizího
vydělat
##43
zástr
čeština
rytmu
nynější
pojedná
vyniká
třílůžkový
nemluvě
grafiku
kontroluje
##ingo
vojáky
vylez
hromadu
vyjma
zaplati
##éři
rozumu
bloků
vmí
hlučnost
vip
ramene
zahájit
##chali
ohřívače
cizo
##hových
povaha
masku
hrudi
blízkého
variantách
černým
vysočině
týniště
omáčky
přístupná
boky
netopý
odkry
nápravy
olga
stačil
chica
studená
používal
zpravodaje
bříško
oslovit
##rance
chlupat
##veny
majoné
Šatní
paty
reví
stromov
kombiné
vedena
krytiny
rho
just
gólů
komunistické
nastavením
dotčených
jakéhokoli
##uret
rozpouště
##vorné
živá
##und
horizontu
zajišťujeme
##ražď
věkem
brdy
segmentu
poklo
rebel
sladká
work
mlékem
hlásit
akvizi
##zov
dubaji
zastávce
trávit
fronta
##opar
slíbil
uspokojení
navrženy
rozdílem
mzdové
technologických
jáchy
vroz
přijela
filozofie
význa
judikatu
hlasitosti
vystoupil
##plav
gs
brunet
mazání
wan
alterná
##řáté
běžným
seriály
zabití
úloh
nedostatkem
lodičky
##hlého
rušení
představovat
##jilo
stavů
jasne
##craft
světo
##čova
ztotož
zeleného
##šťany
exekucí
biologické
doži
omeleta
##betu
titan
italský
šálek
##ľa
ambice
sss
povodně
příkladu
##ťáka
polštářky
generál
demonstrace
věnovala
nenašla
##ženě
##hané
##pre
kombinuje
nadprů
měřicí
momen
zavazadla
ženský
##46
vytah
pokladní
rict
poskytovaných
vjezd
##menutí
##sna
londýna
vitamínů
2500
oběhu
modelování
##anské
svatbě
rizikové
výrazným
zask
trolej
##lických
chlá
podala
##ženém
225
pociť
přidali
room
sešity
kresby
##tni
záběhlice
razítka
instruktor
brokolicová
nbsp
zpracované
trojka
##knou
flori
specifických
prodloužit
přísně
##nû
získejte
obratem
motorce
xxxxxxxxx
gastronomie
neskon
Řecku
matce
mw
hk
nn
##rani
večírek
vyklá
vědec
focus
slyšeli
roub
platformy
##sign
přejmen
pohoří
pozvat
přijaté
přehledný
křesťanské
výhry
místostarosta
postačí
ruských
##els
vodítka
navrhu
louka
##čními
cituji
##vnosti
odch
dodávají
právnických
##jské
využijete
vera
poskytovateli
##tový
vnik
##něla
nada
shodě
deri
pus
sklem
barevně
mechaniky
absolventů
viac
hovoru
dojmem
##cejí
klientem
vloží
správném
novinku
##šta
zpívat
bramborami
mechanika
##tlak
předpokládané
anket
odhalit
zvážit
odsouhlas
zajímavost
věnec
jihomoravského
grilované
speciálního
lede
antény
celků
jazyku
zajímavě
nepovedlo
nehraje
rezist
bezdrátový
šperků
systémové
uvidíš
pripoj
##ingové
##lovém
výčet
cerne
##rc
relaxaci
rozpozná
docházelo
##vene
seznamte
doložit
##žely
získej
německy
##lelo
imag
výděl
topinky
kyselin
##rag
spatne
noví
ovládáním
zavlažování
##gitim
nabý
probíhalo
##bejte
##flo
světelný
##ovana
nao
otáčení
penězi
Špin
košíře
nevypad
osvětlením
punk
obrazovka
olympijské
keramická
same
slyším
sousední
odhadnout
krevního
nostal
milovice
jaroměřice
veřejnoprávní
rozpětí
vchodu
odhlá
ochrannou
doporučeno
přijala
vývod
dočasné
domnívá
podvozku
domaci
vykazuje
fyzika
bronz
nenávist
##kářů
samého
zadním
pásku
věro
##bořice
topená
potr
zneužití
odrůdy
boli
##zitu
plochách
vodohospod
agreg
avokádem
žalobu
jmenování
bár
##vl
geno
rámečky
signat
##atka
poskytl
pult
vala
debata
pouká
pojmů
klau
vycházející
pie
jirkov
šablony
##krm
rozbalit
gem
jmění
##fka
vodopád
lehkou
připojí
albrechtice
kolekci
vinohrad
placičky
156
akcep
hotelové
##lenými
kalousek
transformace
přešel
oa
isa
bouře
vidim
zrcátka
sympto
1939
připojištění
výjimku
průměrně
zirko
##šově
slovenských
pedagogů
volnou
kormidlo
bezpo
studu
##nina
konzervat
saty
lano
civilní
ladě
turisté
součet
příbrami
neviem
červeného
trávníku
nesmíme
vajíčko
hráčem
dětech
hospodářského
##sex
tílko
medem
suchu
klíčem
stipen
nepřetržitě
mozne
majetkové
hvězdičky
Československu
španělštině
luboš
##čny
farmak
bojů
splnil
uvádějí
pochou
##ror
zamo
kolika
náměšť
Čsl
současným
nation
síťové
sjezdovky
skin
dívku
veletrh
háč
zit
##zním
přáním
pekařství
kbelí
příslušníků
upřesně
tržeb
narušení
zaujalo
momentu
lex
dispozice
fotbalového
vik
cad
Šumper
nezav
##gre
##stom
náhoda
simona
moste
klášterec
bakterií
plátno
vrátíme
##ather
prostorů
budík
mateřství
cister
zaklad
predi
naná
##ňou
beran
zabývají
view
bubny
nevztahuje
muzikál
květinové
dokážeme
příčku
lineární
slim
##odíly
stanovenou
rovnoměrně
dovolí
zámeč
aminokyse
antonína
vano
sono
starším
##štinu
závodníci
interpretace
strašidel
erek
klien
umělce
smát
##kujeme
nevýhody
předpověď
usnadňuje
argumen
bohuslav
##teriální
snadnější
předcházet
hollywoodu
filmech
obdrželi
nežli
##novém
zábřeh
##skání
schváleno
##žním
případný
vědeckých
pujcka
naplnit
předpokládaná
kuka
upeč
pf
nejk
horko
bezo
děda
kořeně
##goni
instrukce
specializované
zástavby
koláčky
depi
##peče
##dějí
autory
pořady
porov
připomínek
úložiště
založený
renovace
chladničky
masopust
visí
Štra
květu
asii
alt
bezeš
##dík
vypově
mích
bosna
pamětí
japonsko
řezu
divák
##veru
mô
chil
cb
uplynulých
varš
finál
##ental
platformě
jawa
rohože
přejí
clu
vysočiny
kult
syl
balzámy
ekz
děd
příkladů
zastara
obsažené
##date
song
##padek
boy
kritiku
brance
neviděli
esenci
kdu
omezuje
nissan
##ders
účinná
opětov
##rovka
autobusů
zacházet
důl
vyto
předal
výkonnosti
příznivce
standardů
kompromi
obsadil
##iu
přelouč
setkáváme
parkovacích
platná
##čar
zveřejnil
##matika
bytí
##líková
přesná
zkušení
rozd
okur
získalo
burzy
vypínač
kožený
dlouhém
ostatni
sladký
nekončí
haná
cukrovce
##kovnice
zet
poradenské
ssd
##side
##ekonomi
ošk
121
rozšiřitelné
sher
ige
##nicka
hovory
zot
480
mramor
vÝ
trixie
barceloně
telefonické
school
metodě
##řském
##ltice
průběžné
čerpací
ochotu
toků
víře
nastala
singapu
##ffer
minule
mrkví
vychutnat
salátem
zivo
##daj
##doda
objektivu
vytáhnout
vlajky
lékár
pořizovací
platbě
motorové
mcdo
ukr
##cci
zasloužil
##mety
rohlíky
oceánu
plodů
##entují
myčce
pohostinství
hrdinů
postarat
společným
nvi
jilem
profesionálních
přísady
výkonné
inteligen
přátelský
senzory
břit
vozem
1988
zodpovědný
vkládá
hledala
tyči
budovat
naznačuje
ukaž
alžbě
znakem
modelem
napadne
vládne
roztoky
pronájmy
myslíme
zvedl
izolaci
výky
vrátím
nezbytná
##vily
vojenská
Šťastný
138
horských
##eká
oblek
připravená
205
položil
batohu
překážek
##lator
zničení
##ip
chystají
používaná
snou
laby
klidný
##77
voňavé
ptala
úrovních
bratislavě
libereckého
starostka
ústavy
profilů
klasickým
padl
Ús
uloží
poště
možného
komedi
vložil
řetězu
společném
znevýhod
ryze
mlýnky
vitrí
ochrání
transforma
editace
prolé
cec
vnou
zkoušela
vážím
splňují
tachometru
výnosů
tolerance
oživení
##trá
mní
skep
přihlášku
express
klidná
obrazovku
hejtmana
účinkem
keč
##rys
hnízd
informačním
paříže
masturba
úder
nekomu
berg
jednotkou
##érové
inciden
Žák
projde
trika
spadl
výbavy
vybu
knihou
##řicetiletý
##hlédla
získaly
roll
obět
válečné
##jazy
vsad
##vitě
suchdol
inzu
infar
akuvr
pohode
kandidáta
##lib
fashion
keramický
dlužník
##skla
palubní
kroměří
marcela
zahří
zúčastní
víkem
hospodě
dell
smazání
vinoté
xperia
uspořádat
tiska
mikrovlák
motivační
žár
akušroub
##pustí
starostu
##pru
##jížděli
hospodářský
halloween
##ovačky
podpoří
krokodý
kobli
##kulární
časových
látkami
obrazem
bezkonkuren
vibrace
##žitý
##gia
##ruby
##žemi
neopak
rybo
zčásti
odznaky
lidových
krátkých
pripad
teplotách
vykraj
žlutou
profession
obdobím
palet
schopny
zajímavého
##rovanou
cestovatel
vilém
##demi
mírou
nadstandardní
##šové
mluvím
kroupy
řádem
normalni
prohrál
elektráren
středem
rostlinné
nájezd
kapuce
##matická
spider
nechává
hekt
quick
znečišť
bála
lý
lasag
osvoj
časového
drink
xy
věřící
##tona
vousy
Úko
divný
vset
tvou
##rátoři
uvolnit
létání
kartáček
získávají
podáním
rakouské
tkani
zřícen
chráněných
nevyhnu
brother
rozma
emailem
nepřekva
Útěk
scén
zasek
rozhodčího
cviky
čelí
přešla
like
andr
##školení
záměry
protě
##mance
##běhla
##fla
mobilním
lahvi
akvari
známa
živou
znepo
jižních
nervo
filtrů
nenas
Ďá
doplněna
kečup
neinvesti
regeneraci
ušlechti
moznost
pb
strome
břišní
garmin
přijímač
provedla
toast
##romu
objevilo
výrobního
kostka
prvnímu
křídlo
squash
obklo
##zujících
##ezi
starým
tb
uplatňuje
neděje
utah
puma
přátelské
integr
cílovou
hrdinové
##řezu
výhledy
prd
střelec
fotografické
##žíte
napíšu
nedale
radikální
kompost
nudličky
##gly
procesory
ofen
předklá
##fic
ulti
uskutečnilo
srovnávat
vykři
mare
teena
eso
následkem
rozumě
strategií
filosof
vodiče
provozovny
idnes
příkazy
trávník
##vzetí
kamenný
císaře
ea
##tnější
suv
hlubin
třebe
nase
autoservis
specializace
##šecí
##vézt
naka
vazeb
pohlavní
##cket
##38
boili
##louvat
zabezpečit
šly
##ečky
repas
hypote
mužské
znemož
watch
ukončena
dospělý
nakrájenou
krajích
datová
sportovci
##hlaví
citroen
nemůžeš
krypto
tiché
herecké
hedváb
idi
lebo
balón
přípo
vytvořena
leck
ustá
kriminality
mesi
zlý
stý
hs
zvířecí
porota
metropole
posypeme
výplaty
správnost
veřejností
pomalejší
známy
##iller
vyzývá
adol
mýt
fabri
bok
navrhovatel
režimy
##hran
míša
jpg
potahy
##hodná
zkomp
strikt
##sách
vru
planetě
poptávám
jiste
dívá
osmé
zemřít
připojením
bezplatně
##jely
##hodit
greg
zakoupilo
zalijeme
čelit
Ředitel
##cene
tov
kolotoče
##berka
vydržel
kany
alespon
jděte
##elli
kloubu
kabiny
zůsta
základů
odstínů
rohový
potenciálu
tekutin
124
zkušenostmi
ohřívadla
dostáváme
bytem
zpusob
gon
##šenice
akuvrtačky
čep
všední
##ráme
##čký
pohonu
cuketová
365
nadsá
pojisti
vyslou
orche
variantě
arogan
identifikovat
ocelový
tendence
sedmé
polevou
usna
znojem
nastří
adu
kataly
výtahu
zvířaty
milana
##jovice
loup
##zla
koupelnové
spojený
integraci
časovém
hava
forum
235
ulicí
pyšní
lap
tehot
avan
aven
filtrační
čelo
zkon
steril
dojezd
##vník
kinech
volal
dušené
kasační
antropo
odem
splněny
nip
##rábě
upřesnění
akušroubováky
##řin
američané
nenad
drobná
##kčního
medvídek
filmových
zdravou
kvalifikační
##ista
omezena
určitém
investora
přepravě
dálkový
sportů
skluzav
hormonální
faktur
přit
úroky
##try
kwh
##likli
výškově
Štítky
##nská
žaloby
jižním
vyjadřovat
inver
minibar
pokrá
trosku
kácení
diskusí
nefunkční
šif
kořením
koží
ucho
přístupy
nevýhodou
elektricky
školka
travel
písemného
nálepka
hostinec
##chle
klientovi
##štěno
verdi
povoleno
rybníku
plachet
jemným
nedostatečné
celky
keře
##líš
leno
fs
##non
##woo
opasek
šířky
programátor
natural
orion
neobe
přezkoumání
utaj
chris
neregist
blika
##hovým
kamenem
pČr
plavba
difu
##36
utka
##sse
hitler
##mod
bezpečná
sláva
##isu
lucem
nezí
drahá
spektra
útěku
umoc
končetin
vypi
etap
136
drobný
salon
zásobníky
šedi
daru
clean
zdiva
zlepší
srdíčko
okny
sala
správcem
ukázku
přepis
##ovnu
jezeře
koly
lhostej
cedule
loňský
prioritou
dirig
##mara
zhotoviteli
nus
jíž
podobne
mrtvý
vojenský
##jížděl
rozptý
bílkoviny
##vaném
mořem
nadcházející
zahraje
videl
vynechat
krkonoš
##onální
Řad
nákladních
jezdců
miche
zapří
solidar
prvku
drážď
ess
smalt
6000
železnice
##znala
zadního
rezon
256
nárazu
nahrávky
##kosmet
koneckon
domně
rozšiřování
rodinném
podílem
výrazy
povi
pomůcka
kozačky
ženi
těhotenské
stahujte
bolše
ukázali
besedy
neschopnost
aster
následoval
##als
310
dramatické
náčiní
starostí
wall
novinách
karton
následnou
obecných
trhli
sencor
průtok
##ža
##éri
přihláška
vodním
pee
ict
zpěvu
opravdové
##pone
autu
##stickými
analýze
projektant
krupka
jakákoliv
brandýs
charakteristické
ního
předmětné
omezeným
prece
jistota
laboratoř
funkcemi
rozhodnete
potápění
shim
komorní
kondo
##kamera
prohlub
mesic
oznámí
noty
afgháni
zevnitř
nitro
podzemí
otevřeně
hrozný
publika
salám
nezku
moskva
aktivním
london
kaší
polikli
seká
kontejnerů
##kologie
##lický
1969
netýká
plemeno
přiznám
dovoluje
##bohat
nedala
gabri
pružiny
trio
rázem
organizacemi
projektování
voliči
fototapeta
náčel
zdůrazňuje
moř
objednala
spot
pediat
##veni
šťávu
##šovi
##oven
rodné
miloslav
hotový
##vrst
cítíte
půjdou
##deční
nezávad
##ckey
##enát
přerova
ostrý
prázdná
gay
pořídil
netre
##ingem
hab
koťata
zkoušení
technice
pletení
##kap
jednoty
postupné
copy
próza
##phy
nejslavnější
šatní
stavebně
pružné
rým
věčně
autorá
nače
nastá
total
lee
povinného
příjmem
rekordní
jednotlivě
údržbě
tvořena
vyhově
remi
science
rychlým
logop
editor
vesele
lípy
##chos
milosti
nevědo
nekom
nesprávné
hlavola
##kovské
##její
technickým
obloha
rub
princez
producen
vyku
pálí
nábor
dodržet
poměrů
nástupce
zamyslet
píst
legitim
zprávou
doporučený
absolventy
rusové
vnějším
okem
##dova
uloženo
obvin
atyp
##stickém
horký
tata
překvapit
svj
bílov
wer
výjimečné
příchutí
americ
podnikové
básník
nezak
satén
prosad
##lari
##térů
uzavřením
##user
vltavy
skandiná
budes
teplotou
německém
##zuki
zařídit
filharmo
středi
##atě
zajistil
napětím
centrálním
nedalek
lysola
rovnováhu
energetický
nejdou
specialisté
##pact
mrtvého
nk
##kováním
##lečné
andu
rytmus
unesco
rozjet
kontrolního
pozorně
přidávat
poin
snižují
symfo
smetana
povolit
tragédie
nekter
kapse
pradědem
##the
přijatých
##líny
představitelů
rup
##áren
přehrady
arrow
fakticky
htc
nabití
analogové
memo
působením
##klon
##zduš
gm
vytisknout
##kolo
papírem
chtela
ohrani
##žební
následovně
držáku
nástupem
směry
citi
kalendářního
##ate
úni
struktur
##titu
##mek
neuvi
zrychlení
adaptéry
interakce
počítačových
##chově
aw
holý
tekutiny
##avat
ateliéru
skleni
##centra
zaži
vyprávět
##tologie
zasahuje
nedokázali
kojící
jahodový
korupce
přispívají
samostatného
##cro
památník
rybáře
typická
pěstovat
domečky
nejenže
pustili
##izace
##ňovány
jmenoval
##rače
bozp
pochopila
jojo
Ústavu
rozprac
tail
bordel
vt
odprac
doplňování
balzám
neslyší
fax
usměr
naučili
koloběžky
oste
mentální
kurý
katastrálním
startovní
částice
##mate
playstation
preto
vidě
##účin
bruslení
úseky
křest
nejnáro
čidlo
adekvátní
příbuzné
operačním
linda
nehledě
pokrývač
##dlům
výškou
modlitba
##chta
ručení
horkou
sssr
aktivního
kvalitnější
principů
zdravotnická
##láka
vydalo
gesta
Územní
zjišťování
posklá
naposled
##raná
##alitu
kondicio
organizuje
svoz
kabelem
##línek
kalendářních
exkluzivně
lhot
projevit
ujal
advokát
##bonu
trubek
poklice
solo
používán
nespraved
politicky
vrásky
vepřový
zadny
identity
##enem
listin
vymaz
##naný
ručník
procesní
##ředí
rotační
##mechani
bezproblémové
prosadil
zpro
neslu
značnou
hoři
tibet
postýlku
##vci
výsti
tabulek
emisní
##štěnou
slávy
siři
zajistíme
gólu
##ránu
novinář
atmosférou
lide
standardních
##nuly
zlu
předvedli
Úřed
nastavené
oblá
módu
nadná
deluxe
rychlov
pojízd
vítkovice
spokojení
příjemným
podstavce
souboje
herců
skutečných
##řeme
oděvů
špenát
startér
povídat
svítící
nezpůsob
zpest
náhodně
##peri
inova
štěr
výpočty
zesilovače
akorat
bauer
kocar
uklízeči
##obu
panen
logistika
kadeřnictví
spiritu
výplň
nejdůležitějších
řízek
přeboru
vyhláškou
nezaměstnanost
rozt
tištěné
uděli
zvolení
podmínku
##žovala
chlebíčky
zemětře
cifer
žalovaného
vychovatel
ekono
nebezpečná
zpoždě
intimní
dily
dávala
soboty
utop
chodníků
hudebním
konstatuje
udí
kubi
vystavené
těma
orlová
prokazatelně
plného
znaku
ujet
##rtem
vrcholem
běžecké
vánocích
1918
firm
speciálními
pyžamo
otok
podkr
nepřítel
pravidelnou
konektoru
##říky
procházet
##čké
kabelku
##měrná
přítomen
##torem
přehledem
##metry
##fikačních
snazší
odsouzen
defek
camp
##pic
migrace
##isen
zdokonal
prodavač
forward
pošlu
nejlíp
kokosový
hladinou
horažď
jiřím
poškozením
##tickém
staň
umírá
věží
fenomén
mikrob
trestním
kouzelné
osmnácti
##lostní
chytit
kmí
dopla
maďarsku
teče
natočil
lasagne
##ovolta
mira
považujeme
orp
ethernet
představili
##prou
valná
územně
stánek
Československé
naučila
platu
ujistěte
ohle
##hradí
zaměřená
vynález
potvrdí
##žice
možnostmi
ix
výhodně
zahájila
demolice
bezmála
mand
nai
rukojetí
polst
zirkony
blbý
zajišťovat
nerezový
doufam
pojí
##hací
zvládl
rumbu
václa
##cestí
kousátka
jakost
pramenů
vyved
šál
720
utekl
sorry
cibulí
doko
1987
cher
výle
doporučují
bicí
rati
loupež
klíšť
1980
celozr
Čaroděj
odstraní
tlust
##ckej
karlova
stihl
nevní
povinně
##telích
pojďte
kotě
středa
schválně
zastupitelství
anglickém
solar
bd
kut
denním
konku
##dičky
očivi
##šnosti
##noval
##dynami
balon
anatomi
sporák
##nkyně
##ůvky
počátek
ikea
číslice
##růstající
názorem
chmel
prostorný
dver
##opla
divákům
stupních
##ema
kaši
spas
rai
tapeta
páře
úcty
nula
přibývá
žila
ukazatelů
lokomotiva
kondicioné
##mrt
odolnosti
##zeném
prozradil
motocyklů
směje
doufat
postavou
tvrdost
ročníky
dotační
územních
pohádku
rodinnou
oddlu
##lná
odrážed
vloček
vnějšího
pobytově
265
videokame
částečné
avat
teplov
nezlob
ověřování
klein
uvedli
uzavřených
sap
##něl
##roje
magic
vati
gá
kauf
pozůstal
redukci
zao
ciká
kmene
##ür
startuje
recepční
##halo
klání
islá
naprostou
možným
restitu
přepad
modulů
používaných
rohová
zadu
regiony
neved
##cá
##lovu
pito
##strada
točit
hrubá
##hlejší
Šluk
tetra
neméně
setkali
květinami
netuší
vystupování
##ovať
##vii
pioný
fotovolta
leté
zaměřených
velenice
kávovary
široko
skleničky
##very
polyuret
meteorolog
nabízených
páč
zneužívání
protected
krč
fantastické
pardubického
nemocnic
těžby
sebere
##ádou
nevěděli
##ňovaly
lysolaje
vřes
zašlete
načer
wars
správou
kosmi
central
nasadit
trestných
uživ
rie
povolené
##látory
maly
přehledné
založeno
responden
buně
vyučení
schůzka
vafle
elim
ocelových
reprezentační
##šeme
##kázaly
proboha
dotyčný
opod
aloe
sněhem
plátce
sand
uvedenými
pobý
hrozné
penta
rozvojové
rozkro
sbírce
vodítko
kto
zájmové
stmí
pány
vale
věřitelů
nedají
vdech
nála
doprovodný
aristokra
mlýna
dýchacích
němčina
##lizace
běhání
zakři
kopírování
ciziny
očekávané
detekce
rio
příběhem
jedenácti
empi
občana
##pot
páni
kolau
přehlídka
dolar
rodí
bezlepkové
##burgu
sako
##ňan
comfort
poukazuje
připevně
skleněný
##cházejícím
pacientům
zálohu
##čáku
slavného
inovací
debaty
zúčastněných
lagu
formi
##vut
jaroměř
plodu
přejezd
##lujete
bezna
kněz
letního
sněmovna
pozvánky
rato
##tiší
nechť
dezert
##itida
mouka
facto
beránek
blin
podílejí
prášku
koneckonců
přizpůsobení
tašku
fos
chebu
válkou
čtenářům
datových
pšenice
ilo
##šej
bojov
používaný
hřbet
ústa
připojte
istan
právech
přejde
bara
předčasně
stb
slunečníky
jones
dokážete
překvapil
všeobecná
##rátem
vyvý
protilá
povinna
nezd
povinný
antibak
barů
nenošené
panske
##enstvi
##listu
promítání
Čsob
místními
##žejí
přemýšlel
leu
austrálii
##41
vánočního
obviněného
hřbitova
pomník
##jdu
132
vyčís
vyrobí
přebalování
poskytovatelem
plug
##pěst
zmíněný
úkonů
ústrojí
křivky
stabilita
bacha
##edy
porazit
pruhu
Šk
amsterdamu
svíc
pečovat
##charidy
zaujmout
##hni
infrastruktura
tanci
rande
zlínského
##ql
minuta
přívěšek
demontáž
nafou
příznaků
vyřazení
nenabízí
badmin
vymyslel
tvých
příchodem
##vějších
##lab
folklor
expozi
seminářů
##dobe
komunismu
cupu
##ikou
dobrovolné
nejkvalit
nama
uplatňování
edition
zkouší
pohonem
másle
živých
žralo
marii
diplomové
##vobod
##rátů
činnostech
vyhrazuje
zapomněli
úmyslu
metali
dnešek
##style
smíchu
systémech
skři
##pete
hypermar
limonáda
series
stahovací
máj
sadě
slabá
předností
specifický
směřující
magie
zahrnuty
odbou
odčer
odpůr
octa
celostát
##bii
definuje
marcip
tyden
bydlím
administrátor
prostějova
radia
##dard
jedlých
konstantní
odstínu
vybavená
vyhraje
myšlenkou
odvrá
zvonek
průvodcem
těstíčku
##ranti
přála
americkou
prodáváme
ekonom
temné
cart
##tete
##ňku
trubice
sebem
trubka
italštině
##clé
poskytnuta
bezpečnostního
zdravotnického
##kultu
látkou
kuchařky
tichá
jmenuji
##ovách
janá
##řezá
odvy
##nio
##nkové
odejde
průřez
zabrání
##nkem
ministrem
neumě
engine
orientální
příkazu
významného
filma
##šející
začněte
casu
šatů
návleky
půjčovny
hollywood
kouká
zhubnout
ura
##gator
mars
kopr
ech
plnoští
vztahují
touhu
hmotné
romantický
ešte
##lická
proběhly
hleda
budapešti
baler
církví
lipno
celuli
brut
čokoládu
zvané
studený
definitivní
imunitní
kompozice
sedle
řešili
##lenky
nedokázala
horou
fází
##tions
ls
podívám
všemo
lečo
náva
asijské
investici
shlédnutí
nočních
knihovnu
skou
záloha
##sci
zapomněla
##šího
uveřejnění
fotogale
dokonalosti
uvažuje
bau
pouta
##telnější
nepřímo
hag
tepelnou
casto
otočit
konzoli
způsobují
angeles
kdokoliv
bridge
umístil
držte
optika
vyhovovat
sádrokartonářské
aaa
podkrkono
setkávání
dopřejte
track
roviny
skau
racing
utá
sourozenci
##stranit
nezam
tvořen
turistická
rosa
statistika
dry
humpolec
bazénům
luště
##ťan
##hově
router
zít
Šenov
písemná
nějž
##ýval
háje
pneumatické
petru
##nohor
dopadu
plati
laku
návštěvnost
napravit
arsen
skříní
policisty
sčítání
##vele
levná
živnostenského
vymal
##obi
poškodit
rndr
popoví
výtvarných
celoživotní
kratochví
mun
omezený
eric
chorvatsko
##advacetiletý
koupelnou
tělocvičně
prostorové
nastoupí
lamel
extrem
vně
léčiv
zápach
ccm
##financování
neohro
proutě
zahradnictví
##rony
jedovnice
životů
rozeh
spotřebě
pojistky
vyzná
osazení
##rátoru
##ful
sourozence
legislativa
oblíbeného
teré
neznal
podstatu
hna
dárků
hlinsko
muzes
extraligy
vondrá
dříví
kšilt
neúpl
útulku
##cce
rika
brusky
odstupem
půlce
otevřen
náchy
dividen
mikrovlnné
fauna
##pisuje
smažené
porodnici
Žalo
terit
litev
výzvě
remo
odkazuje
washington
traum
zastavila
##kovanou
masarykova
##kráte
záchy
prožít
předložil
krajská
kandidat
nádražní
doručeno
čokolád
letého
skála
##mut
jednička
cesto
okruhy
zlepšovat
emailu
chytrá
pouhým
střech
nezbytně
kupoval
dávali
sucha
střelba
lékařská
silných
akademii
palub
překladatelské
stolařství
patizony
zs
šťáva
uvolní
dospívající
stoupání
odkapá
přiměřené
shání
národy
firmách
kolu
milev
press
zkratka
pomocníkem
keramiky
únos
šatna
telč
projevem
blanka
modelka
##79
trezor
lídr
komunisté
soum
grafický
továrny
nejbližších
revizní
navigaci
grafická
televizního
##šenými
##dný
jednoro
sdělila
spreje
tuč
prijem
hrot
uzavřená
bavilo
nazor
doporučuju
zaca
učil
##bičku
##rovací
faktem
ikonu
otázkách
pokusů
osci
##álnější
cash
vybírejte
rozvoz
##rei
1985
zpětná
brokolicí
##istka
povlaky
příslušníci
básní
anny
jednota
památka
barran
romeo
##ans
šťav
vypne
vlaků
synony
voze
trailer
vlastni
energeticky
vypou
svátků
sachar
nožů
předsednict
jedinečná
pých
pater
##roba
zdravim
úzkost
konečném
přeta
povrchových
střely
posádka
vstupů
starob
suvenýry
##gla
kolé
buř
##louží
##livostí
silami
autorky
pyrotechni
soudrž
zahájí
rid
vista
stla
rehabilitační
držela
nezaji
##kach
gali
prokop
vlnu
vysled
ponech
jistotou
zmizela
##az
1600
pusu
bramborový
intervalu
maily
světelných
statek
tvorbou
přené
geniální
##nní
ponechat
západních
kö
odpružení
zamrz
pozin
prohlížeč
plynový
vir
neexistují
prodejen
strávili
plných
přistá
cement
jinej
quino
##elo
přístupný
vypočítá
způsobeno
hranicí
schodů
adven
městečku
zvýšený
##láků
komunitní
##livější
hnízdo
opice
sloví
svíčková
pánský
lesklé
spadla
steph
studena
proší
absenci
zklaman
ortoped
řekněme
##advacet
nehodí
##uše
změk
prostí
zahrnující
nechceš
##vany
zásadním
bili
obklada
##chyby
revizi
snižovat
škra
velry
kresba
topy
byliny
hoštice
hiera
arabské
zvyky
##čicích
##kářské
unavená
kauze
pracích
146
rizikem
mandlový
##atou
ozval
utrá
přednášku
spro
kyjov
ozvě
směn
odpovědný
##boxy
barcelona
nebem
nadvá
kilometry
kuskus
vyb
usnadní
direct
potažmo
levandule
neudělal
##ticích
opal
##kovský
pivu
nepřines
výstřih
Žeb
slé
nedočka
nepřiměř
neziskové
samolepící
tz
brašna
integrovaného
games
kladné
rohové
smluvními
citronovou
garance
experimentální
##litry
investorů
publikací
myslivecké
suverén
have
##ampion
##řemýš
tajný
fara
diváka
##fra
mletého
specifika
únava
##ero
trouf
všed
štítku
pěš
přenést
tkání
##alizovaných
slovu
##drželo
výčep
tatín
hans
##barevné
ovlivňovat
sporů
maturitou
zvládla
Čvut
pije
ukázaly
zvlh
dešt
výjimečný
organické
vaničky
kvete
obohat
odmítla
pták
##skeho
akcele
zÁ
ese
otvorem
statistik
karim
kávovar
stížností
auditu
what
doplněn
soudních
včely
prodavači
námořní
##ovski
reprodukce
ztratili
procesem
##parku
melodie
tym
kráse
friend
##natých
##píte
ohodnotit
spojeno
vstoupí
netrpě
nacházející
penny
nasko
náměty
malby
úspěšných
velikou
korálků
vtí
pravidlech
##39
automatického
ton
startem
gent
environmentální
počít
zavazad
odbory
hostem
hotová
cali
tanečních
mimořádných
zřetelně
stag
##čnic
obdržení
rh
family
československé
##lingu
prstenů
aktiva
##rovaným
razan
výsledný
zkoumat
dotazníku
side
nejmodernější
kyje
píšou
kanalizační
lol
stockhol
uráž
zvyš
nahradil
schne
zamil
dostávat
potravinářství
oně
cej
blízkých
záchranáři
odbav
stiskem
##matem
hust
kontě
ukončen
umístěný
redakční
opěra
komín
christ
dh
##dnu
anal
plemena
objektivně
filmem
rozbí
zavinova
krádeže
narozdíl
zastupování
##hart
televizí
pori
dopravním
aspi
dortu
ratole
nadech
##anovice
pachatele
přidělení
nepříjemný
praktickým
listina
užívají
policista
charita
##gové
nela
pokusím
vinice
vydávat
věži
uzavírání
celuliti
podpisy
neobvyklé
disciplíny
krkonoších
čtvrtém
přírů
caes
prispe
nominace
katolické
sbírek
##antem
nároků
vyřeší
1970
chko
skali
zúčtování
##řenými
pórková
chováním
podívala
plným
grafice
urg
cri
díra
hřbitově
nekomp
cars
humanitární
odjel
nastaven
přečetla
lékařskou
příslušná
kněží
fuj
##etín
transplan
kroužků
výplně
vyty
##fel
bubení
zákroku
zastupitelů
cizrnou
onkolog
piet
Železný
paru
rovnováhy
řídil
pokroči
##ovych
card
proku
doporucuji
napůl
antioxid
jičína
osvobod
zeměmi
prolí
##ává
agendy
opla
stred
ohled
letecký
##mující
tdi
nedoz
dolním
městyse
vypouště
hmotností
##bři
nákladech
venkovních
##slech
autod
slečny
professional
##hof
triumf
paris
tchý
počer
bílovice
příměst
##raty
extrakt
cizinci
##ridu
zimního
pěkném
##dány
odolného
chirurgie
strahov
evalu
skupinové
blou
ztratit
obecného
výrazem
arcibis
rozdil
##ativně
vozidle
provádějí
interven
nezad
##stoupilo
kurt
precizní
seděla
umístěno
vzte
repu
efektem
časopise
cater
rekreaci
suzuki
skladatel
##ďák
honit
propuštění
vesni
modrém
nehtů
započítá
poruchou
odlišný
##řováním
jur
zápal
sportovců
rallye
berna
hrobu
luhačovice
obrábění
indexu
##ridge
##vková
talíři
gratuluji
##povat
##lině
databází
měřící
negativních
investoři
##letěl
konsoli
přeháňky
ventila
vadit
překonal
152
různorod
krevetami
bezpochyby
přistání
vědců
pape
nepříznivé
zhou
##mněli
připomínají
angažmá
uděláte
počátky
nemůžou
cez
fut
uzavřen
severním
prehra
##jíždějí
166
provinci
šálky
kolíně
zákonných
korekce
##veného
záplet
avo
touhy
schválené
braun
napole
využije
##asa
##mol
tescoma
všimla
terase
milovníci
žalovaný
tenisové
fed
byro
mzdu
adobe
blízký
potaz
záclony
aukru
chrudi
horka
propagační
opep
řečt
studenou
1920
inventari
ráji
147
pise
realizuje
budoucím
porušování
nevědí
##kaze
chladicí
povaze
lear
polstr
##mbin
skvělých
družstevní
nevypla
zabrat
farní
rousí
caro
spolehnout
válek
uložen
přenáší
hnu
vychutná
##vačem
věkových
menšího
lístků
##rická
zvednout
srdíčka
naplní
vlastimil
certifikace
bojovali
##fyzi
nedává
domini
zázraky
inteligent
tovární
kůry
nejši
sousedů
pokračují
nejlepšími
##čeli
loupe
třá
neopr
zmiňuje
zahájili
podivné
nepovo
jeřáb
bavili
příjde
školáky
144
alternativa
kupujícím
obratu
sebasti
šířce
vimperk
##zního
##ňováním
hydroizo
podsví
##ido
lomu
přenášení
přinášejí
##lana
digitálního
##ťáku
jení
zažila
##ray
spolujezdce
zánětu
litovel
důsledně
pochybení
twitter
prohlížeče
utká
nevydrží
dialogu
mrazí
rozhodčích
lang
vltav
marihu
uskutečnění
smrto
dílně
Řadit
moravskoslezského
otrá
##sledek
nedařilo
jup
přemo
lesního
požadovaných
spreji
dopustit
šatech
následků
nazvat
zachránil
pomocný
ambas
##sloví
seznámili
považováno
tonery
cir
neporu
lot
rozumnou
skype
arcibiskup
young
Ústavního
obrátil
předcházející
geometrie
velka
foot
zadávacího
uhlířské
eet
zadne
vykli
ohlasy
liturg
zasílání
necelé
jídelně
golfové
##ložka
ukrajina
dlani
poznali
debil
špičku
rozloze
rudé
osvěžující
prodejnu
mirek
Čak
nede
odvádí
mostem
##shop
protein
cerny
novej
##hodnocení
sushi
##kalyp
jistoty
rezerva
čerpad
zátiší
370
probíhal
zapsán
rtu
navrch
odborníka
platforma
nervózní
lhůtu
centrálního
podotý
##dc
obejít
fakult
##vyklá
žvýka
oÚ
opavy
nerozhod
##grad
korozi
##tet
Česnek
přikládá
uko
západním
mama
##dáte
##kcích
trocha
výstupem
fotkách
##tově
dobý
Žatec
akumulátoru
chlapců
vybor
Španělska
vecer
přilby
vytápě
zdlou
následná
Činnost
iveta
videokamerám
průtoku
kode
budovou
nožem
perník
zhrou
nezávislosti
##anim
mycí
boxerky
teraz
slovenského
volebního
diecé
průvodci
patch
pecka
poskytována
zli
nepřítomnosti
vysokotla
založená
očividně
asistentka
trvající
kazeta
momenty
cesky
colo
nemí
##téru
zahraničního
doplatek
luna
dovolím
pomalé
celému
jarda
##rana
podotknout
adri
klidne
režimů
čemž
obchvat
populaci
nechodí
zoufa
maďarsko
soupeřem
ústí
maňá
##mysli
rozcestí
##enčních
zadku
##liční
nalezli
zpracovávat
parazit
uro
investory
pokračovali
uctí
##bán
úspěšnou
udělalo
memori
klíčů
vypořádat
faul
vlez
##web
tempu
##tez
pódiu
přidávám
dead
sednout
režimem
starostou
koři
standardi
jelo
pobě
emulze
závin
nachlazení
stály
benedi
inka
##viduje
krava
použila
stáje
vyvíjet
srážky
##ague
spáchání
šťastné
ledviny
plou
zaručeně
##xa
původem
mechanik
##cující
##menou
oddíly
odškod
audioknihy
chrup
##kist
##movým
rovný
jmenován
jablonné
nepřišel
hiv
yamaha
##moří
##terak
výroky
vyrů
citrón
druzí
ay
ukládat
##ople
vodorov
Časopisy
jabl
vyměř
##lish
950
##inský
##mutí
##lovo
Škra
swar
učili
čidla
šroubů
děť
vytý
přestěh
tradičního
##ovačka
přeho
firemních
dlaně
##anda
1986
teto
##baly
portfolio
organizér
dohad
vstupních
výpisu
mikuláše
živě
nefor
zvukový
##kory
podlo
chladno
nippon
ie
probuzení
lovec
jogurtem
##telne
chudák
##dnou
dojel
gas
##ánský
reprezentativní
ambi
potrvá
doručena
##tivé
nápravu
milit
snažení
kids
vh
porostů
nepouži
náh
zprvu
podolí
frýdku
čáru
##vícení
židlí
vestavné
vystavě
##lene
bolog
chyběl
##lesk
docházky
nebes
mláďata
digi
obecních
edge
##lni
vyrábíme
odpověděla
snížené
##ovech
##koru
výškové
sdělí
invalidní
druhem
slavii
evropským
planeta
lubomír
irena
hrající
wp
výzkumných
monu
srandu
##polis
##onali
##řadech
poklady
sň
##rávání
nezahr
lik
##mela
nemluví
sei
joy
předpla
##jíždíme
žaludek
předlohy
břiše
dopisu
nejvyšších
opet
zvyklý
##čanech
##štěného
norštině
drinky
sir
bitvě
zkušenostech
popsané
úspěšného
neurolog
spokojeně
bonusy
proš
inspirací
masarykovo
cf
lihov
netvr
definici
citlivou
lovecké
btw
opatovice
slavo
světlu
plé
portfolia
závada
##tané
dobříš
##ktivně
palm
alergen
ventilátoru
bechyně
daty
##ézní
anestez
prké
vyčerpání
konzumace
leon
##stor
plotu
známí
akvária
mafi
nevyžaduje
koulí
architekta
uvádět
rozhovorů
##zin
mastné
ozub
realizována
mikrofonem
ostraha
henry
pař
bbc
splet
nelíbilo
vznikající
bk
obědy
koukala
vylo
sebevědo
budapešť
nezbytnou
předsedu
kir
##rozumění
vybraný
break
##pování
filé
jarních
##inutí
kamion
studny
administrativa
digestoř
kovář
mx
##žalo
sjednané
odpadky
čistit
anální
editoru
propojit
výhodnou
účelové
řeši
lustr
sousedství
větvi
intenzita
bie
jeans
eba
přiměřeně
ambulance
hanka
pořádají
##fli
check
kila
##žnice
nerost
výchovné
najeto
bezmoc
zvířete
poděbrad
zanedba
spisovatele
popelkou
tisíciletí
plnoštíhlé
ušit
moudrosti
##prí
logoped
dlouhého
nezávislost
hb
##stavy
útoků
rybaření
automobilky
načas
věřitel
emit
přispěl
ago
letecká
neot
vitr
řídicí
Škol
spekulace
střída
upoutá
maminkou
ventilace
nejčastě
skladbu
##rz
madlo
vzorce
programech
dneška
##zujte
laký
pekárny
brex
problemy
diabe
barevnými
kočička
architekti
times
jednolůž
zhotovitelem
nepi
##blíže
ízení
namít
kancelářská
zkouškou
jimž
plochý
řetězy
druho
uplatní
částce
nadzem
hřídel
ustál
nenajdete
zmr
stěžovat
pozval
přestě
prezentuje
deut
příjemci
##paná
udržitelné
provází
bezvý
##lovací
filmového
studijního
sebemen
chybělo
##rans
revol
pasty
chemo
privátní
provize
177
nekonečné
posilovací
pojmenování
hradit
impreg
buj
prokázání
podléhá
nadřa
delším
nekompro
meditace
##obrábě
1984
použitá
nedodržení
koníčky
agi
##bosti
bryn
##tas
kartáčky
geode
soupravu
nasi
simp
likér
záležet
scott
ade
single
synago
přizpůsobí
farmě
pracovišť
anketa
##ovači
pocitem
nadměrné
profesora
boot
placené
legendá
ket
##jené
##ťá
chladu
vita
ženami
zásluhou
foťák
troubu
deváté
table
džus
sportovně
benzin
##teľ
bayer
plyno
prohlížení
došli
neříkám
nádi
čerstvých
jesenice
davu
zdůraznit
vyhodit
nikterak
perfektním
přesnější
dutiny
sie
##kúra
lehkých
skříni
pobočce
ideolog
stravenky
company
pasaž
zblá
umyvadla
nejvýznamnějších
gravit
instruk
combi
prut
finali
popravdě
mrav
karcino
těžba
balónky
kolotoč
výpovědní
acce
bára
##here
ambulantní
exem
global
alois
signalizace
nádhernou
frontě
komentovat
dokážu
bílými
pone
zeleninové
chlapecké
##pach
zajisté
##ars
zvolí
všelijak
hydratační
wy
úvodním
zemětřesení
zprostředkovatel
sondy
ježek
bangkoku
potravinami
posuvné
zásadité
mú
zid
176
bist
svíčku
písnička
povstání
rozhodnou
zámků
čelisti
vývoz
dámskou
bs
##lům
##čkům
nadříz
zítře
pohádkové
miloval
##dry
kliknutí
kapitána
uzamy
pepa
králem
souběžně
připsal
mechanismy
hercegovina
naži
##tiny
ozve
přihlédnutím
normálních
experti
##mné
dolaru
vařené
vojenskou
vystudoval
kliniky
nepora
nedosa
##cation
##zátory
##nského
tuhý
virus
šedesátých
hrubého
tool
autoško
oplách
vraždu
uzem
hůlky
lodní
rota
činil
železo
mall
padlo
fú
uhradí
porosty
obrázkem
dorazilo
plasti
zesilovač
orel
jakýchkoli
jihočeského
##šníci
šestnácti
##rálu
milioná
##blou
levého
nabo
##ditel
##pnutí
vyžadovat
baseb
úpla
skutečným
charlie
vek
lock
štítky
zvr
poloost
##zenu
můstek
mnichově
závodník
[...]
